{"<s>":0,"<pad>":1,"</s>":2,"<unk>":3,"<mask>":4,"!":5,"\"":6,"#":7,"$":8,"%":9,"&":10,"'":11,"(":12,")":13,"*":14,"+":15,",":16,"-":17,".":18,"/":19,"0":20,"1":21,"2":22,"3":23,"4":24,"5":25,"6":26,"7":27,"8":28,"9":29,":":30,";":31,"<":32,"=":33,">":34,"?":35,"@":36,"A":37,"B":38,"C":39,"D":40,"E":41,"F":42,"G":43,"H":44,"I":45,"J":46,"K":47,"L":48,"M":49,"N":50,"O":51,"P":52,"Q":53,"R":54,"S":55,"T":56,"U":57,"V":58,"W":59,"X":60,"Y":61,"Z":62,"[":63,"\\":64,"]":65,"^":66,"_":67,"`":68,"a":69,"b":70,"c":71,"d":72,"e":73,"f":74,"g":75,"h":76,"i":77,"j":78,"k":79,"l":80,"m":81,"n":82,"o":83,"p":84,"q":85,"r":86,"s":87,"t":88,"u":89,"v":90,"w":91,"x":92,"y":93,"z":94,"{":95,"|":96,"}":97,"~":98,"¡":99,"¢":100,"£":101,"¤":102,"¥":103,"¦":104,"§":105,"¨":106,"©":107,"ª":108,"«":109,"¬":110,"®":111,"¯":112,"°":113,"±":114,"²":115,"³":116,"´":117,"µ":118,"¶":119,"·":120,"¸":121,"¹":122,"º":123,"»":124,"¼":125,"½":126,"¾":127,"¿":128,"À":129,"Á":130,"Â":131,"Ã":132,"Ä":133,"Å":134,"Æ":135,"Ç":136,"È":137,"É":138,"Ê":139,"Ë":140,"Ì":141,"Í":142,"Î":143,"Ï":144,"Ð":145,"Ñ":146,"Ò":147,"Ó":148,"Ô":149,"Õ":150,"Ö":151,"×":152,"Ø":153,"Ù":154,"Ú":155,"Û":156,"Ü":157,"Ý":158,"Þ":159,"ß":160,"à":161,"á":162,"â":163,"ã":164,"ä":165,"å":166,"æ":167,"ç":168,"è":169,"é":170,"ê":171,"ë":172,"ì":173,"í":174,"î":175,"ï":176,"ð":177,"ñ":178,"ò":179,"ó":180,"ô":181,"õ":182,"ö":183,"÷":184,"ø":185,"ù":186,"ú":187,"û":188,"ü":189,"ý":190,"þ":191,"ÿ":192,"Ā":193,"ā":194,"Ă":195,"ă":196,"Ą":197,"ą":198,"Ć":199,"ć":200,"Ĉ":201,"ĉ":202,"Ċ":203,"ċ":204,"Č":205,"č":206,"Ď":207,"ď":208,"Đ":209,"đ":210,"Ē":211,"ē":212,"Ĕ":213,"ĕ":214,"Ė":215,"ė":216,"Ę":217,"ę":218,"Ě":219,"ě":220,"Ĝ":221,"ĝ":222,"Ğ":223,"ğ":224,"Ġ":225,"ġ":226,"Ģ":227,"ģ":228,"Ĥ":229,"ĥ":230,"Ħ":231,"ħ":232,"Ĩ":233,"ĩ":234,"Ī":235,"ī":236,"Ĭ":237,"ĭ":238,"Į":239,"į":240,"İ":241,"ı":242,"Ĳ":243,"ĳ":244,"Ĵ":245,"ĵ":246,"Ķ":247,"ķ":248,"ĸ":249,"Ĺ":250,"ĺ":251,"Ļ":252,"ļ":253,"Ľ":254,"ľ":255,"Ŀ":256,"ŀ":257,"Ł":258,"ł":259,"Ń":260,"ĠĠ":261,"Ġa":262,"Ġt":263,"in":264,"Ġo":265,"re":266,"he":267,"čĊ":268,"on":269,"er":270,"ti":271,"en":272,"Ġthe":273,"an":274,"es":275,"ed":276,"Ġc":277,"Ġan":278,"Ġof":279,"Ġs":280,"or":281,"al":282,"Ġin":283,"at":284,"ĠĠĠĠ":285,"Ġp":286,"Ġf":287,"tion":288,"Ġand":289,"it":290,"ent":291,"Ġre":292,"ing":293,"is":294,"ar":295,"Ġto":296,"Ġb":297,"om":298,"Ġw":299,"ur":300,"ec":301,"Ġd":302,"Ġm":303,"ic":304,"ro":305,"as":306,"ĠčĊ":307,"ment":308,"ĠC":309,"il":310,"Ġe":311,"ation":312,"st":313,"ve":314,"le":315,"un":316,"li":317,"ĠA":318,"lo":319,"et":320,"Ġor":321,"ĠS":322,"Ġth":323,"ce":324,"ate":325,"Ġn":326,"omp":327,"ly":328,"Ġas":329,"ĠT":330,"Ġ,":331,"Ġfor":332,"Ġcon":333,"ul":334,"ct":335,"ch":336,"ab":337,"Ġpro":338,"us":339,"ĠI":340,"id":341,"qu":342,"Ġbe":343,"Ġour":344,"ĠĠĠĠĠĠĠĠ":345,"ĠP":346,"Ġ(":347,"Ġsu":348,"Ġh":349,"Ġex":350,"im":351,"Ġon":352,"ci":353,"ol":354,"ers":355,"red":356,"ĠĠĠ":357,"ated":358,"ot":359,"ĠD":360,"ĠĠčĊ":361,"ith":362,"ay":363,"Ġinc":364,"ut":365,"Ġis":366,"em":367,"ompan":368,"Ġwith":369,"ge":370,"ect":371,"the":372,"ĠF":373,"Ġst":374,"ant":375,"ity":376,"Ġ.":377,"ompany":378,"ments":379,"Ġby":380,"ess":381,"ĠE":382,"ĠThe":383,"res":384,"ir":385,"Ġg":386,"Ġwe":387,"able":388,"Ġthat":389,"Ġac":390,"ig":391,"ain":392,"ĠR":393,"se":394,"por":395,"tive":396,"end":397,"ff":398,"Ġde":399,"Ġun":400,"ĠIn":401,"Ġare":402,"per":403,"ver":404,"ĠO":405,"ter":406,"tr":407,"ĠCompany":408,"ther":409,"ties":410,"oun":411,"Ġ$":412,"Ġres":413,"Ġsh":414,"ance":415,"Ġv":416,"ud":417,"ĠM":418,"ue":419,"Ġr":420,"ĠB":421,"ations":422,"su":423,"Ġco":424,"ition":425,"ber":426,"ĠL":427,"pp":428,"Ġany":429,"cial":430,"if":431,"eri":432,"du":433,"ĠĠĠčĊ":434,"inan":435,"est":436,"ĠN":437,"ll":438,"ount":439,"od":440,"Ġad":441,"Ġpr":442,"der":443,"Ġwh":444,"ck":445,"its":446,"Ġnot":447,"and":448,"inancial":449,"omm":450,"Ġl":451,"Ġother":452,"te":453,"ye":454,"illi":455,"illion":456,"Ġfr":457,"Ġcomp":458,"port":459,"Ġlo":460,"ase":461,"orm":462,"erm":463,"ion":464,"ad":465,"ib":466,"ich":467,"lud":468,"Ġsuch":469,"Ġat":470,"Ġexp":471,"age":472,"ans":473,"ities":474,"Ġass":475,"gre":476,"Ġfrom":477,"qui":478,"ac":479,"act":480,"Ġmillion":481,"ĠW":482,"Ġli":483,"ard":484,"Ġwhich":485,"Ġapp":486,"tain":487,"ock":488,"ember":489,"ary":490,"ĠĠĠĠĠ":491,"low":492,"ult":493,"tions":494,"ust":495,"ave":496,"Ġmay":497,"ren":498,"ure":499,"Ġam":500,"all":501,"Ġ$.":502,"vid":503,"ill":504,"th":505,"Ġdis":506,"ased":507,"Ġhave":508,"am":509,"ign":510,"Ġfinancial":511,"Ġinclud":512,"Ġacc":513,"os":514,"gree":515,"so":516,"dition":517,"Ġsub":518,"ens":519,"year":520,"Ġoper":521,"Ġus":522,"erv":523,"form":524,"iz":525,"Ġunder":526,"ark":527,"ĠĠĠĠčĊ":528,"um":529,"ally":530,"Ġthis":531,"ax":532,"ecember":533,"ies":534,"ĠSt":535,"ates":536,"ap":537,"ility":538,"Ġreg":539,"ĠU":540,"Ġtr":541,"Ġyear":542,"ome":543,"ĠDecember":544,"art":545,"Ġrec":546,"Ġval":547,"ef":548,"are":549,"ets":550,"Ġcont":551,"ĠG":552,"ĠCon":553,"ors":554,"Ġcomm":555,"ven":556,"Ġits":557,"el":558,"Ġim":559,"Ġhe":560,"uld":561,"duct":562,"ore":563,"ru":564,"Ġdi":565,"Ġch":566,"Ġresult":567,"ice":568,"Ġal":569,"ents":570,"rest":571,"ection":572,"air":573,"ating":574,"mp":575,"Ġper":576,"Ġrequi":577,"Ġreport":578,"ted":579,"Ġen":580,"terest":581,"Ġstock":582,"ĠRe":583,"ord":584,"Ġle":585,"iness":586,"greement":587,"ĠĠĠĠĠĠĠĠĠĠĠĠĠĠĠĠ":588,"Ġwill":589,"Ġpur":590,"ss":591,"usiness":592,"Ġmark":593,"ĠEx":594,"ow":595,"Ġinv":596,"Ġshall":597,"Ġrel":598,"Ġman":599,"Ġtax":600,"cip":601,"Ġcost":602,"ew":603,"Ġimp":604,"ange":605,"up":606,"ual":607,"Ġpay":608,"igh":609,"Ġwas":610,"ĠWe":611,"Ġmat":612,"Ġstate":613,"old":614,"Ġresp":615,"ective":616,"ash":617,"ecur":618,"Ġeff":619,"eriod":620,"Ġall":621,"Ġvalue":622,"__":623,"ĠH":624,"istr":625,"rect":626,"ended":627,"Ġprovid":628,"ĠJ":629,"Ġse":630,"lic":631,"Ġinterest":632,"uring":633,"ermin":634,"cc":635,"Ġpl":636,"ail":637,"Ġappro":638,"fer":639,"Ġamount":640,"Ġproduct":641,"ific":642,"Ġbusiness":643,"sid":644,"orpor":645,"Ġperiod":646,"ices":647,"Ġserv":648,"iv":649,"Ġ-":650,"ĠĠĠĠĠčĊ":651,"Ġincre":652,"ach":653,"to":654,"mplo":655,"ges":656,"Ġhas":657,"cal":658,"Ġab":659,"ertain":660,"ener":661,"ip":662,"Ġassets":663,"Ġpre":664,"ings":665,"tern":666,"ist":667,"rol":668,"ces":669,"aw":670,"Ġsal":671,"Ġtim":672,"Ġmarket":673,"ative":674,"tim":675,"ty":676,"urren":677,"ecu":678,"ject":679,"ug":680,"Ġcash":681,"TE":682,"ĠInc":683,"lid":684,"ares":685,"our":686,"ized":687,"Ġincome":688,"ital":689,"Ġover":690,"ak":691,"redit":692,"solid":693,"Ġdisc":694,"Ġ)":695,"ous":696,"Ġme":697,"Ġob":698,"Ġqu":699,"Ġthese":700,"Ġaddition":701,"ecurities":702,"ight":703,"Ġinvest":704,"ub":705,"ĠAgreement":706,"agement":707,"Ġnet":708,"Ġcap":709,"Ġwere":710,"Ġtrans":711,"Ġmateri":712,"val":713,"Ġno":714,"Ġoperations":715,"her":716,"Ġcould":717,"ON":718,"ollow":719,"Ġincluding":720,"Ġind":721,"Ġcl":722,"ited":723,"Ġtime":724,"enef":725,"arti":726,"solidated":727,"ort":728,"ĠĠĠĠĠĠčĊ":729,"Ġaccount":730,"row":731,"ory":732,"Ġop":733,"Ġgener":734,"ank":735,"ced":736,"vis":737,"ior":738,"formation":739,"lig":740,"Ġfair":741,"TI":742,"ability":743,"pos":744,"ected":745,"ee":746,"Ġcontrol":747,"pt":748,"Ġup":749,"Ġfollow":750,"Ġrelated":751,"Ġcontr":752,"vers":753,"Ġif":754,"ustom":755,"ately":756,"ugh":757,"Ġloss":758,"Ġdet":759,"ati":760,"Ġrep":761,"ĠComm":762,"Ġcosts":763,"rant":764,"Ġdec":765,"Ġstatements":766,"ĠCont":767,"ĠUn":768,"Ġoff":769,"Ġwhe":770,"ĠPl":771,"und":772,"ied":773,"Ġpart":774,"gy":775,"gr":776,"Ġshares":777,"Ġes":778,"velo":779,"isk":780,"ilities":781,"of":782,"ong":783,"enti":784,"ise":785,"velop":786,"ive":787,"Ġregul":788,"ense":789,"Ġthere":790,"Ġ$,":791,"Ġcertain":792,"uture":793,"Ġit":794,"Ġcurren":795,"Ġdo":796,"oll":797,"Ġsp":798,"Ġaff":799,"Ġended":800,"Ġrece":801,"ures":802,"out":803,"Ġterm":804,"ine":805,"Ġemplo":806,"Ġcustom":807,"ward":808,"Ġbased":809,"over":810,"Ġissu":811,"Ġestim":812,"Ġcommon":813,"Ġsign":814,"Ġag":815,"Ġ%":816,"str":817,"ĠV":818,"Ġeach":819,"ecutive":820,"Ġthan":821,"Ġdate":822,"Ġreven":823,"Ġout":824,"Ġfuture":825,"Ġproducts":826,"ction":827,"Ġmaterial":828,"ex":829,"ĠSection":830,"ĠPro":831,"Ġdef":832,"ical":833,"og":834,"Ġref":835,"Ġyears":836,"resent":837,"ĠCh":838,"Ġbenef":839,"ade":840,"ificant":841,"Ġinformation":842,"ose":843,"EN":844,"Ġrequire":845,"Ġfil":846,"Ġreporting":847,"ould":848,"Ġshare":849,"Ġrate":850,"ffic":851,"tit":852,"Ġbeen":853,"ĠNot":854,"Ġsubject":855,"Ġalso":856,"eral":857,"pr":858,"'s":859,"rough":860,"Ġhere":861,"wn":862,"Ġcondition":863,"Ġresults":864,"Ġduring":865,"ER":866,"Ġcons":867,"Ġcapital":868,"Ġdes":869,"Ġdevelop":870,"Ġdetermin":871,"hip":872,"ass":873,"AN":874,"The":875,"op":876,"ternal":877,"ĠPlan":878,"ferred":879,"Ġcredit":880,"Ġdirect":881,"eren":882,"Ġrequired":883,"Ġsales":884,"Ġperform":885,"ason":886,"iscal":887,"Ġrisk":888,"trib":889,"ĠFinancial":890,"Ġtheir":891,"ĠAs":892,"Ġdue":893,"Ġapplic":894,"vision":895,"ily":896,"sion":897,"ogn":898,"sidi":899,"Ġnon":900,"stru":901,"ĠStock":902,"ĠAn":903,"urance":904,"xim":905,"sure":906,"Ġmanagement":907,"Ġsignificant":908,"ĠAct":909,"aus":910,"ĠNo":911,"tiv":912,"Ġoperating":913,"ensation":914,"Ġcontract":915,"ĠOur":916,"..":917,"Ġequ":918,"Ġservices":919,"change":920,"Ġfollowing":921,"anges":922,"enses":923,"Ġcurrent":924,"ii":925,"Ġrecord":926,"Ġproper":927,"ases":928,"incip":929,"ĠĠĠĠĠĠ":930,"Ġthrough":931,"Ġlim":932,"stand":933,"____":934,"Ġpurch":935,"orporation":936,"olders":937,"oard":938,"ork":939,"articip":940,"arch":941,"ost":942,"tal":943,"ES":944,"Ġfiscal":945,"istrant":946,"ence":947,"Ġprim":948,"ximately":949,"verse":950,"Ġinto":951,"ĠState":952,"fter":953,"ĠContents":954,"ible":955,"nual":956,"Ġ.%":957,"irect":958,"quis":959,"cess":960,"ĠTr":961,"erson":962,"Ġprice":963,"ution":964,"Ġincrease":965,"ech":966,"aid":967,"Ġnew":968,"Ġright":969,"Ġown":970,"ĠĠĠĠĠĠĠ":971,"Ġupon":972,"ial":973,"min":974,"ified":975,"Ġlaw":976,"Ġins":977,"Ġcontin":978,"ectively":979,"ues":980,"ag":981,"ved":982,"bt":983,"vi":984,"standing":985,"vail":986,"ĠTh":987,"ast":988,"Ġrespect":989,"arter":990,"ĠAd":991,"arily":992,"Ġsecurities":993,"IN":994,"Ġreason":995,"Ġconsolidated":996,"quisition":997,"Ġmore":998,"Ġoblig":999,"orrow":1000,"suant":1001,"ĠEn":1002,"OR":1003,"cy":1004,"ceed":1005,"Ġmon":1006,"abilities":1007,"Ġadditional":1008,"Ġapproximately":1009,"Ġrecogn":1010,"rit":1011,"ĠAcc":1012,"arg":1013,"tem":1014,"ood":1015,"Ġ()":1016,"Ġear":1017,"Ġrem":1018,"stan":1019,"AR":1020,"abl":1021,"ĠExecutive":1022,"Ġwould":1023,"ĠAm":1024,"Ġeffect":1025,"ake":1026,"olo":1027,"ari":1028,"Ġfac":1029,"ĠĠĠĠĠĠĠčĊ":1030,"con":1031,"Ġne":1032,"Ġcan":1033,"iti":1034,"ĠSe":1035,"Ġj":1036,"In":1037,"Ġmade":1038,"Ġbas":1039,"Ġtotal":1040,"echn":1041,"Ġexpense":1042,"pend":1043,"ace":1044,"Ġset":1045,"Ġloans":1046,"AL":1047,"arr":1048,"ered":1049,"Ġone":1050,"Ġcompany":1051,"Ġredu":1052,"Ġadverse":1053,"ined":1054,"Ġreceiv":1055,"),":1056,"ves":1057,"verage":1058,"lect":1059,"yst":1060,"Ġemploye":1061,"Ġpos":1062,"Ġexpenses":1063,"Ġchanges":1064,"Ġprincip":1065,"Ġest":1066,"Ġspec":1067,"eve":1068,"--":1069,"Ġterms":1070,"ared":1071,"Ġfund":1072,"Ġmain":1073,"ership":1074,"Ġimpact":1075,"Ġext":1076,"ause":1077,"ĠForm":1078,"Ġinternal":1079,"lement":1080,"ond":1081,"aries":1082,"we":1083,"EC":1084,"aim":1085,"ten":1086,"vent":1087,"Ġavail":1088,"hib":1089,"ENT":1090,"Ġgrant":1091,"Ġdebt":1092,"tic":1093,"Ġprovided":1094,"Ġtransac":1095,"Ġprimarily":1096,"Ġbasis":1097,"AS":1098,"ĠPart":1099,"Ġagreement":1100,"ission":1101,"ame":1102,"Ġdistrib":1103,"Ġaut":1104,"Ġprovision":1105,"umber":1106,"Table":1107,"hed":1108,"Ġfore":1109,"ystem":1110,"hor":1111,"Ġcustomers":1112,"Ġrevenue":1113,"ia":1114,"Ġprior":1115,"Ġacquisition":1116,"Ġafter":1117,"Ġincluded":1118,"IT":1119,"ential":1120,"Ġrates":1121,"Ġflow":1122,"Ġpursuant":1123,"Ġar":1124,"Ġamounts":1125,"Ġquarter":1126,"TION":1127,"ke":1128,"ATE":1129,"own":1130,"tif":1131,"clud":1132,"Ġissued":1133,"Ġapplicable":1134,"Ġliabilities":1135,"Ġprovide":1136,"overn":1137,"Ġplan":1138,"cr":1139,"atory":1140,"Ġsubsidi":1141,"utions":1142,"ational":1143,"Ġaccord":1144,"Ġloan":1145,"eb":1146,"Ġinvestment":1147,"ĠIf":1148,"ĠReg":1149,"Ġactiv":1150,"ederal":1151,"ĠRes":1152,"Ġinclude":1153,"ND":1154,"Ġdecre":1155,"Ġregistrant":1156,"for":1157,"led":1158,"olic":1159,"holders":1160,"Ġwithin":1161,"Ġused":1162,"ĠBank":1163,"ang":1164,"Ġdisclo":1165,"ix":1166,"Ġint":1167,"ld":1168,"fact":1169,"Ġvari":1170,"urn":1171,"Ġfact":1172,"gram":1173,"Ġrequirements":1174,"Ġperson":1175,"ree":1176,"ĠBoard":1177,"Ġaffect":1178,"Ġconsid":1179,"ĠInd":1180,"just":1181,"Ġability":1182,"ĠDirect":1183,"cent":1184,"Ġaccounting":1185,"Ġthose":1186,"ants":1187,"ĠReport":1188,"ĠLo":1189,"Ġtermin":1190,"Ġbec":1191,"Ġequity":1192,"Ġdevelopment":1193,"Ġoutstanding":1194,"erence":1195,"ĠOffic":1196,"Ġuse":1197,"Ġfe":1198,"Ġwell":1199,").":1200,"Ġdesign":1201,"ĠK":1202,"valu":1203,"Ġret":1204,"ĠLL":1205,"cing":1206,"cept":1207,"anu":1208,"ublic":1209,"ĠCorporation":1210,"Ġavailable":1211,"Ġpayment":1212,"Ġcoll":1213,"Ġrespectively":1214,"ministr":1215,"Ġnumber":1216,"Ġclaim":1217,"Ġcompensation":1218,"ĠAccount":1219,"echnolo":1220,"Ġperformance":1221,"cul":1222,"Ġearn":1223,"itte":1224,"Ġlosses":1225,"greements":1226,"ove":1227,"ata":1228,"int":1229,"Ġrecorded":1230,"Ġincreased":1231,"Ġent":1232,"Ġeffective":1233,"Ġmet":1234,"ĠComp":1235,"sum":1236,"ĠY":1237,"ird":1238,"ack":1239,"Ġy":1240,"ĠSecurities":1241,"ĠSh":1242,"MENT":1243,"Ġday":1244,"Ġservice":1245,"urch":1246,"Ġequi":1247,"ying":1248,"Ġpresent":1249,"Ġbeli":1250,"ĠThis":1251,"av":1252,"Ġaccordance":1253,"Ġcarr":1254,"ĠDe":1255,"Ġenti":1256,"ĠĠĠĠĠĠĠĠĠĠĠĠĠĠĠĠĠĠĠĠĠĠĠĠĠĠĠĠĠĠĠĠ":1257,"Ġconditions":1258,"Ġproperty":1259,"ĠFor":1260,"Ġfiled":1261,"erc":1262,"Ġpurchase":1263,"Ġgenerally":1264,"Ġallow":1265,"ercial":1266,"ĠThese":1267,"ons":1268,"irst":1269,"Ġpaid":1270,"ĠExchange":1271,"ĠMan":1272,"alance":1273,"ĠOF":1274,"IC":1275,"ittee":1276,"ress":1277,"Ġreal":1278,"gment":1279,"Ġbet":1280,"vidend":1281,"ompanies":1282,"Ġcomple":1283,"Ġwhen":1284,"ued":1285,"hibit":1286,"Ġpayments":1287,"Ġform":1288,"dustr":1289,"ption":1290,"Ġso":1291,"Ġexpected":1292,"Ġobligations":1293,"Ġmonth":1294,"Ġrights":1295,"Ġgu":1296,"Ġlong":1297,"vest":1298,"ĠOfficer":1299,"Ġocc":1300,"Ġful":1301,"anuary":1302,"Ġstr":1303,"Ġpar":1304,"Ġchange":1305,"par":1306,"Ġauthor":1307,"ertif":1308,"ile":1309,"EX":1310,"Ġoffic":1311,"ĠSub":1312,"andard":1313,"Ġprocess":1314,"ĠLLC":1315,"Ġchar":1316,"Ġliability":1317,"vel":1318,"ys":1319,"Ġmeas":1320,"isting":1321,"Ġmaintain":1322,"ween":1323,"Ġhad":1324,"Ġimpair":1325,"Ġaud":1326,"ĠEmplo":1327,"ief":1328,"Ġannual":1329,"Ġevalu":1330,"reat":1331,"ili":1332,"Ġsale":1333,"ĠJanuary":1334,"ĠAND":1335,"Ġmake":1336,"Ġprodu":1337,"Ġacqui":1338,"Ġrestr":1339,"Ġprogram":1340,"Ġasset":1341,"les":1342,"Ġadjust":1343,"ner":1344,"Ġrecognized":1345,"Ġbetween":1346,"Ġestimated":1347,".,":1348,"Ġtw":1349,"urred":1350,"Ġrestric":1351,"Ġsystem":1352,"Ġbut":1353,"oci":1354,"Ġdeli":1355,"ite":1356,"ĠStatements":1357,"-.":1358,"ĠUnited":1359,"articipant":1360,"fe":1361,"Ġcompared":1362,"Ġact":1363,"oint":1364,"Ġthird":1365,"Ġbenefit":1366,"Ġqual":1367,"term":1368,"Ġbank":1369,"kn":1370,"Ġagreements":1371,"Ġassoci":1372,"ĠIN":1373,"Ġconn":1374,"Ġmanu":1375,"ablis":1376,"ĠStates":1377,"ĠOn":1378,"Ġexerc":1379,"Ġemployees":1380,"Ġmanufact":1381,"ĠMarch":1382,"uted":1383,"Ġdefined":1384,"Ġremain":1385,"ĠNote":1386,"Ġactivities":1387,"Ġrevenues":1388,"Ġpolic":1389,"Ġgovern":1390,"ĠPr":1391,"cedures":1392,"wise":1393,"OL":1394,"une":1395,"Ġlevel":1396,"Ġless":1397,"mental":1398,"Ġdividend":1399,"oli":1400,"ute":1401,"()":1402,"Ġdiff":1403,"fore":1404,"orporated":1405,"Ġprincipal":1406,"onom":1407,"Ġcompanies":1408,"Ġsupp":1409,"roup":1410,"Ġcommercial":1411,"oc":1412,"Ġaward":1413,"Ġinsurance":1414,"Ġcompe":1415,"ident":1416,"ĠServ":1417,"Ġoptions":1418,"Ġend":1419,"Ġmod":1420,"Ġinvestments":1421,"yment":1422,"Ġflows":1423,"Ġreference":1424,"ower":1425,"view":1426,"Ġpercent":1427,"Ġregulatory":1428,"Ġperiods":1429,"ĠNotes":1430,"Ġotherwise":1431,"tice":1432,"Ġ$,,":1433,"Ġestablis":1434,"IS":1435,"ning":1436,"Ġwrit":1437,"Ġproceed":1438,"Ġsubstan":1439,"ID":1440,"Ġdirectors":1441,"Ġcontain":1442,"Ġren":1443,"one":1444,"Ġlaws":1445,"Ġindustr":1446,"gan":1447,"ize":1448,"Ġimpairment":1449,"Ġposition":1450,"Ġtechnolo":1451,"Ġconnection":1452,"Ġregard":1453,"uti":1454,"Ġsell":1455,"hod":1456,"Ġregulations":1457,"Ġbenefits":1458,"by":1459,"ccess":1460,"Ġprof":1461,"Ġdetermined":1462,"ines":1463,"Ġbelow":1464,"tiz":1465,"urther":1466,"ĠCredit":1467,"econom":1468,"ever":1469,"poses":1470,"gate":1471,"peri":1472,"Ġwhether":1473,"Ġlow":1474,"Ġparti":1475,"Ġassociated":1476,"ecess":1477,"Ġdeferred":1478,"Ġsubsidiaries":1479,"Ġpor":1480,"ortiz":1481,"Ġlimit":1482,"ĠJune":1483,"Ġgood":1484,"Ġleg":1485,"pre":1486,"Ġobtain":1487,"Ġforth":1488,"gage":1489,"ecurity":1490,"ĠConsolidated":1491,"older":1492,"Ġinstru":1493,"Ġforeign":1494,"based":1495,"enior":1496,"Ġlic":1497,"Ġfactors":1498,"sed":1499,"tin":1500,"Ġfederal":1501,"ĠAl":1502,"ands":1503,"ok":1504,"orporate":1505,"pendent":1506,"liance":1507,"Ġprovisions":1508,"Ġvol":1509,"SU":1510,"Ġgrow":1511,"Ġpot":1512,"Ġcustomer":1513,"CI":1514,"alth":1515,"hen":1516,"Ġtransactions":1517,"ebru":1518,"ebruary":1519,"ĠĠĠĠĠĠĠĠĠ":1520,"**":1521,"quid":1522,"Ġprocedures":1523,"ergy":1524,"Ġpurposes":1525,"inal":1526,"Ġperm":1527,"Ġgeneral":1528,"ules":1529,"arant":1530,"pro":1531,"Ġinter":1532,"Ġlimited":1533,"itted":1534,"Ġcontinue":1535,"pment":1536,"Ġeconom":1537,"Ġwho":1538,"ministrative":1539,"ĠSu":1540,"Ġfirst":1541,"Ġearnings":1542,"ances":1543,"go":1544,"Ġborrow":1545,"ĠChief":1546,"ĠParticipant":1547,"Ġrepresent":1548,"Ġmethod":1549,"Ġfees":1550,"Ġwithout":1551,"sing":1552,"Ġmeet":1553,"part":1554,"pri":1555,"ATION":1556,"....":1557,"DA":1558,"ĠAg":1559,"Ġestimates":1560,"Ġsubstanti":1561,"ources":1562,"ization":1563,"ĠTrust":1564,"ric":1565,"Ġnat":1566,"isc":1567,"Ġheld":1568,"Ġbalance":1569,"sump":1570,"Ġusing":1571,"ptember":1572,"Ġpublic":1573,"ĠOper":1574,"Ġmarkets":1575,"Ġevent":1576,"Ġgas":1577,"ful":1578,"less":1579,"ĠCommittee":1580,"Ġprices":1581,"Ġdata":1582,"Ġ\"":1583,"Ġclaims":1584,"ably":1585,"ross":1586,"de":1587,"Ġadversely":1588,"Ġabove":1589,"Ġsim":1590,"ici":1591,"ension":1592,"Ġcontracts":1593,"Ġagain":1594,"Ġderi":1595,"ortf":1596,"Ġoffer":1597,"Ġparty":1598,"Ġclass":1599,"ĠItem":1600,"Ġcal":1601,"cluding":1602,"arrant":1603,"________":1604,"ĠLend":1605,"Ġreasonable":1606,"Ġcoun":1607,"Ġbelieve":1608,"Ġstandard":1609,"Ġassess":1610,"will":1611,"line":1612,"iron":1613,"Ġthree":1614,"ĠDirectors":1615,"Ġsuccess":1616,"ving":1617,"Ġlease":1618,"als":1619,"Ġtrad":1620,"crib":1621,"ĠAccounting":1622,"ĠBorrow":1623,"ĠManagement":1624,"ts":1625,"ĠSEC":1626,"Ġportion":1627,"Ġplans":1628,"Ġfail":1629,"Ġaverage":1630,"Ġmin":1631,"Ġagainst":1632,"omb":1633,"yp":1634,"resident":1635,"ĠDate":1636,"ĠFebruary":1637,"Ġextent":1638,"ĠSeptember":1639,"cl":1640,"ear":1641,"Ġreview":1642,"ortfoli":1643,"Ġnecess":1644,"Ġreceived":1645,"Ġtaxes":1646,"Ġcontrols":1647,"Ġpat":1648,"ters":1649,"ĠST":1650,"Ġherein":1651,"Ġexisting":1652,"viron":1653,"Ġtwo":1654,"uly":1655,"ilar":1656,"Ġvarious":1657,"Ġaggre":1658,"oth":1659,"Ġdisclosure":1660,"ĠCON":1661,"Ġreturn":1662,"ĠPre":1663,"Ġvest":1664,"inancing":1665,"Ġfacility":1666,"Ġgain":1667,"Ġtable":1668,"RE":1669,"Ġdecrease":1670,"ĠLoan":1671,"cies":1672,"gin":1673,"edi":1674,"uation":1675,"Ġexpect":1676,"Ġwork":1677,"arket":1678,"with":1679,"Ġdem":1680,"ĠRE":1681,"ural":1682,"Ġexperi":1683,"ages":1684,"loc":1685,"owever":1686,"Ġonly":1687,"ĠNew":1688,"Ġapproval":1689,"ortgage":1690,"Ġoption":1691,"ĠLe":1692,"Ġparties":1693,"Ġkn":1694,"Ġiniti":1695,"Ġacquired":1696,"Ġamortiz":1697,"nership":1698,"ically":1699,"ble":1700,"ateg":1701,"Ġelect":1702,"Ġcertif":1703,"Ġdepos":1704,"Ġ),":1705,"ness":1706,"Ġaccounts":1707,"Ġassump":1708,"arm":1709,"We":1710,"Ġportfoli":1711,"Ġdoes":1712,"range":1713,"Ġconsider":1714,"Ġ).":1715,"Ġloc":1716,"Ġfacilities":1717,"icate":1718,"ateral":1719,"eries":1720,"Ġproject":1721,"Ġcase":1722,"ĠCl":1723,"set":1724,"apital":1725,"Ġregarding":1726,"verti":1727,"vered":1728,"Ġequipment":1729,"Ġsum":1730,"Ġdays":1731,"ĠAt":1732,"ĠAnnual":1733,"imum":1734,"Ġdeliver":1735,"Ġpotential":1736,"Ġaggregate":1737,"quent":1738,"ĠTO":1739,"ination":1740,"entif":1741,"Ex":1742,"ober":1743,"inical":1744,"Ġincurred":1745,"ither":1746,"Ġpayable":1747,"Ġsimilar":1748,"Ġcurrently":1749,"Ġanti":1750,"Ġfunds":1751,"Ġacce":1752,"Ġbeing":1753,"ide":1754,"ĠMr":1755,"Ġincludes":1756,"Ġstatement":1757,"Ġsame":1758,"ĠII":1759,"til":1760,"yee":1761,"urchase":1762,"uct":1763,"Ġsegment":1764,"Ġnotes":1765,"Ġadop":1766,"Ġamended":1767,"Ġconsist":1768,"ind":1769,"Ġunits":1770,"che":1771,"Ġinte":1772,"Ġnecessary":1773,"Ġliquid":1774,"Ġfollows":1775,"Ġdistribution":1776,"Ġeconomic":1777,"Ġtest":1778,"Ġexchange":1779,"ĠPresident":1780,"Ġindustry":1781,"ĠCommon":1782,"Ġhig":1783,"Con":1784,"ou":1785,"cum":1786,"Ġid":1787,"Ġrelating":1788,"Ġthen":1789,"Ġsec":1790,"Ġclo":1791,"Ġlike":1792,"Ġthey":1793,"Ġgrowth":1794,"Ġrisks":1795,"Ġrequ":1796,"pport":1797,"pl":1798,"erve":1799,"cribed":1800,"Ġhigh":1801,"ĠAgent":1802,"erg":1803,"ĠĠĠĠĠĠĠĠčĊ":1804,"Ġdated":1805,"OM":1806,"tire":1807,"Ġsett":1808,"Ġportfolio":1809,"ĠĠĠĠĠĠĠĠĠĠ":1810,"ency":1811,"tinued":1812,"Ġorder":1813,"ĠAss":1814,"ivid":1815,"roll":1816,"Ġaudit":1817,"ĠOther":1818,"Ġparticip":1819,"aj":1820,"Ġshe":1821,"Ġmost":1822,"Ġmonths":1823,"HE":1824,"MENTS":1825,"Ġboth":1826,"Ġamong":1827,"endment":1828,"ĠAr":1829,"----":1830,"ĠQ":1831,"Ġdr":1832,"Ġassumptions":1833,"ification":1834,"Ġrespons":1835,"Ġinvol":1836,"Ġgranted":1837,"sp":1838,"irm":1839,"Ġlower":1840,"ĠFIN":1841,"Ġcarrying":1842,"ault":1843,"icing":1844,"Ġfurther":1845,"ater":1846,"Ġmaterially":1847,"ĠCompensation":1848,"stances":1849,"ixed":1850,"not":1851,"Ġdividends":1852,"Ġneed":1853,"ecured":1854,"Ġreserv":1855,"tered":1856,"certain":1857,"Ġtyp":1858,"Ġfull":1859,"Ġimpro":1860,"tract":1861,"Ġemployment":1862,"Ġarrange":1863,"fr":1864,"UR":1865,"entive":1866,"ATED":1867,"Ġuti":1868,"under":1869,"Ġinstruments":1870,"Ġann":1871,"Ġproperties":1872,"vents":1873,"aware":1874,"arge":1875,"Ġsupport":1876,"ependent":1877,"eric":1878,"Item":1879,"Ġtermination":1880,"elaware":1881,"af":1882,"Ġcompeti":1883,"Ġexercise":1884,"Ġfour":1885,"ht":1886,"ending":1887,"Ġpres":1888,"Ġcir":1889,"ctober":1890,"ajor":1891,"Ġspecific":1892,"orn":1893,"ware":1894,"Ġhigher":1895,"Ġcontrib":1896,"Ġentered":1897,"Ġderiv":1898,"ĠBorrower":1899,"emed":1900,"Ġaccru":1901,"Ġnotice":1902,"SC":1903,"ollar":1904,"urse":1905,"tirement":1906,"ĠCod":1907,"Ġprovides":1908,"ian":1909,"Ġtransaction":1910,"Ġproduction":1911,"ire":1912,"Ġoffset":1913,"ins":1914,"emn":1915,"Ġhold":1916,"Ġro":1917,"Ġcomb":1918,"ciation":1919,"Ġreported":1920,"Ġenviron":1921,"angible":1922,"encies":1923,"pril":1924,"CIAL":1925,"Ġguid":1926,"ĠDef":1927,"Ġsold":1928,"man":1929,"Ġhist":1930,"inc":1931,"ient":1932,"Ġph":1933,"ety":1934,"Ġhis":1935,"Ġreasonably":1936,"ecti":1937,"ANCIAL":1938,"ob":1939,"Ġwhere":1940,"Ġreceive":1941,"ĠTrans":1942,"Ġpolicies":1943,"Ġdiscus":1944,"ctions":1945,"ĠInvest":1946,"other":1947,"gation":1948,"Ġsome":1949,"rel":1950,"vol":1951,"ĠLender":1952,"Ġfinancing":1953,"Ġtechnology":1954,"ĠTax":1955,"ĠMay":1956,"ĠOctober":1957,"Ġabout":1958,"vious":1959,"ĠINC":1960,"ĠDuring":1961,"Ġwarrant":1962,"Ġrecover":1963,"Ġawards":1964,"Ġindivid":1965,"Ġconduct":1966,"Ġ:":1967,"ĠSTATE":1968,"ĠSubsidi":1969,"alys":1970,"ler":1971,"Ġcompliance":1972,"Ġhed":1973,"iel":1974,"Ġconsum":1975,"ternational":1976,"Ġexecutive":1977,"ĠFINANCIAL":1978,"aph":1979,"Ġestate":1980,"ĠBusiness":1981,"LE":1982,"ĠEX":1983,"Ġwritten":1984,"Ġcalcul":1985,"Ġlegal":1986,"cu":1987,"OTE":1988,"istered":1989,"Ġcircum":1990,"ĠApril":1991,"cular":1992,"Ġcompon":1993,"Ġmust":1994,"Ġvaluation":1995,"ince":1996,"Ġmeans":1997,"Ġrele":1998,"sh":1999,"ĠCommission":2000,"Ġadv":2001,"Ġsystems":2002,"Ġaffected":2003,"Ġexcept":2004,"Ġreflect":2005,"ision":2006,"Ġmeasure":2007,"Ġequal":2008,"ey":2009,"Ġconstru":2010,"Ġidentif":2011,"ĠĠĠĠĠĠĠĠĠčĊ":2012,"Ġbr":2013,"idential":2014,"ually":2015,"Ġmajor":2016,"Ġincorporated":2017,"ator":2018,"Ġallowance":2019,"atives":2020,"Ġalloc":2021,"atis":2022,"enture":2023,"holder":2024,"ables":2025,"Ġsecurity":2026,"Ġinstit":2027,"ai":2028,"Ġdescribed":2029,"Ġeither":2030,"mber":2031,"Ġstockholders":2032,"ĠĠĠĠĠĠĠĠĠĠĠĠĠĠĠĠčĊ":2033,"Ġcause":2034,"Ġel":2035,"ĠJuly":2036,"quity":2037,"ĠCode":2038,"Ġnatural":2039,"ĠExhibit":2040,"Ġevents":2041,"Ġadd":2042,"Ġdiscount":2043,"ium":2044,"Ġoil":2045,"ayment":2046,"Ġrequest":2047,"ĠControl":2048,"ĠAmeric":2049,"Ġhealth":2050,"ĠAll":2051,"Ġsee":2052,"including":2053,"rec":2054,"Ġdemand":2055,"Ġbegin":2056,"Ġuntil":2057,"omes":2058,"Ġclinical":2059,"Ġpower":2060,"iven":2061,"Ġdifferen":2062,"ĠNet":2063,"ĠAny":2064,"yer":2065,"Ġmean":2066,"Ġstat":2067,"Ġbefore":2068,"ication":2069,"Ġresulting":2070,"Ġmarketing":2071,"ĠDisc":2072,"owled":2073,"Ġofficers":2074,"ĠAc":2075,"mission":2076,"Ġemployee":2077,"umul":2078,"lob":2079,"Ġlikely":2080,"Ġthous":2081,"abor":2082,"Ġgoodwill":2083,"ĠEmployee":2084,"ĠSp":2085,"Ġassurance":2086,"alysis":2087,"ale":2088,"emb":2089,"Ġcircumstances":2090,"Ġcorporate":2091,"put":2092,"Ġprot":2093,"ationship":2094,"Ġorig":2095,"sequent":2096,"Ġbillion":2097,"Ġmortgage":2098,"Ġsever":2099,"going":2100,"nel":2101,"Ġdel":2102,"ield":2103,"ĠĠĠĠĠĠĠĠĠĠĠĠĠ":2104,"ĠHold":2105,"Ġfixed":2106,"ĠAward":2107,"ĠNove":2108,"AP":2109,"IB":2110,"ĠStatement":2111,"ĠCapital":2112,"Ġofficer":2113,"ĠNovember":2114,"rent":2115,"ound":2116,"ĠGener":2117,"veness":2118,"ĠEnergy":2119,"ild":2120,"Ġremaining":2121,"liz":2122,"Ġrequires":2123,"Ġconf":2124,"ĠGroup":2125,"Ġapproved":2126,"sures":2127,"ĠServices":2128,"Ġentit":2129,"Ġagre":2130,"Ġprep":2131,"Ġentity":2132,"Ġprofit":2133,"Ġstandards":2134,"Ġexceed":2135,"Ġhistor":2136,"ict":2137,"ple":2138,"Ġimm":2139,"Ġpresented":2140,"ugust":2141,"Ġprevious":2142,"Ġ,,":2143,"Ġissuance":2144,"Ġrestricted":2145,"Ġuncertain":2146,"Ġaction":2147,"Ġexperience":2148,"Ġparticular":2149,"ule":2150,"Ġjud":2151,"Ġanticip":2152,"ectiveness":2153,"Ġappropri":2154,"ured":2155,"ĠInterest":2156,"ĠIncome":2157,"Ġproceeds":2158,"lying":2159,"Ġsumm":2160,"Ġsc":2161,"Ġreduce":2162,"Ġdeemed":2163,"Ġable":2164,"Ġrecent":2165,"app":2166,"Ġoccur":2167,"Ġowned":2168,"Ġbro":2169,"itures":2170,"Ġreserves":2171,"Ġactual":2172,"serv":2173,"ĠThere":2174,"Ġexcess":2175,"Ġforward":2176,"ĠUnder":2177,"ĠRec":2178,"ĠLi":2179,"ĠDelaware":2180,"Ġrese":2181,"lobal":2182,"Ġunit":2183,"Ġindividual":2184,"Ġitem":2185,"Ġbu":2186,"ĠProper":2187,"sive":2188,"Ġmatur":2189,"iii":2190,"graph":2191,"ĠShares":2192,"ĠAugust":2193,"Ġbecome":2194,"SOL":2195,"asing":2196,"Ġindic":2197,"Ġlife":2198,"Ġequival":2199,"dic":2200,"ope":2201,"ĠSTATEMENTS":2202,"ĠSeries":2203,"Ġcurrency":2204,"ĠIs":2205,"enant":2206,"Ġindependent":2207,"cer":2208,"lied":2209,"Ġconsidered":2210,"rehen":2211,"rehensive":2212,"Ġestablished":2213,"ĠFac":2214,"-(":2215,"Ġvot":2216,"Ġbecause":2217,"clus":2218,"igned":2219,"Ġposs":2220,"chi":2221,"Ġsubsidiary":2222,"ised":2223,"Ġdepend":2224,"ulti":2225,"ĠTable":2226,"Ġguarant":2227,"paration":2228,"gments":2229,"CE":2230,"Ġboard":2231,"venue":2232,"ĠĠĠĠĠĠĠĠĠĠĠ":2233,"iss":2234,"Ġneg":2235,"state":2236,"force":2237,"Ġdetermine":2238,"SOLID":2239,"ĠOption":2240,"Ġtrust":2241,"Ġsatis":2242,"urrent":2243,"Ġmanufacturing":2244,"rug":2245,"alf":2246,"uris":2247,"ra":2248,"Ġthereof":2249,"ĠPer":2250,"orth":2251,"Ġinvent":2252,"Ġinterests":2253,"iliates":2254,"Ġdocu":2255,"aking":2256,"Ġownership":2257,"Ġgross":2258,"oft":2259,"Ġguidance":2260,"ĠDirector":2261,"ĠEquity":2262,"Ġrati":2263,"ĠBenef":2264,"SOLIDATED":2265,"avor":2266,"Ġ/":2267,"Ġspecified":2268,"ĠApp":2269,"urisdic":2270,"Ġcharge":2271,"Ġtrial":2272,"ough":2273,"ĠMarket":2274,"ĠCo":2275,"ĠEnter":2276,"ĠRegul":2277,"Ġappropriate":2278,"Ġlevels":2279,"work":2280,"Ġprograms":2281,"CC":2282,"ĠSee":2283,"Ġeffectiveness":2284,"Ġprem":2285,"Ġreports":2286,"BS":2287,"Ġyou":2288,"Ġentitled":2289,"Ġpost":2290,"ĠParty":2291,"Ġestimate":2292,"Ġachi":2293,"ron":2294,"Ġdesigned":2295,"Ġvalues":2296,"inion":2297,"TEM":2298,"ĠMat":2299,"aged":2300,"Ġche":2301,"ier":2302,"volving":2303,"Ġexpend":2304,"Ġcollateral":2305,"Ġfl":2306,"Ġgovernment":2307,"Ġretain":2308,"Ġmarg":2309,"Ġshould":2310,"fficient":2311,"Ġutiliz":2312,"ibility":2313,"Ġdam":2314,"pted":2315,"ĠTHE":2316,"Ġeng":2317,"gies":2318,"Ġdispos":2319,"Ġcharges":2320,"aff":2321,"Ġattrib":2322,"Ġresearch":2323,"ĠAddition":2324,"acity":2325,"Ġbeginning":2326,"Ġcommit":2327,"andl":2328,"oftware":2329,"Ġgreat":2330,"tigation":2331,"Ġobligation":2332,"Ġtransfer":2333,"Ġpriv":2334,"ĠĠĠĠĠĠĠĠĠĠĠĠčĊ":2335,"Ġacquisitions":2336,"Ġbase":2337,"Ġexam":2338,"Ġcontained":2339,"Ġlocal":2340,"Ġmanufacture":2341,"Ġprac":2342,"Ġdecreased":2343,"Ġleases":2344,"Ġrelationship":2345,"ify":2346,"ĠPh":2347,"Ġvolum":2348,"Ġcompleted":2349,"ĠOr":2350,"Ġimprove":2351,"Ġimplement":2352,"ury":2353,"Ġentities":2354,"Ġlicense":2355,"ections":2356,"ĠRel":2357,"Ġdecl":2358,"ĠFederal":2359,"Ġadministrative":2360,"ĠVal":2361,"ĠGu":2362,"comp":2363,"ting":2364,"Ġexec":2365,"uel":2366,"Ġthousands":2367,"Ġenter":2368,"Ġpercentage":2369,"Ġsubstantially":2370,"ĠFr":2371,"ĠVice":2372,"ays":2373,"ĠMed":2374,"ners":2375,"ĠOperations":2376,"ĠRegistrant":2377,"Ġatt":2378,"Ġlarge":2379,"ighted":2380,"Company":2381,"Ġevaluation":2382,"ĠCONSOLIDATED":2383,"Ġtreat":2384,"ising":2385,"ED":2386,"Ġaccrued":2387,"uc":2388,"imb":2389,"):":2390,"Ġderivative":2391,"Ġrules":2392,"Ġshort":2393,"ises":2394,"Re":2395,"ĠHe":2396,"ligible":2397,"Ġsenior":2398,"party":2399,"ĠSenior":2400,"-.>":2401,"Ġcor":2402,"Ġfive":2403,"ĠEur":2404,"Ġcr":2405,"Ġcannot":2406,"ĠPartnership":2407,"Ġnegative":2408,"ral":2409,"Ġsubstantial":2410,"ĠPR":2411,"ĠShare":2412,"ĠRestr":2413,"ph":2414,"itle":2415,"isted":2416,"Ġjurisdic":2417,"Ġdirectly":2418,"formance":2419,"Ġimmedi":2420,"Ġintangible":2421,"inance":2422,"equ":2423,"Ġmulti":2424,"Ġreduction":2425,"ĠSU":2426,"Ġaccess":2427,"owledge":2428,"Ġfully":2429,"Ġfailure":2430,"io":2431,"Ġord":2432,"hold":2433,"related":2434,"Ġvi":2435,"Ġassum":2436,"Ġmodel":2437,"Ġbre":2438,"</":2439,"Ġcaus":2440,"Ġsecond":2441,"Ġsel":2442,"Ġprinciples":2443,"Ġorgan":2444,"ĠTo":2445,"Our":2446,"Ġincreases":2447,"ĠClass":2448,"ĠFAS":2449,"........":2450,"Ġintegr":2451,"Ġpolicy":2452,"Ġarrangements":2453,"utable":2454,"ĠFacility":2455,"OU":2456,"ees":2457,"Ġgreater":2458,"Ġsuppli":2459,"Ġcli":2460,"Ġcapacity":2461,"SI":2462,"Ġbusinesses":2463,"Ġconsideration":2464,"ators":2465,"action":2466,"Ġcontinu":2467,"Ġlocated":2468,"istration":2469,"ĠCash":2470,"lity":2471,"Ġhistorical":2472,"Ġmed":2473,"mall":2474,"Ġshareholders":2475,"Ġhereby":2476,"acc":2477,"ivers":2478,"Ġconstruction":2479,"arget":2480,"andid":2481,"Ġreduced":2482,"ina":2483,"ĠLim":2484,"Ġcoven":2485,"ffective":2486,"Ġgroup":2487,"ĠAdministrative":2488,"ĠFund":2489,"itive":2490,"ession":2491,"Ġpreviously":2492,"Ġsince":2493,"dule":2494,"Ġsole":2495,"TS":2496,"Ġgains":2497,"Ġexpenditures":2498,"Ġeffort":2499,"Ġpatent":2500,"version":2501,"inated":2502,"Ġsignificantly":2503,"Ġamortization":2504,"ĠHoldings":2505,"Ġresources":2506,"ĠFDA":2507,"Ġbeh":2508,"Ġestablish":2509,"ĠX":2510,"Ġquality":2511,"ĠNon":2512,"ptions":2513,"ĠPreferred":2514,"Ġdefault":2515,"lation":2516,"sue":2517,"Ġcommun":2518,"ĠInformation":2519,"oking":2520,"ĠPerson":2521,"Ġminimum":2522,"Ġcountr":2523,"ores":2524,"Ġthem":2525,"Ġadequ":2526,"Ġsatisf":2527,"Ġopinion":2528,"Ġseek":2529,"Ġreli":2530,"Ġstud":2531,"Ġmany":2532,"ocu":2533,"Ġsuccessful":2534,"ĠExp":2535,"Ġretail":2536,"Ġadopted":2537,"Ġcovered":2538,"ish":2539,"Ġsepar":2540,"Ġpen":2541,"ell":2542,"Ġaccept":2543,"ĠCOM":2544,"Ġdrug":2545,"retion":2546,"Ġcomply":2547,"chedule":2548,"Ġdelivery":2549,"portun":2550,"ĠTerm":2551,"Ġsoftware":2552,"vertible":2553,"Ġunless":2554,"Ġcompetitive":2555,"ĠRisk":2556,"ading":2557,"etary":2558,"erger":2559,"Ġexpo":2560,"Ġinventory":2561,"Ġstrateg":2562,"ompanying":2563,"Ġinitial":2564,"olutions":2565,"Ġreceivable":2566,"Ġcandid":2567,"key":2568,"St":2569,"alties":2570,"OTES":2571,"tenance":2572,"Ġpremium":2573,"ĠGeneral":2574,"aging":2575,"ĠTenant":2576,"Ġliquidity":2577,"Ġcompar":2578,"acy":2579,"Ġhowever":2580,"ebted":2581,"Ġjoint":2582,"lerated":2583,"Ġpreferred":2584,"Ġholders":2585,"ĠCan":2586,"Ġsufficient":2587,"reas":2588,"ebtedness":2589,"Ġactions":2590,"Ġinst":2591,"Ġfee":2592,"icted":2593,"AT":2594,"Ġpati":2595,"Ġsettlement":2596,"Ġplus":2597,"preciation":2598,"Ġprom":2599,"Ġunable":2600,"Ġpension":2601,"Ġdecision":2602,"Ġsubsequent":2603,"ged":2604,"evel":2605,"Ġopportun":2606,"Ġenvironmental":2607,"pose":2608,"ĠAff":2609,"POR":2610,"get":2611,"Ġinput":2612,"Ġsur":2613,"Ġleast":2614,"Ġpermitted":2615,"Ġreimb":2616,"ĠFASB":2617,"Ġpricing":2618,"Ġmatters":2619,"ĠSout":2620,"unction":2621,"resp":2622,"Ġrespective":2623,"Ġaccepted":2624,"As":2625,"ensed":2626,"ĠSupp":2627,"enced":2628,"reg":2629,"ĠBased":2630,"uations":2631,"Ġauthorized":2632,"ĠDistr":2633,"ĠAmendment":2634,"ĠIns":2635,"ext":2636,"Ġdeposit":2637,"Ġoperation":2638,"htm":2639,"Ġmaterials":2640,"Ġquarterly":2641,"ĠHowever":2642,"lear":2643,"PL":2644,"ĠProduct":2645,"Ġaccompanying":2646,"andlord":2647,"oper":2648,"Ġ[":2649,"Ġcomprehensive":2650,"side":2651,"Ġcre":2652,"ĠOperating":2653,"Ġconstit":2654,"Ġexpress":2655,"Ġadjustments":2656,"Ġmemb":2657,"AC":2658,"Ġattributable":2659,"ĠPar":2660,"tices":2661,"Ġfourth":2662,"ĠInternal":2663,"wh":2664,"ING":2665,"Ġcorporation":2666,"Ġbelie":2667,"xy":2668,"Ġimmediately":2669,"rs":2670,"sel":2671,"Ġpurchased":2672,"AAP":2673,"Ġline":2674,"ĠOwn":2675,"ĠYork":2676,"Ġtrading":2677,"ingly":2678,"tics":2679,"Ġactivity":2680,"land":2681,"ĠRevenue":2682,"ĠIssu":2683,"Ġkey":2684,"ĠCal":2685,"Ġrest":2686,"Ġresponsible":2687,"ĠEntergy":2688,"orp":2689,"ĠĠĠĠĠĠĠĠĠĠčĊ":2690,"cluded":2691,"Ġdil":2692,"Continued":2693,"IES":2694,"Ġitems":2695,"Ġoffering":2696,"Ġsheet":2697,"Ġconsent":2698,"FIC":2699,"aud":2700,"ĠRule":2701,"ĠASU":2702,"Ġdollar":2703,"ĠDocu":2704,"Ġtake":2705,"Ġapplication":2706,"off":2707,"alty":2708,"though":2709,"Ġwhol":2710,"Ġte":2711,"Exhibit":2712,"ton":2713,"ĠGuarant":2714,"resents":2715,"Ġcoverage":2716,"llect":2717,"izes":2718,"llectual":2719,"Ġoperate":2720,"plo":2721,"Ġweighted":2722,"Ġmis":2723,"Ġcontractual":2724,"Ġdeposits":2725,"eria":2726,"Ġbehalf":2727,"ley":2728,"Ġfinal":2729,"Ġmanner":2730,"Ġhereof":2731,"arb":2732,"ĠWh":2733,"Ġcompetit":2734,"Ġspecial":2735,"Ġindemn":2736,"Ġ.(":2737,"Ġregistered":2738,"Ġded":2739,"Ġ..":2740,"ering":2741,"Ġplace":2742,"Ġenergy":2743,"ĠProperty":2744,"ics":2745,"Ġcompet":2746,"Ġmaturity":2747,"Ġsuper":2748,"ĠSystem":2749,"Ġdecline":2750,"Ġprimary":2751,"Ġrestrictions":2752,"Ġknowledge":2753,"Ġaddress":2754,"Ġassessment":2755,"ĠService":2756,"afety":2757,"vant":2758,"Ġsupply":2759,"Ġfluct":2760,"ging":2761,"Ġconsult":2762,"Ġsw":2763,"lor":2764,"ĠLimited":2765,"Ġcheck":2766,"be":2767,"Ġpersonnel":2768,"avorable":2769,"Ġlitigation":2770,"Ġpast":2771,"Ġincur":2772,"ories":2773,"Ġhereunder":2774,"ĠYear":2775,"ĠCanad":2776,"ocus":2777,"Ġmaintenance":2778,"Ġcaused":2779,"ĠGrant":2780,"ART":2781,"Ġoffice":2782,"Ġdid":2783,"Ġyour":2784,"ĠSubsidiaries":2785,"Ġseveral":2786,"ĠSal":2787,"Ġwarrants":2788,"Ġpropos":2789,"OC":2790,"Ġefforts":2791,"Ġborrowings":2792,"Ġgiven":2793,"Ġsummar":2794,"FAS":2795,"Ġsmall":2796,"AB":2797,"aken":2798,"incipal":2799,"riteria":2800,"Ġcomponents":2801,"ermination":2802,"ĠUS":2803,"Ġdirector":2804,"Ġtreatment":2805,"ĠIncentive":2806,"Ġund":2807,"Ġ-,":2808,"crip":2809,"Ġpartially":2810,"anch":2811,"Ġinf":2812,"Ġreceip":2813,"ursuant":2814,"Ġvolati":2815,"Ġrepl":2816,"ĠGovern":2817,"Ġratio":2818,"ĠAmerica":2819,"EP":2820,"Ġclassified":2821,"exp":2822,"icial":2823,"Ġpersons":2824,"Ġamend":2825,"Ġpred":2826,"ĠPeriod":2827,"Un":2828,"Ġthereto":2829,"Ġrepurchase":2830,"Ġdiscretion":2831,"otal":2832,"TR":2833,"ource":2834,"Ġcare":2835,"Ġcovenants":2836,"ategy":2837,"Ġsecured":2838,"ather":2839,"ĠLease":2840,"loss":2841,"Ġadoption":2842,"mitted":2843,"Ġdistributions":2844,"Ġconting":2845,"looking":2846,"after":2847,"ring":2848,"ĠSell":2849,"Ġnetwork":2850,"Ġinfr":2851,"Ġmajority":2852,"Ġdiffic":2853,"ĠRestricted":2854,"Ġunderlying":2855,"mit":2856,"ĠPublic":2857,"ĠOb":2858,"Ġsubs":2859,"Ġanalysis":2860,"Ġtrade":2861,"Ġknown":2862,"Ġtarget":2863,"Ġcour":2864,"ĠMe":2865,"Ġcompetitors":2866,"HER":2867,"Ġassign":2868,"ote":2869,"Ġapplications":2870,"ĠUnits":2871,"oss":2872,"Ġpositions":2873,"On":2874,"Ġdown":2875,"Ġvesting":2876,"Ġbelieves":2877,"ĠEurope":2878,"Ġdefin":2879,"ults":2880,"Ġrenew":2881,"iring":2882,"ĠOff":2883,"Ġinputs":2884,"ĠEach":2885,"Ġenforce":2886,"Ġpoint":2887,"orld":2888,"ath":2889,"Ġoccurred":2890,"uthor":2891,"ĠLandlord":2892,"ications":2893,"RS":2894,"Ġcontinued":2895,"NG":2896,"Ġfile":2897,"umulated":2898,"ĠPower":2899,"Ġpossible":2900,"Ġmax":2901,"Ġtaxable":2902,"Ġcarry":2903,"Ġconsumer":2904,"ĠCertain":2905,"Ġmeeting":2906,"ĠSuch":2907,"ĠColl":2908,"ĠNorth":2909,"Ġfuel":2910,"Ġdetermination":2911,"Ġlast":2912,"Ġexposure":2913,"Ġadjusted":2914,"ĠAssets":2915,"Ġcent":2916,"ITEM":2917,"US":2918,"ĠTrustee":2919,"GE":2920,"ĠRelated":2921,"limin":2922,"ingle":2923,"Ġexist":2924,"Ġfocus":2925,"Ġmeaning":2926,"ĠLoans":2927,"Ġdelivered":2928,"Ġwhile":2929,"ĠDisclo":2930,"Ġdiscussion":2931,"td":2932,"Ġten":2933,"ĠIII":2934,"co":2935,"Ġpartnership":2936,"ruct":2937,"ished":2938,"velopment":2939,"ĠDis":2940,"Ġactive":2941,"Ġcriteria":2942,"Ġamortized":2943,"Ġselling":2944,"Ġdev":2945,"ects":2946,"osed":2947,"Ġreimburse":2948,"ĠASC":2949,"VE":2950,"________________":2951,"ions":2952,"Ġoverall":2953,"Ġaccounted":2954,"Ġagreed":2955,"Ġothers":2956,"Ġclosing":2957,"Ġprivate":2958,"Ġrespects":2959,"Ch":2960,"Ġevid":2961,"appro":2962,"ouse":2963,"ĠLtd":2964,"Ġfirm":2965,"emption":2966,"Ġbal":2967,"Ġbuild":2968,"Ġlet":2969,"PA":2970,"Ġdifferent":2971,"Ġissue":2972,"Ġtechn":2973,"tax":2974,"Ġpartner":2975,"Ġmargin":2976,"Ġcandidates":2977,"Ġeligible":2978,"Ġacquire":2979,"Ġinstitutions":2980,"ĠPerformance":2981,"Ġconcer":2982,"Ġcommitments":2983,"ĠBr":2984,"Ġcounter":2985,"Ġcombination":2986,"izations":2987,"Ġachieve":2988,"ANT":2989,"ĠDes":2990,"ook":2991,"ĠBu":2992,"Ġexpand":2993,"Ġpatents":2994,"ĠContract":2995,"ĠCertif":2996,"Ġstruct":2997,"Ġlimitations":2998,"Ġapply":2999,"recogn":3000,"here":3001,"me":3002,"ĠAdditionally":3003,"Ġcommittee":3004,"Ġnature":3005,"Ġindirect":3006,"ĠCour":3007,"Ġpreparation":3008,"exas":3009,"ĠRate":3010,"ĠPa":3011,"err":3012,"onus":3013,"bs":3014,"Ġvolume":3015,"Ġmembers":3016,"Ġrealized":3017,"ĠSecurity":3018,"Ġincentive":3019,"Ġsingle":3020,"Ġcontinuing":3021,"Ġconversion":3022,"Ġtiming":3023,"Ġrating":3024,"rend":3025,"clusive":3026,"Ġrecognition":3027,"tical":3028,"Ġoutside":3029,"--------":3030,"Ġcomplete":3031,"struct":3032,"ĠInvestment":3033,"alized":3034,"Ġprosp":3035,"ĠData":3036,"Ġforec":3037,"Ġadjustment":3038,"Ġresulted":3039,"porary":3040,"ĠLevel":3041,"ĠQu":3042,"Ġfunding":3043,"ĠCost":3044,"Ġrelative":3045,"yn":3046,"Ġrelationships":3047,"iforn":3048,"ifornia":3049,"utes":3050,"Ġtimely":3051,"Ġviol":3052,"Ġinternational":3053,"Ġintellectual":3054,"ĠInternational":3055,"Ġauthority":3056,"ĠStandard":3057,"very":3058,"Ġjudgment":3059,"ĠPurchase":3060,"Ġswap":3061,"Ġvoting":3062,"round":3063,"Ġholding":3064,"HIB":3065,"$.":3066,"Ġcop":3067,"Ġadvis":3068,"Ġcateg":3069,"itor":3070,"Ġproviding":3071,"hes":3072,"Ġsources":3073,"ĠPurch":3074,"read":3075,"HIBIT":3076,"ights":3077,"Ġanticipated":3078,"Ġaffiliates":3079,"ep":3080,"tives":3081,"ĠNOTES":3082,"IDI":3083,"Ġrange":3084,"Ġstrategy":3085,"ĠSec":3086,"ignificant":3087,"Ġrepresents":3088,"olution":3089,"prietary":3090,"Ġdelay":3091,"tary":3092,"writ":3093,"ĠCurrent":3094,"Ġquot":3095,"aired":3096,"Ġneeds":3097,"Ġmember":3098,"ĠCourt":3099,"which":3100,"Ġul":3101,"cription":3102,"ature":3103,"Ġred":3104,"ĠĠĠĠĠĠĠĠĠĠĠĠĠĠĠĠĠĠĠĠĠĠĠĠĠĠĠĠĠĠĠĠĠĠĠĠĠĠĠĠĠĠĠĠĠĠĠĠĠĠĠĠĠĠĠĠĠĠĠĠĠĠĠĠ":3105,"Ġprevent":3106,"Ġbond":3107,"Ġintend":3108,"any":3109,"Ġworking":3110,"Ġge":3111,"Ġoriginal":3112,"time":3113,"ĠSUBS":3114,"Ġprojects":3115,"Ġsegments":3116,"Ġcompr":3117,"December":3118,"ĠChange":3119,"entures":3120,"Ġdiscussed":3121,"ĠFair":3122,"ĠRest":3123,"ayments":3124,"sured":3125,"reasury":3126,"IDIAR":3127,"ĠTexas":3128,"Ġpurpose":3129,"Ġequivalents":3130,"Ġyield":3131,"ĠValue":3132,"Ġinstall":3133,"Ġamendment":3134,"Ġpenalties":3135,"ool":3136,"Ġserved":3137,"Ġforegoing":3138,"Ġopen":3139,"vertising":3140,"ĠWith":3141,"rupt":3142,"Ġreturns":3143,"ĠUp":3144,"az":3145,"ĠOblig":3146,"OP":3147,"Ġdesignated":3148,"emplo":3149,"Ġnext":3150,"Ġmanage":3151,"ĠSubsidiary":3152,"Ġsection":3153,"sub":3154,"tention":3155,"Ġterminated":3156,"Ġtechnologies":3157,"Ġensure":3158,"Ġautom":3159,"gether":3160,"ĠSFAS":3161,"Ġsix":3162,"Ġeffects":3163,"cont":3164,"Ġcountries":3165,"Ġtaken":3166,"ĠCalifornia":3167,"Ġfiler":3168,"Ġlarg":3169,"Ġbalances":3170,"servable":3171,"inary":3172,"Ġconsolid":3173,"ĠRegulation":3174,"lected":3175,"Ġregulation":3176,"Ġenh":3177,"Ġname":3178,"ĠLaw":3179,"Ġearned":3180,"Ġrelevant":3181,"ĠGAAP":3182,"Ġdepreciation":3183,"ĠInsurance":3184,"Ġunre":3185,"Ġareas":3186,"Ġindebtedness":3187,"Ġfiling":3188,"Ġperformed":3189,"Ġcomponent":3190,"mon":3191,"Ġreserve":3192,"Ġrestruct":3193,"ĠSUBSIDIAR":3194,"Ġcalculated":3195,"Ġ.%,":3196,"ĠRep":3197,"Ġhighly":3198,"Ġ(\"":3199,"Ġaccumulated":3200,"ĠShe":3201,"Ġtypically":3202,"Ġrecovery":3203,"Ġdetail":3204,"ĠCorporate":3205,"Ġelectric":3206,"Ġcover":3207,"Ġagencies":3208,"Ġterminate":3209,"Ġgo":3210,"date":3211,"ded":3212,"ORPOR":3213,"Ġglobal":3214,"iliate":3215,"Ġarising":3216,"Ġtrend":3217,"Ġobj":3218,"CH":3219,"endar":3220,"Ġultim":3221,"ĠAccord":3222,"ĠTermination":3223,"Ġvolatility":3224,"Ġem":3225,"care":3226,"lease":3227,"Ġlonger":3228,"ining":3229,"SE":3230,"Ġmedical":3231,"ograph":3232,"ĠFirst":3233,"Ġproceedings":3234,"ker":3235,"illing":3236,"recognized":3237,"Ġpreced":3238,"Ġmaximum":3239,"Ġsafety":3240,"eed":3241,"erred":3242,"BR":3243,"Ġintended":3244,"utical":3245,"invest":3246,"Ġmeasurement":3247,"Ġgenerated":3248,"interest":3249,"Ġexecuted":3250,"Ġadequate":3251,"Ġretirement":3252,"aceutical":3253,"Ġsched":3254,"Ġbanking":3255,"Ġaltern":3256,"Ġnam":3257,"Ġmaking":3258,"Ġreceipt":3259,"airman":3260,"Ġthings":3261,"iving":3262,"lass":3263,"Ġpatients":3264,"way":3265,"Ġgr":3266,"ĠFurther":3267,"Ġmeasured":3268,"ane":3269,"armaceutical":3270,"Ġnor":3271,"Ġqualified":3272,"Ġtrials":3273,"ounts":3274,"Ġentire":3275,"ipp":3276,"Ġreflected":3277,"***":3278,"Ġelectron":3279,"ĠĠĠĠĠĠĠĠĠĠĠĠ":3280,"rolling":3281,"eti":3282,"arged":3283,"ĠSupplement":3284,"Ġconsistent":3285,"Ġpermit":3286,"iration":3287,"omestic":3288,"Ġaccelerated":3289,"Ġland":3290,"Ġfairly":3291,"Ġbest":3292,"aring":3293,"Ġdifficult":3294,"ns":3295,"that":3296,"Ġtem":3297,"ĠEffective":3298,"IR":3299,"aving":3300,"Ġair":3301,"back":3302,"Ġsolutions":3303,"Ġlimitation":3304,"Ġarea":3305,"Ġplant":3306,"Ġimport":3307,"qual":3308,"ipel":3309,"Ġcall":3310,"Ġindicated":3311,"erial":3312,"Ġtesting":3313,"Ġdocuments":3314,"Ġdisclosed":3315,"Ġreferred":3316,"Ġcourt":3317,"Ġproprietary":3318,"Ġdamages":3319,"Ġinstitution":3320,"Ġdiffer":3321,"Ġmil":3322,"Ġexecu":3323,"withstanding":3324,"Ġworld":3325,"Ġbreach":3326,"Ġk":3327,"Ġrecognize":3328,"Ġvested":3329,"Pro":3330,"Ġcontributions":3331,"EO":3332,"Ġharm":3333,"ĠNational":3334,"ager":3335,"Ġinvestors":3336,"anes":3337,"ĠEmployer":3338,")()":3339,"Ġcompetition":3340,"Ġprob":3341,"Ġdocument":3342,"financial":3343,"Ġseparate":3344,"Ġcourse":3345,"ĠIndemn":3346,"Ġtransport":3347,"come":3348,"Ġcalendar":3349,"ĠBl":3350,"Ġprotection":3351,"Ġopportunities":3352,"ĠCent":3353,"TED":3354,"utory":3355,"herent":3356,"ĉĉ":3357,"ĠMedic":3358,"Ġdisposition":3359,"Ġdetermining":3360,"avings":3361,"TING":3362,"Ġlend":3363,"Ġroy":3364,"ĠSUBSIDIARIES":3365,"osp":3366,"Ġhedge":3367,"ĠDebt":3368,"Ġelection":3369,"eful":3370,"Ġlead":3371,"organ":3372,"Ġjurisdiction":3373,"Ġmeasures":3374,"partment":3375,"Ġtherefore":3376,"ĠGood":3377,"ecause":3378,"Ġagrees":3379,"ites":3380,"Ġallocated":3381,"ĠAdministr":3382,"hic":3383,"Ġconducted":3384,"ĠIndenture":3385,"ĠPrior":3386,"actions":3387,"Ġavailability":3388,"ick":3389,"ov":3390,"Ġprofession":3391,"ĠTechnolo":3392,"ration":3393,"Ġstatus":3394,"Ġimpaired":3395,"Ġproposed":3396,"Ġ$,.":3397,"paid":3398,"ĠAcquisition":3399,"Ġmaintaining":3400,"agraph":3401,"IP":3402,"ĠTaxes":3403,"Ġassumed":3404,"Ġparticularly":3405,"Ġdeveloped":3406,"aster":3407,"Ġnote":3408,"ĠHealth":3409,"Ġincreasing":3410,"Ġbroad":3411,"Ġve":3412,"rap":3413,"active":3414,"ĠGlobal":3415,"Ġmer":3416,"Ġcomput":3417,"Ġmy":3418,"ah":3419,"OUN":3420,"ĠAC":3421,"\")":3422,"market":3423,"EF":3424,"comm":3425,"Ġpersonal":3426,"Ġongoing":3427,"anc":3428,"Ġclients":3429,"LO":3430,"Ġden":3431,"ĠAlthough":3432,"Ġuseful":3433,"Ġlabor":3434,"Ġequivalent":3435,"Ġcontingent":3436,"Ġauthorities":3437,"Ġtogether":3438,"Ġpurchases":3439,"ĠCollateral":3440,"ĠAccordingly":3441,"wide":3442,"insurance":3443,"ERS":3444,"Ġsuppliers":3445,"Ġarrangement":3446,"dr":3447,"anti":3448,"ĠResults":3449,"orage":3450,"atform":3451,"Ġdisclosures":3452,"ĠAmended":3453,"Ġsigned":3454,"Ġpractices":3455,"ences":3456,"ĠIt":3457,"Ġback":3458,"Ġfavorable":3459,"ĠChanges":3460,"Ġidentified":3461,"ĠSeller":3462,"Ġconstitute":3463,"Ġdates":3464,"Ġreplace":3465,"Ġalle":3466,"Ġelimin":3467,"Ġrecords":3468,"Ġabs":3469,"Ġpreceding":3470,"ĠAsso":3471,"Ġemploy":3472,"Ġinherent":3473,"anced":3474,"Ġsupervision":3475,"Ġwholly":3476,"Ġvariable":3477,"lived":3478,"Ġpa":3479,"forward":3480,"Ġfluctuations":3481,"Ġfurn":3482,"Ġagent":3483,"ĠCondition":3484,"Ġwebs":3485,"Ġevidence":3486,"ĠRules":3487,"ĠProgram":3488,"Ġbanks":3489,"owned":3490,"coll":3491,"ĠAG":3492,"TIES":3493,"Ġconver":3494,"Ġrevolving":3495,"Ġcases":3496,"yl":3497,"ĠArtic":3498,"Ġevaluating":3499,"Ġconvertible":3500,"ĠACC":3501,"Ġenvironment":3502,"Ġaudits":3503,"Ġrede":3504,"Ġdiscon":3505,"Ġcompletion":3506,"Ġstrategic":3507,"Ġ;":3508,"Ġweak":3509,"Ġresidential":3510,"ĠLic":3511,"goti":3512,"aser":3513,"ET":3514,"SION":3515,"Ġexternal":3516,"aining":3517,"Ġinves":3518,"Ġlegis":3519,"ĠInter":3520,"ease":3521,"Ġuns":3522,"incorporated":3523,"Ġdependent":3524,"Ġhereto":3525,"ĠWhile":3526,"ĠREIT":3527,"anging":3528,"Ġrestructuring":3529,"Ġpartners":3530,"ĠCOMP":3531,"Ġapplied":3532,"ĠParties":3533,"Ġlater":3534,"Ġinterpre":3535,"ĠZ":3536,"Ġnorm":3537,"Ġprofitability":3538,"Ġphys":3539,"ĠAR":3540,"Ġread":3541,"Ġformer":3542,"ie":3543,"LL":3544,"ITY":3545,"lements":3546,"akes":3547,"ĠChina":3548,"ĠPursuant":3549,"lier":3550,"Ġissues":3551,"Ġmerger":3552,"Pr":3553,"Ġobtained":3554,"ĠSales":3555,"truct":3556,"Comm":3557,"Ġbrand":3558,"ink":3559,"Ġcapitalized":3560,"ensive":3561,"Ġprotect":3562,"umulative":3563,"ĠRestated":3564,"ned":3565,"Ġcharged":3566,"such":3567,"ĠImp":3568,"Ġanal":3569,"cash":3570,"Ġlines":3571,"Ġwriting":3572,"Ġadvertising":3573,"Ġagree":3574,"By":3575,"Ġmonitor":3576,"hibits":3577,"ĠIndex":3578,"ĠDevelopment":3579,"Ġvariety":3580,"Ġdifferences":3581,"Ġmonthly":3582,"Ġreceivables":3583,"ĠPolic":3584,"Ġstates":3585,"ĠSpec":3586,"inding":3587,"Ġpresents":3588,"otion":3589,"Ġbook":3590,"Ġcombined":3591,"ĠCanada":3592,"Ġexpiration":3593,"Ġgovernmental":3594,"Ġdistribut":3595,"gical":3596,"Ġeffici":3597,"Ġrent":3598,"Ġregion":3599,"ĠElect":3600,"amily":3601,"Ġra":3602,"iana":3603,"Ġunderwrit":3604,"Ġregistration":3605,"Ġstated":3606,"Ġhaving":3607,"urrence":3608,"EM":3609,"losing":3610,"Ġcollabor":3611,"Ġmight":3612,"IG":3613,"ĠĠĠĠĠĠĠĠĠĠĠčĊ":3614,"Ġcompete":3615,"Ġearly":3616,"ĠAnalysis":3617,"Ġreviewed":3618,"Ġconsists":3619,"Ġhome":3620,"ifications":3621,"atic":3622,"ĠCORPOR":3623,"elve":3624,"Ġcommod":3625,"Ġuncertainties":3626,"Ġmultiple":3627,"ĠStandards":3628,"Ġcomparable":3629,"anged":3630,"gress":3631,"Ġforfe":3632,"Ġtimes":3633,"Ġher":3634,"Ġfree":3635,"Ġimpacted":3636,"com":3637,"ĠPayment":3638,"unctions":3639,"QU":3640,"Ġduly":3641,"Ġamendments":3642,"lies":3643,"ĠCar":3644,"emark":3645,"Ind":3646,"Ġfinance":3647,"Ġ%,":3648,"Ġinj":3649,"Ġperforming":3650,"iqu":3651,"ĠĠĠĠĠĠĠĠĠĠĠĠĠĠĠ":3652,"ĠFOR":3653,"Ġunrealized":3654,"Ġexpire":3655,"ussion":3656,"Ġbonus":3657,"Ġvary":3658,"Ġprepared":3659,"CO":3660,"itical":3661,"aft":3662,"SP":3663,"Ġnegatively":3664,"ĠObligations":3665,"Ġrental":3666,"ĠFact":3667,"ĠCol":3668,"Ġending":3669,"Ġgenerate":3670,"bit":3671,"Ġproviders":3672,"Ġdomestic":3673,"Ġprocessing":3674,"than":3675,"ĠProducts":3676,"Ġfre":3677,"ĠWarrant":3678,"Ġexample":3679,"ĠTotal":3680,"ĠPrem":3681,"ĠBalance":3682,"Ġresponsibility":3683,"ĠRef":3684,"uction":3685,"ĠCommit":3686,"Ġunf":3687,"ĠSECTION":3688,"Ġderivatives":3689,"AM":3690,"itiz":3691,"Ġfraud":3692,"uled":3693,"Ġpending":3694,"ĠLenders":3695,"Ġinstrument":3696,"ework":3697,"II":3698,"ifying":3699,"ĠAN":3700,"Ġanother":3701,"Section":3702,"overed":3703,"amework":3704,"illed":3705,"Ġlisted":3706,"ĠEqui":3707,"gal":3708,"Ġvehic":3709,"inations":3710,"respond":3711,"ĠCorp":3712,"ĠDocuments":3713,"arters":3714,"Ġimprovements":3715,"ulation":3716,"Ġredemption":3717,"Ġtypes":3718,"Ġwater":3719,"ordinated":3720,"Ġreimbursement":3721,"Ġventure":3722,"Ġbenefici":3723,"hern":3724,"Ġtotaled":3725,"ĠEmployment":3726,"Ġapproach":3727,"Ġunrecognized":3728,"ĠDi":3729,"ĠAmerican":3730,"eu":3731,"ĠRights":3732,"Ġquoted":3733,"ĠInte":3734,"ception":3735,"Ġstores":3736,"Ġtwelve":3737,"ĠDefault":3738,");":3739,"END":3740,"aur":3741,"allen":3742,"Ġmatter":3743,"Ġuses":3744,"amp":3745,"ĠAS":3746,"Ġexperienced":3747,"Ġevaluate":3748,"ĠBase":3749,"ĠPartners":3750,"Ġmaintained":3751,"ruptcy":3752,"Ġsuccessfully":3753,"Ġinterim":3754,")(":3755,"ĠAM":3756,"ĠRetirement":3757,"ico":3758,"Ġbi":3759,"Ġjurisdictions":3760,"ĠDeferred":3761,"Ġvalid":3762,"Ġdeath":3763,"ĠOR":3764,"Ġmanufacturers":3765,"tructure":3766,"ĠOP":3767,"Ġinvolve":3768,"ĠEar":3769,"uties":3770,"Ġmodified":3771,"Ġnum":3772,"ĠSc":3773,"Ġweakness":3774,"Ġordinary":3775,"ansion":3776,"ington":3777,"PART":3778,"Ġwa":3779,"Ġtre":3780,"ĠCER":3781,"Ġengine":3782,"quare":3783,"DIC":3784,"Ġstorage":3785,"ĠNe":3786,"TEN":3787,"TER":3788,"BIT":3789,"Ġcommission":3790,"ĠLet":3791,"ĠQual":3792,"ĠIssuer":3793,"TIVE":3794,"Ġprocesses":3795,"gth":3796,"Ġplatform":3797,"ĠEs":3798,"Ġtrends":3799,"ĠPUR":3800,"................":3801,"ĠBecause":3802,"Ġlives":3803,"Ġremed":3804,"quired":3805,"SO":3806,"ry":3807,"))":3808,"ĠACCOUN":3809,"ĠUpon":3810,"For":3811,"ĠLess":3812,"Ġallocation":3813,"ĠCons":3814,"Ġlig":3815,"Ġgrants":3816,"Ġfeet":3817,"ĠMortgage":3818,"Ġmoney":3819,"ĠSchedule":3820,"ĠIND":3821,"itative":3822,"Ġdamage":3823,"ĠDiscussion":3824,"Ġnegoti":3825,"osition":3826,"Ġgeograph":3827,"Ġtele":3828,"gated":3829,"ĠMatters":3830,"aced":3831,"current":3832,"Ġprojected":3833,"eal":3834,"Ġsheets":3835,"ĠDistrib":3836,"ĠDistrict":3837,"ĠTreasury":3838,"ĠAud":3839,"ached":3840,"mat":3841,"Ġparticipation":3842,"BRL":3843,"Ġspace":3844,"Ġtemporary":3845,"Ġseries":3846,"ĠChairman":3847,"entially":3848,"br":3849,"ology":3850,"aiver":3851,"obile":3852,"ĠReporting":3853,"ternet":3854,"Ġoperational":3855,"otel":3856,"ĠSouth":3857,"ired":3858,"Ġorders":3859,"Ġsatisfy":3860,"Ġcorrespond":3861,"Ġexclusive":3862,"Ġpredict":3863,"Ġlicenses":3864,"==":3865,"Ġparticipants":3866,"Ġfunction":3867,"ĠCORPORATION":3868,"Ġduties":3869,"Ġcard":3870,"ĠSw":3871,"Ġstatutory":3872,"Ġnational":3873,"Ġnormal":3874,"SUs":3875,"Co":3876,"Ġwhole":3877,"month":3878,"Ġanticipate":3879,"Ġwebsite":3880,"Ġnotif":3881,"Ġholder":3882,"opic":3883,"Ġalternative":3884,"ĠRevolving":3885,"Ġcance":3886,"ST":3887,"Ġsite":3888,"ĠLLP":3889,"Ġsupplement":3890,"oles":3891,"ĠLong":3892,"ĠPrice":3893,"def":3894,"IBOR":3895,"rodu":3896,"Ġpipel":3897,"Am":3898,"Ġgeneration":3899,"from":3900,"oh":3901,"Ġreliability":3902,"ene":3903,"Ġbonds":3904,"Ġsalary":3905,"Ġserve":3906,"iture":3907,"Ġeven":3908,"tivity":3909,"Ġsource":3910,"ĠGas":3911,"Ġhealthcare":3912,"Ġeffectively":3913,"aight":3914,"ĠReserve":3915,"ino":3916,"Ġchallen":3917,"ĠĠĠĠĠĠĠĠĠĠĠĠĠĠ":3918,"ĠIV":3919,"TIC":3920,"Ġcy":3921,"Ġflo":3922,"Ġfunctions":3923,"Ad":3924,"Ġaudited":3925,"ĠWhen":3926,"Ġcomplex":3927,"rolled":3928,"Ġsets":3929,"astructure":3930,"vested":3931,"Ġtransportation":3932,"ĠRo":3933,"Ġattorn":3934,"ĠDr":3935,"ollowing":3936,"Ġlocations":3937,"ĠUnit":3938,"Ġagency":3939,"EL":3940,"ism":3941,"lain":3942,"ĠFactors":3943,"Ġtransmission":3944,"retirement":3945,"ĠRegistration":3946,"etition":3947,"Ġlight":3948,"ison":3949,"Ġconform":3950,"Ġface":3951,"Ġannoun":3952,"Ġextended":3953,"ĠOver":3954,"uman":3955,"Ġsus":3956,"Ġprobable":3957,"Ġestablishing":3958,"ars":3959,"OLD":3960,"Ġaccur":3961,"Ġvend":3962,"ĠCoun":3963,"iled":3964,"Ġrelease":3965,"ĠGr":3966,"Ġconfidential":3967,"house":3968,"ĠEBIT":3969,"ĠClosing":3970,"Ġcumulative":3971,"ĠPlans":3972,"TIFIC":3973,"Ġdoub":3974,"Ġpremiums":3975,"Ox":3976,"Ġsubmitted":3977,"ĠFiscal":3978,"ude":3979,"Ġtype":3980,"ĠAlso":3981,"Ġachie":3982,"quire":3983,"Ġjudgments":3984,"ĠTR":3985,"Ġregular":3986,"Ġelected":3987,"ĠBe":3988,"ived":3989,"Ġdefinition":3990,"uis":3991,"onse":3992,"Ġfranch":3993,"Ġcomprised":3994,"ĠPartner":3995,"continued":3996,"Ġindirectly":3997,"arbanes":3998,"rate":3999,"ospital":4000,"isable":4001,"redits":4002,"ĠTH":4003,"Ġconsolidation":4004,"Ġderived":4005,"ensing":4006,"Ġdefer":4007,"UL":4008,"yees":4009,"Ġwithhold":4010,"ESS":4011,"Ġreclass":4012,"eriv":4013,"ĠParticip":4014,"missions":4015,"ĠArticle":4016,"izing":4017,"lu":4018,"Ġstockholder":4019,"$,":4020,"lows":4021,"portion":4022,"Ġvote":4023,"Ġdiscontinued":4024,"Ġrepresented":4025,"Ġackn":4026,"Ġinvolves":4027,"ounty":4028,"ream":4029,"Ġtherap":4030,"ATIONS":4031,"Ġexercised":4032,"Ġunpaid":4033,"yond":4034,"Ġborrowing":4035,"Ġbroker":4036,"Ġfound":4037,"stock":4038,"Ġschedule":4039,"Ġlimits":4040,"ĠCO":4041,"ĠSouthern":4042,"annel":4043,"ĠProxy":4044,"Ġcharact":4045,"onsor":4046,"MS":4047,"ompt":4048,"Ġproceeding":4049,"Ġparticipate":4050,"Ġhead":4051,"Ġstraight":4052,"Ġprofessional":4053,"Ġcopy":4054,"ĠDIS":4055,"justed":4056,"omin":4057,"Ġmethods":4058,"ĠNotwithstanding":4059,"ĠLIBOR":4060,"Ġtechnical":4061,"ĠPat":4062,"Ġextend":4063,"Ġrefer":4064,"Ġpass":4065,"Ġdegree":4066,"Ġclose":4067,"Ġbeyond":4068,"down":4069,"Ġpresentation":4070,"ĠTitle":4071,"Ġstructure":4072,"ĠNotice":4073,"ĠIndustr":4074,"asure":4075,"Ġearlier":4076,"Ġshareholder":4077,"Ġinfring":4078,"ww":4079,"azard":4080,"Ġsecur":4081,"ĠLoss":4082,"Based":4083,"Oxley":4084,"Ġforce":4085,"Ġofferings":4086,"earch":4087,"ANCE":4088,"ĠFDIC":4089,"REE":4090,"Ġadvance":4091,"ĠBy":4092,"Ġinterpret":4093,"ollars":4094,"ĠOT":4095,"Ġannually":4096,"Ġadministr":4097,"statements":4098,"ĠXBRL":4099,"ĠSarbanes":4100,"Ġselected":4101,"ĠFrom":4102,"ĠInvestments":4103,"erences":4104,"Ġagents":4105,"Ġpoints":4106,"uclear":4107,"ĠResources":4108,"lex":4109,"vironmental":4110,"eff":4111,"Ġunsecured":4112,"Ġperiodic":4113,"encing":4114,"ĠAudit":4115,"ĠProperties":4116,"Ġcarryforward":4117,"Ġmaturities":4118,"Ġenhance":4119,"Ġdefici":4120,"ĠEBITDA":4121,"ĠPhase":4122,"ĠOfficers":4123,".)":4124,"Ġnow":4125,"Th":4126,"Ġoccurs":4127,"Ġdiscounted":4128,"Ġextension":4129,"prise":4130,"Ġdeal":4131,"Ġdiluted":4132,"Ġgoods":4133,"Ġcontains":4134,"ĠSte":4135,"Ġsquare":4136,"vention":4137,"Ġoccurrence":4138,"Ġcommodity":4139,"Ġexcluding":4140,"Ġdefend":4141,"Ġproxy":4142,"versight":4143,"icates":4144,"Ġrepurch":4145,"Ġthroughout":4146,"Ġsummary":4147,"ĠPrincipal":4148,"ĠGe":4149,"Inc":4150,"etro":4151,"istics":4152,"Ġrequirement":4153,"ĠCustom":4154,"licable":4155,"Ġtransferred":4156,"Ġwhat":4157,"Note":4158,"ĠĠĠĠĠĠĠĠĠĠĠĠĠčĊ":4159,"MA":4160,"Ġdeveloping":4161,"Ġassigned":4162,"Ġtransition":4163,"Ġscheduled":4164,"Ġcontem":4165,"Ġcollection":4166,"Ġguarantee":4167,"Ġsavings":4168,"Ġservicing":4169,"elines":4170,"ont":4171,"vo":4172,"iliated":4173,"Ġexercisable":4174,"son":4175,"Ġrely":4176,"Ġoffices":4177,"inite":4178,"Tr":4179,"ular":4180,"Ġinvolved":4181,"ĠEXHIBIT":4182,"Ġconcent":4183,"Ġdecisions":4184,"ubl":4185,"ille":4186,"Ġstrategies":4187,"Ġbecomes":4188,"Ġexpansion":4189,"lan":4190,"Ġreflects":4191,"Ġengaged":4192,"Ġletters":4193,"Ġdifference":4194,"Ġleverage":4195,"ĠBenefit":4196,"Ġenact":4197,"ĠLouis":4198,"Ġcontribution":4199,"Ġstore":4200,"reen":4201,"Ġthereafter":4202,"Ġlawsu":4203,"See":4204,"Ġlending":4205,"Ġrevis":4206,"Ġstudies":4207,"Ġcertifying":4208,"ĠDocument":4209,"Ġtraded":4210,"ERC":4211,"Ġexceeds":4212,"Ġsolely":4213,"reet":4214,"Ġexecution":4215,"ĠInclud":4216,"ĠMex":4217,"TA":4218,"more":4219,"ĠBlack":4220,"Ġhedging":4221,"Ġtherein":4222,"qualified":4223,"FOR":4224,"Ġstaff":4225,"ĠCertificate":4226,"ime":4227,"ĠLP":4228,"OW":4229,"ITIES":4230,"Direct":4231,"ĠStockholders":4232,"ĠWest":4233,"Ġexpectations":4234,"Ġcertificate":4235,"Ġnamed":4236,"draw":4237,"ĠAuthor":4238,"Ġmargins":4239,"ĠIP":4240,"ĠMid":4241,"Ġvolumes":4242,"ĠYes":4243,"ĠSignificant":4244,"Ġhow":4245,"An":4246,"ĠDepartment":4247,"Ġseason":4248,"ĠTransactions":4249,"ĠFirm":4250,"ĠMerger":4251,"agn":4252,"ĠRES":4253,"ida":4254,"ĠCosts":4255,"Ġwhose":4256,"Ġidentify":4257,"visions":4258,"million":4259,"Ġbeneficial":4260,"Ġlargest":4261,"Not":4262,"Ġrule":4263,"Ġ*":4264,"igital":4265,"ĠBanc":4266,"ĠAsset":4267,"Comp":4268,"ectives":4269,"Ġship":4270,"ĠReal":4271,"Ġassist":4272,"ĠEvent":4273,"yd":4274,"Ġtrademark":4275,"Ġdrilling":4276,"oration":4277,"ĠOrgan":4278,"ĠProceed":4279,"Ġsmaller":4280,"ĠFore":4281,"onc":4282,"BL":4283,"Ġdriven":4284,"Ġintrodu":4285,"ĠAdditional":4286,"ĠMember":4287,"Ġlegislation":4288,"Ġowner":4289,"Ġapproxim":4290,"oot":4291,"Ġevaluated":4292,"Ġpotentially":4293,"Ġborrower":4294,"ĠInstru":4295,"urring":4296,"consolidated":4297,"author":4298,"Ġnumer":4299,"nings":4300,"Ġacceptable":4301,"Ġcell":4302,"Ġconsisted":4303,"atures":4304,"ĠSECUR":4305,"ĠCounty":4306,"Ġpe":4307,"Ġinfrastructure":4308,"venues":4309,"ĠPen":4310,"ĠCity":4311,"Ġdevices":4312,"IE":4313,"Ġprompt":4314,"lp":4315,"utation":4316,"day":4317,"ĠLetter":4318,"Ġdollars":4319,"ĠPremises":4320,"Ġqualify":4321,"ĠParent":4322,"ery":4323,"Ġsummarizes":4324,"SUANT":4325,"ĠManager":4326,"Ġimportant":4327,"Ġremo":4328,"Ġwrite":4329,"Ġrepair":4330,"Ġcredits":4331,"error":4332,"ĠIndependent":4333,"Ġappear":4334,"Ġrepresenting":4335,"ĠAwards":4336,"Ġdetermines":4337,"lorida":4338,"oin":4339,"Ġsuccessor":4340,"ĠExcept":4341,"Ġparagraph":4342,"Ġcalculation":4343,"ĠAffiliates":4344,"ĠClaim":4345,"Ġretained":4346,"Ġinvested":4347,"Ġtotaling":4348,"Ġcollect":4349,"place":4350,"Ġultimate":4351,"ĠCommun":4352,"ĠSystems":4353,"Ġbuilding":4354,"anufact":4355,"Ġliquidation":4356,"IL":4357,"ones":4358,"company":4359,"retary":4360,"net":4361,"Ġrequested":4362,"Ġrestaur":4363,"Ġdoubt":4364,"Date":4365,"ĠAgreements":4366,"ĠQuarter":4367,"ek":4368,"itable":4369,"ĠEuropean":4370,"ĠConvertible":4371,"Ġroyalty":4372,"Ġelectronic":4373,"ĠRet":4374,"ĠAdvis":4375,"TOR":4376,"Ġallowances":4377,"Ġobtaining":4378,"tig":4379,"contract":4380,"ĠFinance":4381,"Ġacross":4382,"Ġoutcome":4383,"ĠOptions":4384,"Ġcontempl":4385,"At":4386,"Ġleased":4387,"gener":4388,"mical":4389,"Ġengage":4390,"Ġattract":4391,"Ġteam":4392,"Ġmerch":4393,"Ġresponse":4394,"Ġoften":4395,"Ġconcerning":4396,"ĠBuyer":4397,"Ġdisru":4398,"ames":4399,"Ġmanaged":4400,"Ġindustrial":4401,"provid":4402,"ĠCommercial":4403,"average":4404,"sale":4405,"aws":4406,"Ġtitle":4407,"Ġshown":4408,"Ġobservable":4409,"Ġconflic":4410,"United":4411,"Ġdepends":4412,"controlling":4413,"Ġpublicly":4414,"ĠRece":4415,"Ġissuer":4416,"ĠREG":4417,"Ġmix":4418,"ĠCompanies":4419,"Ġspecifically":4420,"ierarch":4421,"Ġevery":4422,"Ġconcluded":4423,"ersigned":4424,"Ġtreated":4425,"tivities":4426,"Ġfunded":4427,"Ġwaiver":4428,"Ġowns":4429,"Ġclear":4430,"Ġmilest":4431,"lities":4432,"Ġadvant":4433,"ĠAccounts":4434,"ĠUnivers":4435,"Ġaffecting":4436,"eting":4437,"iver":4438,"ulf":4439,"Ġindividuals":4440,"ĠProject":4441,"Ġraw":4442,"ife":4443,"ĠEng":4444,"ierarchy":4445,"report":4446,"Ġlenders":4447,"Ġdeclared":4448,"Ġemployed":4449,"Name":4450,"Ġpool":4451,"lean":4452,"Res":4453,"Ġz":4454,"ĠEl":4455,"Ġimplementation":4456,"Ġcorresponding":4457,"etermin":4458,"ĠPURSUANT":4459,"losure":4460,"ĠCH":4461,"sour":4462,"During":4463,"Ġletter":4464,"ĠPurchaser":4465,"Ġnear":4466,"ĠMin":4467,"ĠOwnership":4468,"mark":4469,"ĠSum":4470,"ĠOut":4471,"stain":4472,"ĠAir":4473,"Ġgive":4474,"ĠWIT":4475,"Ġvalued":4476,"Ġindemnification":4477,"trans":4478,"itional":4479,"Ġimposed":4480,"ĠConf":4481,"Ġapprovals":4482,"Man":4483,"Other":4484,"ĠContrib":4485,"CA":4486,"Ġcertify":4487,"ĠExpenses":4488,"ox":4489,"Ġstep":4490,"Ġcritical":4491,"Ġprincipally":4492,"ires":4493,"Ġstudy":4494,"uting":4495,"Ġobjectives":4496,"parties":4497,"uck":4498,"Ġhelp":4499,"Ġorigin":4500,"Ġbecame":4501,"Net":4502,"AX":4503,"Ġcommitment":4504,"Ġresolution":4505,"Ġi":4506,"ĠACCOUNTING":4507,"RED":4508,"imp":4509,"Ġshow":4510,"Fr":4511,"Ġalong":4512,"ĠAdministrator":4513,"Ġseverance":4514,"Ġuncertainty":4515,"ĠBas":4516,"ĠGuarantor":4517,"Ġpermits":4518,"Ġwarranty":4519,"Ġdelays":4520,"TIFICATION":4521,"Ġ.,":4522,"Ġinsured":4523,"Ġinitiatives":4524,"ĠAssociation":4525,"PS":4526,"ĠLouisiana":4527,"Ġproj":4528,"ĠFlorida":4529,"Ġexists":4530,"Ġswaps":4531,"Ġstrong":4532,"eep":4533,"overy":4534,"ĠNAS":4535,"Ġdistributors":4536,"Ġlicensed":4537,"Ġundersigned":4538,"tiff":4539,"Ġallows":4540,"Ġsens":4541,"ĠOne":4542,"En":4543,"Ġorganization":4544,"Ġ--":4545,"junction":4546,"Ġenforcement":4547,"ĠNone":4548,"Ġrepayment":4549,"afe":4550,"Ġutilize":4551,"Ġcreate":4552,"UC":4553,"ĠElectric":4554,"Ġhand":4555,"ĠAD":4556,"product":4557,"AGE":4558,"OCK":4559,"Ġway":4560,"Ġproduce":4561,"Ġcoal":4562,"Ġcore":4563,"ump":4564,"Ġreinsurance":4565,"ĠInt":4566,"ĠEnded":4567,"sequ":4568,"use":4569,"rop":4570,"Ġcarried":4571,"Ġassessing":4572,"azardous":4573,"Ġsustain":4574,"ĠCOMM":4575,"where":4576,"disc":4577,"Ġpharmaceutical":4578,"Ġlocation":4579,"anties":4580,"ĠPension":4581,"Ġprofits":4582,"ĠMc":4583,"Ġ.%.":4584,"have":4585,"Ġcontinues":4586,"ivil":4587,"aintiff":4588,"Ġannounced":4589,"celerated":4590,"DAQ":4591,"ĠAffiliate":4592,"Ġpled":4593,"FO":4594,"ĠAust":4595,"ains":4596,"HL":4597,"ĠStreet":4598,"Ġoccup":4599,"ancy":4600,"Ġmut":4601,"ĠMedicare":4602,"Ġscope":4603,"Ġgeographic":4604,"Ġsize":4605,"Ġstren":4606,"Ġexper":4607,"spec":4608,"Ġcountry":4609,"ĠTechnology":4610,"ĠThird":4611,"Ġreductions":4612,"Ġwells":4613,"Ġcategory":4614,"Ġrequiring":4615,"Ġemerg":4616,"craft":4617,"cons":4618,"Ġhierarchy":4619,"Ġyet":4620,"Ġsites":4621,"mb":4622,"shall":4623,"abel":4624,"ĠRegistered":4625,"Delaware":4626,"Ġcarryforwards":4627,"PR":4628,"Ġcounsel":4629,"ĠRed":4630,"Ġexplor":4631,"van":4632,"Ġbankruptcy":4633,"ott":4634,"ĠMexico":4635,"incre":4636,"Ġinvesting":4637,"Ġmiti":4638,"ĠTransaction":4639,"clude":4640,"ĠAmount":4641,"Ġrecently":4642,"Ġarbit":4643,"Ġattem":4644,"ĠGoodwill":4645,"ĠFERC":4646,"Ġchannel":4647,"Ġcontent":4648,"Ġhedges":4649,"ms":4650,"Ġexpects":4651,"Ġopportunity":4652,"ĠRSUs":4653,"ominated":4654,"ously":4655,"ĠSecured":4656,"Ġpack":4657,"ĠHolder":4658,"Ġcomplain":4659,"opt":4660,"Ġremedi":4661,"ĠIncorporated":4662,"ĠDisclosure":4663,"Ġraise":4664,"ĠVir":4665,"Ġretro":4666,"Ġwholes":4667,"Ġpubl":4668,"Ġcommence":4669,"ĠAppro":4670,"Ġexecute":4671,"Ġnumerous":4672,"ĠPRO":4673,"ĠKing":4674,"Ġdepending":4675,"Ġpatient":4676,"ĠFees":4677,"Ġseparately":4678,"Ġunderwriting":4679,"att":4680,"Ġcomputed":4681,"Ġasser":4682,"Ġratings":4683,"Ġconsumm":4684,"Ġadvances":4685,"ashington":4686,"untary":4687,"lands":4688,"Ġwithdraw":4689,"Ġutilized":4690,"Ġmillions":4691,"efinite":4692,"Ġpositive":4693,"ĠGrantee":4694,"ANY":4695,"Ġinability":4696,"capital":4697,"ĠOffice":4698,"Ġdisposal":4699,"Ġconjunction":4700,"ĠBenefits":4701,"Ġsaid":4702,"Ġgiving":4703,"Ġgoverning":4704,"ĠEnvironmental":4705,"Ġparticipant":4706,"Ġinflu":4707,"Ġconverted":4708,"ĠAGREE":4709,"ality":4710,"vailable":4711,"Ġacceptance":4712,"Ġworldwide":4713,"ĠSecretary":4714,"ĠCanadian":4715,"Ġbegan":4716,"ĠPART":4717,"ĠIndicate":4718,"Reg":4719,"ĠEstim":4720,"ASE":4721,"Ġoperated":4722,"Ġenc":4723,"Ġowners":4724,"ently":4725,"ABLE":4726,"cost":4727,"Ġdistributed":4728,"Ġrepay":4729,"ĠPolicies":4730,"income":4731,"ĠSAR":4732,"Ġexpressly":4733,"ĠEPA":4734,"Ġviolation":4735,"Ġstand":4736,"Ġguidelines":4737,"investment":4738,"Ġcontemplated":4739,"umb":4740,"Ġconsulting":4741,"Ġundert":4742,"ills":4743,"arranties":4744,"Ġdeteri":4745,"Ġspending":4746,"hio":4747,"ĠBro":4748,"ilding":4749,"Ġmo":4750,"CON":4751,"Emplo":4752,"Acc":4753,"Ġclient":4754,"eys":4755,"avel":4756,"Ġoffered":4757,"Ġrelate":4758,"idge":4759,"condition":4760,"NI":4761,"Ġ$,,,":4762,"au":4763,"ett":4764,"Ġconsequ":4765,"ann":4766,"Ġindicate":4767,"Ġengineering":4768,"ĠRent":4769,"Ġla":4770,"aith":4771,"Ġreviews":4772,"Principal":4773,"des":4774,"business":4775,"Ġreputation":4776,"ĠUniversity":4777,"ĠNY":4778,"Ġwithholding":4779,"Ġ(%":4780,"DI":4781,"Ġwide":4782,"nov":4783,"ĠER":4784,"ĠInternet":4785,"ĠJoh":4786,"Ġage":4787,"changes":4788,"ĠITEM":4789,"ĠEquipment":4790,"ortg":4791,"Ġanaly":4792,"Ġreconc":4793,"ĠDepos":4794,"If":4795,"ĠSel":4796,"Ġsubmit":4797,",\"":4798,"Ġvers":4799,"ĠCommitments":4800,"ĠNASDAQ":4801,"ĠGovernance":4802,"Ġdefinitive":4803,"istrib":4804,"Ġannum":4805,"ĠSecond":4806,"LA":4807,"Ġpipeline":4808,"ĠStockholder":4809,"period":4810,"iliation":4811,"Ġsti":4812,"perform":4813,"Ġcapabilities":4814,"ives":4815,"mary":4816,"Ġprojections":4817,"ĠQuarterly":4818,"Ġinfringe":4819,"ĠDu":4820,"apid":4821,"Ġdivid":4822,"olitical":4823,"Ġbinding":4824,"ister":4825,"De":4826,"Ġhotel":4827,"Ġutility":4828,"ĠSince":4829,"ĠResearch":4830,"Ġsecure":4831,"grated":4832,"Ġtests":4833,"addition":4834,"Ġrole":4835,"ĠHolding":4836,"ĠAT":4837,"Ġcenters":4838,"voc":4839,"EXHIBIT":4840,"SEC":4841,"ĠDividend":4842,"ĠMich":4843,"value":4844,"ada":4845,"Ġinvolving":4846,"Ġplants":4847,"ĠForeign":4848,"ĠDisclosures":4849,"Ġdeficiencies":4850,"Ġacknowled":4851,"Ġadopt":4852,"utive":4853,"ĠMar":4854,"rep":4855,"Ġturn":4856,"antit":4857,"Ġcrude":4858,"quidity":4859,"Ġcommunications":4860,"Ġenacted":4861,"ml":4862,"anche":4863,"Ġminim":4864,"Title":4865,"antitative":4866,"Ġtechniqu":4867,"ĠPayments":4868,"Ġhospital":4869,"ĠAP":4870,"statement":4871,"Ġsettled":4872,"ĠDistribution":4873,"held":4874,"Ġguarantees":4875,"-_":4876,"Ġreplacement":4877,"ĠLicense":4878,"Ġorganizations":4879,"ĠDeriv":4880,"Ġconsisting":4881,"ĠComb":4882,"Ġlicensing":4883,"aci":4884,"ĠInstruments":4885,"ĠAb":4886,"Ġextensive":4887,"Ġexhibit":4888,"ĠSupplemental":4889,"Ġsubordinated":4890,"Ġexamination":4891,"Ġemissions":4892,"IM":4893,"Ġincorporation":4894,"VER":4895,"Ġfaith":4896,"Ġredeem":4897,"ĠTAX":4898,"organization":4899,"Ġcontributed":4900,"cludes":4901,"ĠName":4902,"ilit":4903,"Ġprovider":4904,"Ġcyc":4905,"Ġow":4906,"Ġweaknesses":4907,"Ġpref":4908,"Ġadministration":4909,"Ġrestated":4910,"airment":4911,"Ġmanaging":4912,"Ġfield":4913,"Indicate":4914,"olved":4915,"Ġcancell":4916,"ĠEN":4917,"Ġappoint":4918,"dom":4919,"Ġregulated":4920,"Ġimpose":4921,"ĠAssign":4922,"Ġrecomm":4923,"xml":4924,"Ġenable":4925,"ĠSponsor":4926,"Ġrefund":4927,"org":4928,"onstr":4929,"ĠSheets":4930,"Ġrecoverable":4931,"ĠSubject":4932,"Ġcur":4933,"ĠDue":4934,"ĠNO":4935,"Ġconclus":4936,"tible":4937,"ĠSegment":4938,"Ġindustries":4939,"orter":4940,"ĠSections":4941,"ĠSTOCK":4942,"ĠAGREEMENT":4943,"Ġliable":4944,"Ġconsiders":4945,"Ġquanti":4946,"regul":4947,"effective":4948,"struction":4949,"this":4950,"Ġste":4951,"ounted":4952,"uration":4953,"ĠAdv":4954,"Ġregional":4955,"Ġclause":4956,"Ġcharacter":4957,"Ġfranchise":4958,"ĠĠĠĠĠĠĠĠĠĠĠĠĠĠĠĠĠĠĠĠĠĠĠĠĠĠĠĠĠĠĠĠĠĠĠĠĠĠĠĠ":4959,"Ġcertificates":4960,"ĠWork":4961,"Executive":4962,"Ġproved":4963,"Management":4964,"ĠYou":4965,"phone":4966,"Form":4967,"ĠHome":4968,"Ġdelin":4969,"hether":4970,"lock":4971,"FORM":4972,"Ġce":4973,"****":4974,"ĠShareholders":4975,"ne":4976,"ĠMark":4977,"Ġthousand":4978,"urrency":4979,"Ġir":4980,"Ġobligated":4981,"Stock":4982,"Ġattempt":4983,"ĠCenter":4984,"ĠWashington":4985,"Ġthereunder":4986,"ĠCOMPANY":4987,"Agreement":4988,"ĠOhio":4989,"aily":4990,"ĠSan":4991,"Ġresid":4992,"Sh":4993,"RA":4994,"ret":4995,"see":4996,"Ġactu":4997,"Ġed":4998,"***]":4999,"Ġindefinite":5000,"ĠSpecial":5001,"ĠSever":5002,"ĠPay":5003,"clinical":5004,"Ġdivers":5005,"Ġassignment":5006,"Ġsuff":5007,"ody":5008,"ĠBancorp":5009,"Ġratios":5010,"ĠStr":5011,"Ġlarger":5012,"Ġupdate":5013,"Ġautomatic":5014,"Ġdisp":5015,"ales":5016,"Ġcommercialization":5017,"Ġseeking":5018,"Ġpromptly":5019,"Ġproportion":5020,"ĠSECURITIES":5021,"ĠMon":5022,"Ġaffiliate":5023,"Ġrevised":5024,"ĠMeeting":5025,"ĠReceiv":5026,"TH":5027,"Ġcommissions":5028,"Ġfood":5029,"Ġoperates":5030,"Ġshorter":5031,"Ġguaranteed":5032,"Ġthereby":5033,"Ġfoot":5034,"echan":5035,"taining":5036,"ĠEnti":5037,"Ġleading":5038,"fers":5039,"sumer":5040,"Ġdecreases":5041,"TC":5042,"icated":5043,"Ġdisch":5044,"issu":5045,"authorized":5046,"Ġsent":5047,"ero":5048,"Ġprohib":5049,"may":5050,"ivision":5051,"Ġprospects":5052,"ĠVirgin":5053,"Ġidenti":5054,"ĠREGIS":5055,"Ġultimately":5056,"Ġadmin":5057,"ĠCom":5058,"Ġsk":5059,"Ġwholesale":5060,"State":5061,"Ġhour":5062,"Ġ]":5063,"ousing":5064,"ĠSolutions":5065,"Ġmand":5066,"ĠACT":5067,"fund":5068,"Financial":5069,"NOTE":5070,"cast":5071,"ĠDISC":5072,"Ġimplemented":5073,"Ġsusp":5074,"ĠTherefore":5075,"Ġarise":5076,"Ġrapid":5077,"iers":5078,"ĠREL":5079,"ĠComprehensive":5080,"ĠFile":5081,"Ġborrowers":5082,"Ġinsure":5083,"Ġauditors":5084,"Ġdemonstr":5085,"benef":5086,"Ġprepayment":5087,"uctions":5088,"Ġhuman":5089,"observable":5090,"ĠTier":5091,"Ġforms":5092,"Ġlist":5093,"NOTES":5094,"Ġsurv":5095,"Ġproble":5096,"Ġmail":5097,"Ġsubsequently":5098,"Ġmodels":5099,"Ġdevelopments":5100,"Ġwhom":5101,"Ġpostretirement":5102,"dered":5103,"Ġwaste":5104,"Ġdevice":5105,"Consolidated":5106,"Ġacceler":5107,"icro":5108,"Ġvir":5109,"Ġstart":5110,"Ġsubstit":5111,"Ġspread":5112,"Ġchanged":5113,"TICLE":5114,"Ġimproved":5115,"itee":5116,"thics":5117,"Ġmonitoring":5118,"Ġforecast":5119,"Ġtrustee":5120,"INGS":5121,"aches":5122,"Ġtaking":5123,"Ġcivil":5124,"ansas":5125,"Sub":5126,"ĠAustral":5127,"Ġconfirm":5128,"ĠPL":5129,"Ġinsp":5130,"Ġvendors":5131,"OCU":5132,"----------------":5133,"ĠMeasure":5134,"Ġonline":5135,"Ġelse":5136,"ĠCEO":5137,"Ġcontrary":5138,"Ġadded":5139,"ĠON":5140,"Ġcenter":5141,"Ġcategories":5142,"Ġexpensed":5143,"Ġfavor":5144,"dec":5145,"ĠVIE":5146,"approximately":5147,"Ġinvestig":5148,"quirements":5149,"ounce":5150,"leading":5151,"ords":5152,"Ġrenewal":5153,"ĠFunds":5154,"Ġgoals":5155,"Ġsy":5156,"ĠEast":5157,"ĠTopic":5158,"Ġexcluded":5159,"ĠEligible":5160,"accru":5161,"ĠIndebtedness":5162,"ĠLegal":5163,"Ġconformity":5164,"Ġcurrencies":5165,"quiring":5166,"Ġpaper":5167,"leum":5168,"icon":5169,"ri":5170,"Ġmakes":5171,"Ġfurnished":5172,"ĠMet":5173,"ĠKingdom":5174,"Ġnuclear":5175,"ĠFurthermore":5176,"ĠProt":5177,"ĠWHER":5178,"Ġweather":5179,"Ġexploration":5180,"TIONS":5181,"water":5182,"reciation":5183,"aming":5184,"ĠDuke":5185,"Ġconsumers":5186,"Ġplaced":5187,"ĠNor":5188,"Ġbear":5189,"Ġwire":5190,"Ġannivers":5191,"tility":5192,"Ġvac":5193,"ĠEQU":5194,"Ġmeasurements":5195,"ĠAut":5196,"ĠAsia":5197,"ĠEmployees":5198,"Ġweek":5199,"Ġmodification":5200,"Ġbetter":5201,"ĠJap":5202,"Ġachieved":5203,"Ġthreat":5204,"Ġplanning":5205,"Ġshipp":5206,"Ġclosed":5207,"bank":5208,"Ġphysici":5209,"has":5210,"Ġperiodically":5211,"Ġtraditional":5212,"ylvan":5213,"arial":5214,"ĠCompliance":5215,"Ġcompens":5216,"DS":5217,"Ġquarters":5218,"Ġformul":5219,"elec":5220,"Ġrelates":5221,"Ġcat":5222,"Ġparts":5223,"ĠSch":5224,"ĠContin":5225,"Ġneeded":5226,"Ġfocused":5227,"ĠExt":5228,"ylvania":5229,"SA":5230,"Ġproduc":5231,"Ġrepresentations":5232,"ĠDesigned":5233,"following":5234,"Ġassessments":5235,"\"),":5236,"esting":5237,"head":5238,"No":5239,"collectively":5240,"olar":5241,"nsylvania":5242,"Ġbasic":5243,"Securities":5244,"Ġchief":5245,"Ġreducing":5246,"ĠWell":5247,"pendence":5248,"ĠSER":5249,"ĠSome":5250,"Ġsupplies":5251,"Ġadvantage":5252,"ĠAdjusted":5253,"Ġexposed":5254,"ville":5255,"ĠRegulatory":5256,"Ġdigital":5257,"used":5258,"ailure":5259,"Ġcho":5260,"Ġfilings":5261,"GL":5262,"Ġpractice":5263,"Ġattorneys":5264,"Term":5265,"ississ":5266,"Ġindex":5267,"ifies":5268,"Ġdeem":5269,"ĠSC":5270,"ols":5271,"operations":5272,"Ġmanag":5273,"ĠGovernment":5274,"oph":5275,"Ġelectricity":5276,"Ġintent":5277,"ching":5278,"ointed":5279,"Ġperman":5280,"ĠSched":5281,"errit":5282,"Ġgenerating":5283,"ĠLiabilities":5284,"Director":5285,"ĠGulf":5286,"ift":5287,"ĠLessee":5288,"Ġpage":5289,"Ġphysical":5290,"ĠNumber":5291,"owers":5292,"Ġview":5293,"Ġfluctu":5294,"ĠEstate":5295,"ississipp":5296,"Ġawarded":5297,"odd":5298,"ECU":5299,"Ġdrugs":5300,"ciated":5301,"ounting":5302,"Ġconsultants":5303,"Notes":5304,"Ġtend":5305,"Ġsecuritiz":5306,"Ġeconomy":5307,"Ġalleged":5308,"Ġjo":5309,"Ġassessed":5310,"orgia":5311,"ĠPerm":5312,"EAS":5313,"HLB":5314,"void":5315,"Ġbeneficiary":5316,"ĠĠĠĠĠĠĠĠĠĠĠĠĠĠĠĠĠ":5317,"etroleum":5318,"shares":5319,"Ġremediation":5320,"Ġcomplaint":5321,"Ġproduced":5322,"Ġcounterparties":5323,"estim":5324,"ĠAmounts":5325,"reshold":5326,"Ġparent":5327,"ĠBY":5328,"Ġrecognizes":5329,"Ġintr":5330,"Ġtechniques":5331,"Ġpolitical":5332,"Ġelsewhere":5333,"factory":5334,"Ġx":5335,"performance":5336,"ississippi":5337,"di":5338,"ĠConfidential":5339,"Ġtenant":5340,"each":5341,"Ġcreated":5342,"Ġcontrolled":5343,"Ġwarranties":5344,"ĠBeneficial":5345,"Ġinvestor":5346,"Ġtraining":5347,"Ġvehicles":5348,"ĠProcedures":5349,"ened":5350,"subject":5351,"Ġdiscounts":5352,"sider":5353,"Ġreclassified":5354,"ĠIndemnitee":5355,"ĠSupplementary":5356,"Ġasp":5357,"ENS":5358,"ĠChar":5359,"ĠTransfer":5360,"Ġplaintiff":5361,"Ġexpressed":5362,"CP":5363,"Ġcease":5364,"crow":5365,"ĠFramework":5366,"Ġintegrated":5367,"Ġcredited":5368,"Ġacts":5369,".%":5370,"ĠSummary":5371,"ĠGP":5372,"Ġenterprise":5373,"Ġupd":5374,"ĠDE":5375,"Ġchanging":5376,"ĠOversight":5377,"Ġmobile":5378,"ength":5379,"Ġimplied":5380,"YS":5381,"known":5382,"Ġappeal":5383,"Ġavoid":5384,"ĠTechnologies":5385,"Ġplanned":5386,"Ġrelief":5387,"whether":5388,"ivate":5389,"employee":5390,"Ġadvanced":5391,"Ġimprovement":5392,"Ġcas":5393,"iable":5394,"Ġdistribute":5395,"Ġfew":5396,"performing":5397,"non":5398,"Ġnoted":5399,"Ġseven":5400,"Ġinnov":5401,"Ġsem":5402,"Ġmaintains":5403,"Ġcovering":5404,"MB":5405,"ĠCr":5406,"Ġcomputer":5407,"Ġventures":5408,"Ġoffers":5409,"Ġremains":5410,"ger":5411,"ĠLife":5412,"alid":5413,"Ġconstrued":5414,"IA":5415,"Ġparticipating":5416,"Ġdeclines":5417,"Ġvehicle":5418,"Ġtrademarks":5419,"ado":5420,"Ġhazardous":5421,"Ġassure":5422,"ANGE":5423,"log":5424,"ibilities":5425,"ARY":5426,"ĠActivities":5427,"Ġself":5428,"adequ":5429,"ĠRevenues":5430,"Al":5431,"ĠChe":5432,"Ġdaily":5433,"OS":5434,"NA":5435,"Ġportions":5436,"Ġconsequences":5437,"Ġrather":5438,"ĠDesign":5439,"Ġtables":5440,"Ġthir":5441,"Ġhard":5442,")()(":5443,"Ġhistorically":5444,"ĠPU":5445,"ĠOf":5446,"oresee":5447,"ĠDOCU":5448,"ĠBenefici":5449,"Ġappointed":5450,"Ġdisclose":5451,"ĠCERTIFICATION":5452,"ANS":5453,"ĠEff":5454,"ibles":5455,"Ġpaying":5456,"Ġanniversary":5457,"ĠIniti":5458,"fit":5459,"RC":5460,"Ġcode":5461,"Ġsit":5462,"Ġfacts":5463,"ĠMedical":5464,"Ġrelatively":5465,"Ġprospective":5466,"oting":5467,"llino":5468,"llinois":5469,"GAAP":5470,"ft":5471,"Ġinvalid":5472,"Ġrad":5473,"Chief":5474,"Ġmove":5475,"Ġpursue":5476,"ĠFuture":5477,"ĠEarnings":5478,"Ġreasons":5479,"Ġrealize":5480,"ĠBond":5481,"iber":5482,"ĠIncorporation":5483,"Ġclassification":5484,"Ġintegral":5485,"Frank":5486,"Ġbrands":5487,"Ġalthough":5488,"Ġcustomary":5489,"Ġindividually":5490,"Part":5491,"ĠMore":5492,"Ġsummarized":5493,"xt":5494,"ĠMac":5495,"Ġsatisfaction":5496,"Ġrecovered":5497,"ĠFHLB":5498,"Ġappra":5499,"ĠPennsylvania":5500,"DC":5501,"Sch":5502,"ĠFlows":5503,"Ġmultip":5504,"angibles":5505,"-,":5506,"uity":5507,"ĠEXTEN":5508,"ression":5509,"Ġmechan":5510,"ling":5511,"ention":5512,"ĠPark":5513,"Ġreceiving":5514,"ĠIncre":5515,"balance":5516,"Ġinitially":5517,"ĠMaster":5518,"ĠMississippi":5519,"Ġfeatures":5520,"ĠCare":5521,"Ġmerchand":5522,"ĠAfter":5523,"ĠSale":5524,"Ġmid":5525,"AGEMENT":5526,"Ġmisleading":5527,"information":5528,"ĠCarol":5529,"Ġdeb":5530,"ĠFinancing":5531,"ependence":5532,"BA":5533,"Ġintegration":5534,"ĠExhibits":5535,"ĠVirginia":5536,"Ġsoon":5537,"Ġunderstand":5538,"ĠOwner":5539,"through":5540,"Ġexce":5541,"Ġaircraft":5542,"lowance":5543,"essel":5544,"Ġobjective":5545,"hood":5546,"Ġdenominated":5547,"PORT":5548,"ĠDeposit":5549,"Ġfamily":5550,"Ġposted":5551,"ĠDec":5552,"Ġ%.":5553,"fully":5554,"cale":5555,"March":5556,"PM":5557,"ĠAdministration":5558,"ĠEM":5559,"ĠSeparation":5560,"ANAGEMENT":5561,"backed":5562,"ĠGeorgia":5563,"ĠMarketing":5564,"Ġranging":5565,"Ġunith":5566,"Ġunderstanding":5567,"ĠSheet":5568,"Ġcharacteristics":5569,"payment":5570,"Ġunvested":5571,"Ġinvestigation":5572,"Ġcommunity":5573,"Ġ-)":5574,"raz":5575,"ĠIntegrated":5576,"ĠStaff":5577,"Ġtenants":5578,"stream":5579,"Ġreceives":5580,"ĠPPL":5581,"gu":5582,"Se":5583,"anufacturing":5584,"ĠHolders":5585,"ĠControls":5586,"Ġfrequent":5587,"ortization":5588,"Ġlack":5589,"oreseeable":5590,"EST":5591,"argo":5592,"oming":5593,"Ġcounterparty":5594,"den":5595,"ĠApplicable":5596,"Ġremedies":5597,"gen":5598,"usion":5599,"Ġroyalties":5600,"onounce":5601,"HAR":5602,"Ġrespond":5603,"Level":5604,"Ġallowed":5605,"upon":5606,"ĠIRS":5607,"ĠActual":5608,"Ġsafe":5609,"Ġrestrict":5610,"stance":5611,"IV":5612,"light":5613,"Ġmutual":5614,"Ġsatisfied":5615,"Ġframework":5616,"Ġnames":5617,"Ġreleased":5618,"argets":5619,"ĠBAN":5620,"Ġattached":5621,"Ġunfavorable":5622,"ored":5623,"pay":5624,"ĠOPER":5625,"agreements":5626,"credit":5627,"illiam":5628,"ector":5629,"ĠDa":5630,"Ġprepaid":5631,"Ġcandidate":5632,"tise":5633,"Ġlaun":5634,"Ġdisease":5635,"Ġpromotion":5636,"ĠYears":5637,"ticable":5638,"ĠAuthority":5639,"Ġdism":5640,"ĠRelease":5641,"ĠGross":5642,"opp":5643,"Ġinflation":5644,"ĠSett":5645,"ĠLine":5646,"Ġdefense":5647,"Ġdoubtful":5648,"Ġreportable":5649,"Ġusers":5650,"Ġaccording":5651,"Ġinterru":5652,"Ġdeduc":5653,"itigation":5654,"Ġhalf":5655,"GY":5656,"Ġ($.":5657,"vey":5658,"free":5659,"Ġachievement":5660,"Ġknow":5661,"Ġbid":5662,"urer":5663,"Ġtravel":5664,"Ġrevers":5665,"Ġduration":5666,"PP":5667,"This":5668,"ĠUtility":5669,"rought":5670,"Ġconcentr":5671,"ael":5672,"ECUTIVE":5673,"ĠMany":5674,"empt":5675,"Ġapplies":5676,"Ġcommercially":5677,"ĠEXTENSION":5678,"ĠCause":5679,"Ġprevail":5680,"Ġhistory":5681,"estern":5682,"ercise":5683,"Ġcollectively":5684,"Ġfinan":5685,"Ġmedia":5686,"agnos":5687,"ask":5688,"unic":5689,"ĠDay":5690,"Ġunauthorized":5691,"ONOM":5692,"fill":5693,"expense":5694,"Ġrepresentatives":5695,"Scholes":5696,"determin":5697,"Ġfall":5698,"ĠAB":5699,"Ġpayroll":5700,"ĠWITH":5701,"ĠGR":5702,"Lo":5703,"ulties":5704,"ĠBi":5705,"ĠPage":5706,"ĠDodd":5707,"ONOMY":5708,"ISA":5709,"ĠTAXONOMY":5710,"Ġintern":5711,"duction":5712,"ersey":5713,"ford":5714,"Ġsummarize":5715,"Ġfif":5716,"Ġstill":5717,"Ġsatisfactory":5718,"true":5719,"ĠPlant":5720,"ĠThose":5721,"bear":5722,"ĠSchedules":5723,"otive":5724,"andling":5725,"Ġholds":5726,"Ġhyd":5727,"ĠNetwork":5728,"Ġthirty":5729,"ĠExpense":5730,"Ġsupporting":5731,"Ġflex":5732,"Ġaccrual":5733,"ĠGenerally":5734,"DR":5735,"ĠPe":5736,"Ġclasses":5737,"Ġlesser":5738,"EG":5739,"ĠEQUITY":5740,"Ġeduc":5741,"Ġactuarial":5742,"HOLD":5743,"SR":5744,"Ġcommenced":5745,"erials":5746,"itation":5747,"ĠIllinois":5748,"Ġattr":5749,"Ġelements":5750,"like":5751,"ĠPolicy":5752,"ĠProtection":5753,"valuation":5754,"operating":5755,"Ġefficiency":5756,"Ġreconciliation":5757,"do":5758,"management":5759,"entives":5760,"ĠInvent":5761,"Ġcorrect":5762,"assets":5763,"Ġinfringement":5764,"Ġlawsuits":5765,"Ġregulators":5766,"ĠOrganizations":5767,"Ġconclusions":5768,"Ġ(%)":5769,"Ġlabel":5770,"service":5771,"ĠProvid":5772,"AD":5773,"plus":5774,"Ġexecutives":5775,"ĠSponsoring":5776,"Ġthreshold":5777,"readway":5778,"Ġmanufacturer":5779,"ĠMaterial":5780,"Ġaccordingly":5781,"Report":5782,"Ġdraw":5783,"iting":5784,"unicip":5785,"custom":5786,"Ġbl":5787,"->":5788,"stanti":5789,"ama":5790,"Ġexpertise":5791,"ĠOp":5792,"Ġuntrue":5793,"ĠConting":5794,"ĠOil":5795,"Ġomitted":5796,"ĠUnion":5797,"Ġground":5798,"Ġbud":5799,"Ġfind":5800,"ĠPatent":5801,"Ġcancer":5802,"EPEND":5803,"Ġcharter":5804,"accrual":5805,"Ġquantities":5806,"ĠLIN":5807,"offs":5808,"ĠTe":5809,"issory":5810,"Ġauthorization":5811,"adequate":5812,"Ġdisability":5813,"Ġresponsibilities":5814,"fic":5815,"Ġet":5816,"Ġcollected":5817,"Ġsupplier":5818,"Ġinventories":5819,"Ġmining":5820,"ĠJohn":5821,"Ġcollaboration":5822,"BER":5823,"Ġcalled":5824,"Ġpurchasing":5825,"resentation":5826,"Ġcommitted":5827,"Ġfails":5828,"Ġpromul":5829,"position":5830,"ĠJersey":5831,"Ġabsence":5832,"Ġrecurring":5833,"ĠBuilding":5834,"Ġacquiring":5835,"Ġtelephone":5836,"RI":5837,"ĠSun":5838,"Ġaccurately":5839,"Ġlength":5840,"Ġmarketable":5841,"Interest":5842,"sequently":5843,"Ġfines":5844,"Ġcommencing":5845,"Ġwww":5846,"Ġchemical":5847,"Ġinterpretation":5848,"AG":5849,"met":5850,"ĠAgency":5851,"Ġnetworks":5852,"Ġinception":5853,"Ġeliminated":5854,"Ġschedules":5855,"ople":5856,"vada":5857,"thing":5858,"hest":5859,"ĠUSA":5860,"ĠRecogn":5861,"Ġrendered":5862,"Ġmilestone":5863,"All":5864,"rece":5865,"Ġthereon":5866,"Ġidentical":5867,"Ġfactor":5868,"ched":5869,"Ġtargets":5870,"ĠConsumer":5871,"ĠOFFIC":5872,"uty":5873,"ĠMedicaid":5874,"ctive":5875,"istor":5876,"Ġlargely":5877,"rection":5878,"MP":5879,"Ġrepurchased":5880,"Ġtechnological":5881,"Ġserves":5882,"eriz":5883,"Ġdiss":5884,"ĠTreadway":5885,"\").":5886,"itt":5887,"ental":5888,"Ġreti":5889,"Ġassumption":5890,"ĠBorrowers":5891,"audited":5892,"ĠJapan":5893,"Ġmitigate":5894,"face":5895,"iminal":5896,"Ġpracticable":5897,"Ġindemnify":5898,"temporary":5899,"Ġmineral":5900,"Ġpop":5901,"ĠCustomer":5902,"Ġcovenant":5903,"ĠOwners":5904,"ĠIT":5905,"accelerated":5906,"quency":5907,"Ġfiles":5908,"Ġrein":5909,"perty":5910,"Ġincremental":5911,"ĠPharmaceutical":5912,"Ġqualitative":5913,"iced":5914,"ĠIS":5915,"ĠSupply":5916,"echnology":5917,"asers":5918,"ĠFunding":5919,"LY":5920,"Ġbuy":5921,"let":5922,"Ġregardless":5923,"NERS":5924,"Ġautomatically":5925,"Ġbrought":5926,"reme":5927,"Ġaspects":5928,"Ġtransfers":5929,"hing":5930,"Ġlose":5931,"ideo":5932,"Ġprogress":5933,"Ġirre":5934,"icer":5935,"shore":5936,"Ġpublished":5937,"CHANGE":5938,"uci":5939,"ĠPrivate":5940,"ationships":5941,"Ġanalyz":5942,"location":5943,"ĠBraz":5944,"ĠContracts":5945,"ĠGerm":5946,"ARK":5947,"ĠCertification":5948,"ĠLien":5949,"employment":5950,"Ġestablishes":5951,"Ġnoncontrolling":5952,"ĠOTHER":5953,"ourse":5954,"Rec":5955,"Loss":5956,"Ġreorganization":5957,"apter":5958,"Ġheadqu":5959,"Ġgroups":5960,"ĠInterests":5961,"share":5962,"ĠINDEPEND":5963,"products":5964,"ĠParticipants":5965,"Ġnecessarily":5966,"ortgages":5967,"ĠCD":5968,"self":5969,"unior":5970,"Ġrecommend":5971,"Ġhedged":5972,"imilar":5973,"ĠIntangible":5974,"Ġtangible":5975,"Ġaffiliated":5976,"oma":5977,"ĠId":5978,"Ġclean":5979,"Ġseparation":5980,"turn":5981,"sec":5982,"quisite":5983,"Ġcommercialize":5984,"urity":5985,"ĠSur":5986,"Ġmotion":5987,"ĠSuper":5988,"conn":5989,"izon":5990,"Incorporated":5991,"Ġacknowledges":5992,"Ġsuffer":5993,"ĠIncludes":5994,"Ġintends":5995,"Ġunobservable":5996,"lihood":5997,"filed":5998,"ota":5999,"ĠRELATED":6000,"ĠWells":6001,"level":6002,"ĠJoint":6003,"Ġplacement":6004,"aces":6005,"ĠSettlement":6006,"Ġput":6007,"ĠConsult":6008,"uch":6009,"Ġmethodology":6010,"ĠMary":6011,"significant":6012,"Ġsci":6013,"rem":6014,"ĠHed":6015,"rove":6016,"ĠEd":6017,"ĠClaims":6018,"Ġattention":6019,"Ġdele":6020,"Ġexpanded":6021,"Ġstrength":6022,"unicipal":6023,"Ġdetailed":6024,"Ġspecialty":6025,"ĠAustralia":6026,"UAL":6027,"Ġ[***]":6028,"erce":6029,"Ġregularly":6030,"ĠDel":6031,"omic":6032,"control":6033,"ists":6034,"Ġomit":6035,"Ġbrok":6036,"OX":6037,"Ġlender":6038,"Non":6039,"ĠSup":6040,"Ġexpires":6041,"Ġemployer":6042,"ĠWater":6043,"Ġslow":6044,"ĠPN":6045,"enforce":6046,"ĠEstimates":6047,"Ġvessel":6048,"there":6049,"ĠMod":6050,"Ġexposures":6051,"develop":6052,"lif":6053,"February":6054,"wood":6055,"RES":6056,"obert":6057,"laws":6058,"ĠProceedings":6059,"Ġconflict":6060,"dis":6061,"Ġfin":6062,"Ġforeseeable":6063,"ĠExtension":6064,"Income":6065,"Ġspl":6066,"Ġproblems":6067,"ĠBonus":6068,"Ġ$,,.":6069,"Ġrestaurants":6070,"Ġapproximate":6071,"ades":6072,"Ġtop":6073,"URES":6074,"expected":6075,"cise":6076,"Ġmonetary":6077,"Ġemerging":6078,"ĠWarrants":6079,"Ġrelation":6080,"ĠBE":6081,"Ġcriminal":6082,"bu":6083,"Ġadvisory":6084,"onouncements":6085,"west":6086,"Ġutilization":6087,"Ġkeep":6088,"Ġretrosp":6089,"________________________________":6090,"Ġdescription":6091,"ĠCommitment":6092,"direct":6093,"ead":6094,"ĠEXECUTIVE":6095,"ĠCounsel":6096,"olog":6097,"AND":6098,"Ġmanagers":6099,"conduct":6100,"Ġlien":6101,"Ġcompound":6102,"ĠAtt":6103,"CS":6104,"Ġadequacy":6105,"Ġpowers":6106,"olute":6107,"Oper":6108,"iduci":6109,"ĠDOCUMENT":6110,"ĠCarolina":6111,"ĠLiability":6112,"yalty":6113,"Ġremoval":6114,"Ġsuit":6115,"WS":6116,"Ġreceipts":6117,"atural":6118,"KB":6119,"ĠCF":6120,"Ġlikelihood":6121,"Ġrepaid":6122,"ĠPRC":6123,"ĠSafety":6124,"valuated":6125,"Ġcertification":6126,"====":6127,"ORP":6128,"Ġtreasury":6129,"Ġdelayed":6130,"top":6131,"Ġcontribute":6132,"ĠDepreciation":6133,"Ġver":6134,"tra":6135,"Ġmodify":6136,"ĠInstit":6137,"enty":6138,"ĠSci":6139,"ĠBeneficiary":6140,"Ġprohibited":6141,"Ġproducing":6142,"Ġowed":6143,"Ġappreciation":6144,"pec":6145,"Ġpromulgated":6146,"ĠTreas":6147,"TO":6148,"ĠEXCHANGE":6149,"Ġpriority":6150,"ader":6151,"Ġrepresentative":6152,"Ġdifficulties":6153,"Ġactually":6154,"Ġmerchandise":6155,"losses":6156,"ĠSP":6157,"Ġincentives":6158,"Ġacting":6159,"Ġconven":6160,"iscounted":6161,"VIC":6162,"Ġpartnerships":6163,"Ġsuccessors":6164,"ready":6165,"anticip":6166,"ĠCap":6167,"restric":6168,"aded":6169,"Ġcontractors":6170,"dle":6171,"CAL":6172,"Ġwhereby":6173,"Ġretention":6174,"ualty":6175,"asted":6176,"Ġformed":6177,"ĠĠĠĠĠĠĠĠĠĠĠĠĠĠĠĠĠĠĠĠĠĠĠĠĠĠĠĠĠĠĠĠĠĠĠĠĠĠĠĠĠĠĠĠĠĠĠĠ":6178,"Ġviolations":6179,"lim":6180,"................................":6181,"Ġserving":6182,"ĠInitial":6183,"amortiz":6184,"Ġapprais":6185,"IF":6186,"BAN":6187,"ĠThrough":6188,"Bank":6189,"ĠPost":6190,"ĠInvestor":6191,"Ġtranslation":6192,"TY":6193,"ĠFailure":6194,"Ġimpairments":6195,"Ġprohibit":6196,"Ġdetails":6197,"Ġfacilit":6198,"ĠOrder":6199,"Ġhandling":6200,"ARD":6201,"Ġrise":6202,"ĠMain":6203,"ĠERISA":6204,"Ġinjury":6205,"Ġcomplies":6206,"Ġredeemed":6207,"reporting":6208,"ique":6209,"ĠKey":6210,"ĠNOTE":6211,"ĠDo":6212,"ĠCor":6213,"Ġchallenges":6214,"Ġcol":6215,"ĠRegulations":6216,"Ġunitholders":6217,"ĠMoreover":6218,"centage":6219,"lete":6220,"ĠConstruction":6221,"Ġcertified":6222,"Ġsustained":6223,"Ġleasing":6224,"Ġmanufactured":6225,"ĠMer":6226,"ĠEm":6227,"ming":6228,"ĠDisability":6229,"Ġgoing":6230,"BLIC":6231,"Ġdeductions":6232,"Ġassume":6233,"Ġstage":6234,"rew":6235,"lication":6236,"Ġselect":6237,"Ġmature":6238,"ĠLitigation":6239,"oice":6240,"Ġdivision":6241,"Ġutilizing":6242,"but":6243,"Ġdispositions":6244,"ĠOptionee":6245,"ience":6246,"Ġidentifiable":6247,"Ġimpacts":6248,"ĠRiver":6249,"ĠMANAGEMENT":6250,"KBASE":6251,"ĠLINKBASE":6252,"TENTS":6253,"AF":6254,"ĠHOLD":6255,"ĠEthics":6256,"ĠNevada":6257,"Ġ***":6258,"ĠFood":6259,"ĠEquival":6260,"Ġelectronically":6261,"AY":6262,"specific":6263,"acities":6264,"Ġcaption":6265,"olven":6266,"Ġcontrolling":6267,"Ġinadequate":6268,"ĠUnless":6269,"ĠOPERATIONS":6270,"Ġmerg":6271,"Ġinfluence":6272,"Ġexception":6273,"field":6274,"Ġware":6275,"ref":6276,"Ġstatute":6277,"Ġoptim":6278,"Total":6279,"Ġreverse":6280,"Ġexceeded":6281,"Ġdeterior":6282,"Ġregions":6283,"Ġexclus":6284,"ĠANY":6285,"ĠLiquidity":6286,"Ġfluctuate":6287,"ĠES":6288,"long":6289,"Ġexpired":6290,"cation":6291,"prim":6292,"Ġarbitration":6293,"Ġreflecting":6294,"BC":6295,"Ġzero":6296,"Ġvoluntary":6297,"Ġclar":6298,"idence":6299,"Ġterror":6300,"Ġwireless":6301,"Ġresign":6302,"unications":6303,"Ġmodifications":6304,"Ġpressure":6305,"ana":6306,"ĠAnd":6307,"ĠNE":6308,"cure":6309,"ĠIPO":6310,"ounter":6311,"ĠSeverance":6312,"Ġpartial":6313,"Ġhim":6314,"Ġthus":6315,"ĠContributions":6316,"Ġhighest":6317,"Ġentirety":6318,"Ġcopies":6319,"vere":6320,"onso":6321,"Ġconstitutes":6322,"ested":6323,"ĠMis":6324,"ĠLaws":6325,"ĠCONTENTS":6326,"LEY":6327,"iduciary":6328,"Ġrepurchases":6329,"ony":6330,"Ġinstallments":6331,"amination":6332,"ĠLessor":6333,"Ġlump":6334,"olvency":6335,"onsored":6336,"airs":6337,"Ġestimating":6338,"Ġapprove":6339,"ĠJr":6340,"urb":6341,"Ġmortgages":6342,"gas":6343,"Ġqualifying":6344,"Ġapplying":6345,"Ġhousing":6346,"Ġtrue":6347,"ĠFacilities":6348,"wards":6349,"Ġemb":6350,"Ġlimiting":6351,"except":6352,"Ġadj":6353,"Ġirrevoc":6354,"Ġshows":6355,"Ġreach":6356,"Ġbar":6357,"Ġreimbur":6358,"ĠOrig":6359,"CR":6360,"Ġexceptions":6361,"oly":6362,"Def":6363,"Ġupgr":6364,"Ġnotify":6365,"Ġattorney":6366,"ĠSm":6367,"bearing":6368,"TAIN":6369,"Ġhours":6370,"TERED":6371,"ĠReason":6372,"Ġconcern":6373,"rets":6374,"Ġintercompany":6375,"ĠAssoci":6376,"Ġmach":6377,"atell":6378,"Ġlawsuit":6379,"dil":6380,"entific":6381,"Ġalready":6382,"athering":6383,"ĠWilliam":6384,"result":6385,"inter":6386,"OE":6387,"Ġutilities":6388,"Cash":6389,"Ġtrig":6390,"FORMATION":6391,"cuit":6392,"ĠDerivative":6393,"ignature":6394,"ĠTHIS":6395,"aler":6396,"Ġtargeted":6397,"Plan":6398,"Ġrequisite":6399,"ĠLosses":6400,"ĠCir":6401,"was":6402,"cell":6403,"Ġassigns":6404,"ĠMaryland":6405,"ĠRepresent":6406,"ĠIm":6407,"UM":6408,"inery":6409,"Ġcapitalization":6410,"etts":6411,"ĠArrange":6412,"PRE":6413,"Ġmanager":6414,"right":6415,"ĠCommunications":6416,"Ġrat":6417,"Ġrail":6418,"Ġcapacities":6419,"Ġintention":6420,"Ġsupplemental":6421,"Ġconsecutive":6422,"Ġpattern":6423,"$,,":6424,"ux":6425,"Ġchannels":6426,"excluding":6427,"Ġdocumentation":6428,"Ġtelec":6429,"tional":6430,"Ġentering":6431,"Ġvirt":6432,"AA":6433,"Ġbuildings":6434,"ĠImpairment":6435,"Ġoperators":6436,"New":6437,"There":6438,"Ġimplementing":6439,"ĠNGL":6440,"achus":6441,"Ġwind":6442,"ole":6443,"Ġgoverned":6444,"Ġlate":6445,"ĠMass":6446,"erves":6447,"Ġdelinquent":6448,"nes":6449,"oses":6450,"Ac":6451,"Ġundiscounted":6452,"achusetts":6453,"Ġpresence":6454,"Ġwithheld":6455,"putes":6456,"ological":6457,"acks":6458,"Ġyields":6459,"Ġdilutive":6460,"iconduct":6461,"Ġdischarge":6462,"ĠRecognition":6463,"ationally":6464,"Ġbranch":6465,"ĠSavings":6466,"Ġsyn":6467,"Ġrestaurant":6468,"ta":6469,"changed":6470,"INS":6471,"ĠAF":6472,"TORS":6473,"amortized":6474,"HIP":6475,"Ġvideo":6476,"ĠTarget":6477,"Ġreserved":6478,"Ġbring":6479,"ĠMemb":6480,"ĠSubsequent":6481,"Ġlieu":6482,"Ġforeclosure":6483,"Ġrequests":6484,"Ġevaluates":6485,"Ġpermanent":6486,"ĠMs":6487,"Ġdispute":6488,"Ġarr":6489,"Ġdeclined":6490,"ĠRati":6491,"Ġvis":6492,"Ġques":6493,"Topic":6494,"Ġgrade":6495,"Ġcostly":6496,"Ġsurren":6497,"Ġprevailing":6498,"ĠDivision":6499,"ern":6500,"Ġexistence":6501,"Ġenhanced":6502,"Ġlegisl":6503,"ĠBorrowing":6504,"available":6505,"ĠDrug":6506,"utures":6507,"securities":6508,"Ġstatutes":6509,"Ġoccupancy":6510,"Employee":6511,"Ġhardware":6512,"Ġcross":6513,"ĠAEP":6514,"DE":6515,"Ġnewly":6516,"Ġsharing":6517,"Ġinstances":6518,"viously":6519,"enn":6520,"OPER":6521,"Ġnom":6522,"Ġrun":6523,"ĠEngine":6524,"price":6525,"Ġwords":6526,"Ġdesignation":6527,"Ġfurnish":6528,"Ġforecasted":6529,"Pursuant":6530,"Ġproperly":6531,"ĠArk":6532,"Ġeffic":6533,"ĠĠĠĠĠĠĠĠĠĠĠĠĠĠĠĠĠĠ":6534,"ĠPUBLIC":6535,"Ġsalaries":6536,"ĠFR":6537,"lf":6538,"Ġexport":6539,"Ġinstallation":6540,"solidation":6541,"Ġorganized":6542,"ĠPled":6543,"risk":6544,"ĠPurchases":6545,"claim":6546,"Ġdeduction":6547,"Ġdeplo":6548,"class":6549,"ĠGuaranty":6550,"ĠFee":6551,"Ġsettlements":6552,"Ġtelevision":6553,"ENCE":6554,"Ġactively":6555,"Ġfrequently":6556,"Ġdownturn":6557,"IREC":6558,"Ġmunicipal":6559,".;":6560,"Ġattractive":6561,"Ġfunctional":6562,"ecessor":6563,"ĠDeb":6564,"Invest":6565,"ĠREGISTERED":6566,"acquisition":6567,"Ġ($":6568,"ards":6569,"Ġorigination":6570,"Ġmainly":6571,"Ġissuances":6572,"Ġaround":6573,"Ġdeferral":6574,"HED":6575,"Ġcontingencies":6576,"ĠRelationships":6577,"Ġrealiz":6578,"KE":6579,"Ġkind":6580,"uish":6581,"otential":6582,"Ġfirms":6583,"wo":6584,"Ġvendor":6585,"no":6586,"ĠLand":6587,"ĠINFORMATION":6588,"orado":6589,"common":6590,"compliance":6591,"Ġherewith":6592,"ĠFI":6593,"ĠDefin":6594,"tainment":6595,"Ġadequately":6596,"ĠAL":6597,"GN":6598,"ĠBonds":6599,"well":6600,"ung":6601,"ĠPaci":6602,"Ġsan":6603,"erral":6604,"Ġforfeiture":6605,"reason":6606,"Ġvaluations":6607,"Ġworkers":6608,"ĠAdverse":6609,"da":6610,"Ġdefendants":6611,"Ġmembership":6612,"Ġremainder":6613,"ĠIndustries":6614,"lines":6615,"Ġefficacy":6616,"Ġconvert":6617,"Ġdiagnos":6618,"Ġunique":6619,"urg":6620,"leet":6621,"Ġnotices":6622,"Ġintangibles":6623,"ĠConn":6624,"Ġremained":6625,"Ġgrowing":6626,"Ġimmediate":6627,"road":6628,"Ġsplit":6629,"Ġonce":6630,"nergy":6631,"ĠMichael":6632,"ISK":6633,"point":6634,"Ġassuming":6635,"ĠSERVIC":6636,"Ġabsolute":6637,"Ġliens":6638,"othe":6639,"Ġconsidering":6640,"Ġusage":6641,"ligibility":6642,"DEF":6643,"ĠCustomers":6644,"Ġprescribed":6645,"ĠMaterials":6646,"sumption":6647,"Ġdist":6648,"Ġoriginally":6649,"ĠFORM":6650,"Ġnone":6651,"Ġanything":6652,"ĠFCC":6653,"Ġcommencement":6654,"ĠAnn":6655,"Ġtrusts":6656,"ĠOffering":6657,"Ġupdated":6658,"IRM":6659,"outh":6660,"Ġpledged":6661,"sufficient":6662,"Ġmeetings":6663,"Ġsells":6664,"Ġforma":6665,"losed":6666,"Ġplaintiffs":6667,"Ġissuable":6668,"Ġdepre":6669,"ISSION":6670,"Ġunconsolidated":6671,"OME":6672,"amount":6673,"Ġbill":6674,"Ġexpensive":6675,"Ġconstruct":6676,"Ġdebentures":6677,"Ġborrowed":6678,"Gener":6679,"Ġdiscretionary":6680,"Ġtherapeu":6681,"Ġsubstances":6682,"ĠBo":6683,"ĠDavid":6684,"Ġdisruption":6685,"prises":6686,"President":6687,"Ġcommunities":6688,"Ġsolic":6689,"rue":6690,"Ġconcerns":6691,"ris":6692,"Ġdetect":6693,"Ġaware":6694,"ĠReform":6695,"ground":6696,"Ġremedy":6697,"Ġeight":6698,"parts":6699,"oblig":6700,"Ġincl":6701,"Ġdeduct":6702,"ĠElection":6703,"Ġscale":6704,"ittees":6705,"Ġsecuring":6706,"ses":6707,"ĠValuation":6708,"ĠAccru":6709,"Ġcooper":6710,"Ġtherapy":6711,"orts":6712,"Ġgaming":6713,"Ġtaxing":6714,"ĠEffect":6715,"ĠHigh":6716,"Ġneither":6717,"Ġvery":6718,"TERS":6719,"issued":6720,"Ġunenforce":6721,"ĠArkansas":6722,"NE":6723,"dollars":6724,"ĠGold":6725,"fac":6726,"Ġsevere":6727,"Ġminor":6728,"ĠFargo":6729,"Ġaccrue":6730,"gregate":6731,"ĠMassachusetts":6732,"ĠPacific":6733,"ERGY":6734,"erritory":6735,"Ġfloating":6736,"ĠINTER":6737,"Ass":6738,"ĠSalary":6739,"distrib":6740,"Ġfulfill":6741,"benefit":6742,"ĠConversion":6743,"Ġreplaced":6744,"ĠAdjust":6745,"Ġvia":6746,"Ġversus":6747,"Ġsecondary":6748,"Ġbilled":6749,"eals":6750,"Ġvalidity":6751,"ĠRen":6752,"Ġtwenty":6753,"ĠCR":6754,"Ġcarriers":6755,"ommission":6756,"omas":6757,"istent":6758,"Ph":6759,"Ġcontact":6760,"Ġwhenever":6761,"Ġnotional":6762,"ĠRealty":6763,"Ġsecrets":6764,"Ġmechanism":6765,"MC":6766,"ĠColumb":6767,"ĠIndependence":6768,"deli":6769,"Ġtrack":6770,"located":6771,"Ġforfeitures":6772,"Ġcentral":6773,"Certif":6774,"appropri":6775,"Ġgovernance":6776,"ĠGen":6777,"Ġcreditors":6778,"ĠLA":6779,"Ar":6780,"Ġphysicians":6781,"Ġthough":6782,"liminary":6783,"odies":6784,"ĠSwing":6785,"ĠMedia":6786,"Act":6787,"Ġsensitive":6788,"ATA":6789,"Ġreb":6790,"ĠNDA":6791,"Ġbound":6792,"Ġprofessionals":6793,"orded":6794,"Ġcommunication":6795,"making":6796,"ĠINDEPENDENT":6797,"Ġtruck":6798,"ĠRisks":6799,"gthe":6800,"Ġforfeited":6801,"Ġfix":6802,"Ġcombinations":6803,"cap":6804,"ĠNYSE":6805,"Le":6806,"Ġtools":6807,"ĠTreasurer":6808,"Ġnever":6809,"iconductor":6810,"Ġpursu":6811,"istic":6812,"Ġportfolios":6813,"cel":6814,"Ġcomposition":6815,"liability":6816,"respectively":6817,"Ġprocure":6818,"Ġhomes":6819,"amed":6820,"ĠAccountants":6821,"success":6822,"Ġ$.,":6823,"unded":6824,"Ġflexibility":6825,"Ġconsummation":6826,"astern":6827,"oney":6828,"provided":6829,"bor":6830,"AV":6831,"auses":6832,"Ġdep":6833,"teen":6834,"Ġmedi":6835,"ĠBio":6836,"Ġcontaining":6837,"Ġfiduciary":6838,"Ġidentification":6839,"equi":6840,"Ġsettle":6841,"Ġexhibits":6842,"Ġdemands":6843,"mn":6844,"roller":6845,"ĠConduct":6846,"thern":6847,"Ġterminates":6848,"Ġdeductible":6849,"Ġindicative":6850,"Ġweb":6851,"alls":6852,"termedi":6853,"contin":6854,"Ġsignature":6855,"anticipated":6856,"recurring":6857,"Ġeliminate":6858,"LAB":6859,"ĠGermany":6860,"Ġdisruptions":6861,"Ġpertaining":6862,"Ġlog":6863,"ĠCP":6864,"Ġaccruals":6865,"Ġcells":6866,"ginning":6867,"Qu":6868,"Ġalter":6869,"ĠCurrency":6870,"Ġoverhead":6871,"ĠImprove":6872,"Ġamounted":6873,"LOSU":6874,"Energy":6875,"ĠForward":6876,"third":6877,"Ġcollateralized":6878,"costs":6879,"SCH":6880,"ways":6881,"ĠAmortization":6882,"icit":6883,"igan":6884,"Ġformula":6885,"Ġerror":6886,"tes":6887,"Ġadministered":6888,"Page":6889,"ĠFixed":6890,"ULE":6891,"Ġacres":6892,"ĠWeb":6893,"ĠInvestors":6894,"CER":6895,"primarily":6896,"imin":6897,"applicable":6898,"ourage":6899,"Ġdivided":6900,"Ġstream":6901,"ĠLeases":6902,"ĠVesting":6903,"ĠFollowing":6904,"Ġbeneficially":6905,"ially":6906,"Ġsteel":6907,"Ġcalculate":6908,"sidiaries":6909,"ortfolio":6910,"BANES":6911,"ĠAcquisitions":6912,"required":6913,"ĠPharmaceuticals":6914,"ĠĠĠĠĠĠĠĠĠĠĠĠĠĠĠĠĠĠĠĠĠĠĠĠ":6915,"downs":6916,"undred":6917,"Ġdone":6918,"ĠLabor":6919,"ronic":6920,"Risk":6921,"Ġpremises":6922,"cedure":6923,"lood":6924,"ĠReceivables":6925,"TABLE":6926,"TIP":6927,"asis":6928,"Ġoral":6929,"abama":6930,"Ġbacklog":6931,"Ġpetroleum":6932,"Under":6933,"ĠRight":6934,"Ġsecuritization":6935,"EOF":6936,"capitalized":6937,"ĠSTOCKHOLD":6938,"Ġsurplus":6939,"Ġretailers":6940,"Ġtransl":6941,"Ġinterpretations":6942,"these":6943,"ĠAssignment":6944,"Ġreliance":6945,"process":6946,"OY":6947,"entioned":6948,"jective":6949,"Ġprivacy":6950,"Ġincident":6951,"Ġbooks":6952,"ĠFIRM":6953,"ĠMeasurements":6954,"Ġcontinuous":6955,"Ġheadquarters":6956,"future":6957,"Ġmetric":6958,"Ġcond":6959,"stone":6960,"ĠGovernmental":6961,"Ġsolution":6962,"ĠDet":6963,"Ġrapidly":6964,"worth":6965,"emand":6966,"Ġdisputes":6967,"Ġbearing":6968,"ĠRich":6969,"ĠTime":6970,"Ġdeterminable":6971,"itivity":6972,"Ġduty":6973,"Ġauthorizations":6974,"ĠJames":6975,"outstanding":6976,"ĠENERGY":6977,"rical":6978,"ligence":6979,"insured":6980,"inciples":6981,"Ġhospitals":6982,"Ġbreaches":6983,"Ġinitiated":6984,"Ġcomparison":6985,"ĠCas":6986,"Ġvolatile":6987,"Ġdirection":6988,"itz":6989,"best":6990,"Ġpreclinical":6991,"liabilities":6992,"ASH":6993,"Ġentry":6994,"Ġitself":6995,"ĠExercise":6996,"ĉĉĉĉ":6997,"Ġprocessed":6998,"Os":6999,"cceed":7000,"ĠRobert":7001,"ĠReference":7002,"Ġnegotiated":7003,"Li":7004,"Ġmarketed":7005,"Ġsubscription":7006,"App":7007,"EAR":7008,"Ġbrokerage":7009,"arding":7010,"ĠConsent":7011,"ĠContingencies":7012,"aterial":7013,"OXLEY":7014,"Ġpreferences":7015,"To":7016,"edded":7017,"ĠMAT":7018,"OF":7019,"gric":7020,"ĠBanking":7021,"ĠDATA":7022,"Rel":7023,"Corporation":7024,"Ġcalculating":7025,"Ġpenalty":7026,"unt":7027,"ĠDollars":7028,"ĠUse":7029,"Ġpossession":7030,"Ġmandatory":7031,"LP":7032,"ĠIncluded":7033,"ĠSelected":7034,"Ġsocial":7035,"Ġgraph":7036,"ĠVe":7037,"Ġrig":7038,"ĠBrazil":7039,"services":7040,".\"":7041,"Ġphase":7042,"family":7043,"Ġconflicts":7044,"itors":7045,"ommunications":7046,"ĠIssuing":7047,"Ġrecru":7048,"ĠManufacturing":7049,"Ġreadily":7050,"FER":7051,"HI":7052,"ĠDeferral":7053,"gricult":7054,"Ġmilestones":7055,"Ġlisting":7056,"ening":7057,"Ġbudget":7058,"Ġcycle":7059,"January":7060,"ommissioning":7061,"arbon":7062,"ĠGreen":7063,"aneous":7064,"Ġconcentration":7065,"None":7066,"ĠSARBANES":7067,"Ġenforceable":7068,"ĠPipel":7069,"Ġprint":7070,"acing":7071,"Ġfraction":7072,"Ġplatforms":7073,"Ġrecip":7074,"andon":7075,"Ġinstitutional":7076,"Ġchoose":7077,"ectible":7078,"OUP":7079,"ĠMARK":7080,"ĠContractor":7081,"ĠIndia":7082,"additional":7083,"Ġshipping":7084,"ĠLiens":7085,"oor":7086,"ĠWorld":7087,"Ġconfidentiality":7088,"ma":7089,"Ġsteps":7090,"ĠTrading":7091,"Ġstations":7092,"Ġquantitative":7093,"Ġinform":7094,"material":7095,"Trust":7096,"ĠDISCLOSU":7097,"ĠResp":7098,"Ġchain":7099,"Ġvalu":7100,"Ġfeature":7101,"ull":7102,"ports":7103,"agreement":7104,"Ġcancellation":7105,"insic":7106,"Ġprevention":7107,"ĠCompetition":7108,"Ġaccident":7109,"ĠLeg":7110,"Ġwithdrawal":7111,"ĠOW":7112,"ĠArrangements":7113,"Ġpossibility":7114,"anches":7115,"Ġdilig":7116,"ĠEntity":7117,"Ġprime":7118,"Ġpipelines":7119,"ĠGo":7120,"Ġmarketplace":7121,"ĠMa":7122,"NESS":7123,"were":7124,"ĠDIREC":7125,"Ġdiscovery":7126,"Ġsatell":7127,"ĠStat":7128,"Ġoccurring":7129,"EMBER":7130,"ĠUti":7131,"amounts":7132,"ĠAMEND":7133,"MM":7134,"Ġassistance":7135,"ĠSoftware":7136,"Ġsector":7137,"Ġsucceed":7138,"Ġrelations":7139,"Ġdeteriorate":7140,"Ġgoal":7141,"ĠIndiana":7142,"ĠMost":7143,"Ġratably":7144,"uling":7145,"Ġanalyst":7146,"ividual":7147,"ĠTRANS":7148,"Ġmisstatement":7149,"Ġmaxim":7150,"cance":7151,",,":7152,"plan":7153,"Ġdispose":7154,"ĠPresentation":7155,"establis":7156,"Cont":7157,"Ġannuity":7158,"Ġhyp":7159,"ĠPROCE":7160,"ĠRetail":7161,"Ġescrow":7162,"ĠSIG":7163,"Ġauction":7164,"Ġdispl":7165,"ĠBar":7166,"Ġsolar":7167,"ĠSubs":7168,"ĠDEC":7169,"Ġdividing":7170,"iling":7171,"alse":7172,"could":7173,"ĠPortfolio":7174,"Ġlegally":7175,"comes":7176,"Ġpromissory":7177,"FI":7178,"Market":7179,"Ġradio":7180,"Ġlap":7181,"Ġexting":7182,"oy":7183,"Ġreform":7184,"ĠEr":7185,"likely":7186,"compensation":7187,"ITAL":7188,"Ġbarg":7189,"Ġthreatened":7190,"Ġachieving":7191,"ĠAverage":7192,"ĠTerms":7193,"Ġinsurers":7194,"Ġcalculations":7195,"Ġlegislative":7196,"ĠNOL":7197,"Ġindenture":7198,"Ġoversight":7199,"EA":7200,"ĠPermitted":7201,"ench":7202,"Ġreached":7203,"can":7204,"Ġbad":7205,"OG":7206,"OD":7207,"stant":7208,"main":7209,"ients":7210,"vin":7211,"Ġdepository":7212,"ĠContribution":7213,"HN":7214,"ĠSG":7215,"person":7216,"ĠUK":7217,"ĠCONTR":7218,"ĠUN":7219,"___":7220,"ĠCentral":7221,"front":7222,"ĠGuarantee":7223,"Ġbody":7224,"Ġsentence":7225,"Ġresol":7226,"Ġmeasuring":7227,"Ġemp":7228,"within":7229,"ĠRISK":7230,"Ġaffirm":7231,"ĠRem":7232,"Ġminimize":7233,"orb":7234,"termin":7235,"Ġconstr":7236,"inn":7237,"otor":7238,"increase":7239,"Ġgranting":7240,"ĠCommunity":7241,"HC":7242,"ĠEven":7243,"ĠDeli":7244,"anta":7245,"ĠOutstanding":7246,"ĠNatural":7247,"ĠValley":7248,"Ġresidual":7249,"Ġremoved":7250,"results":7251,"ersed":7252,"tained":7253,"Ġdirected":7254,"Ġess":7255,"Ġfailures":7256,"Ġreinvest":7257,"Ġjointly":7258,"ĠMW":7259,"uts":7260,"ĠQualitative":7261,"orporations":7262,"stantially":7263,"ĠParagraph":7264,"Ġexit":7265,"Ġuser":7266,"Ġobserv":7267,"herlands":7268,"Ġadvisors":7269,"Ġsupervis":7270,"ĠVari":7271,"Ġrealization":7272,"iles":7273,"ĠSubordinated":7274,"Ġhereafter":7275,"mbol":7276,"Ġsections":7277,"Ġhydro":7278,"Ġreferences":7279,"rowth":7280,"aren":7281,"Ġtra":7282,"ps":7283,"ĠPROPER":7284,"weighted":7285,"development":7286,"jud":7287,"Ġfloor":7288,"Ġgathering":7289,"Ġcollective":7290,"Ġpackaging":7291,"Ġtherewith":7292,"Ġsubcontract":7293,"ENSATION":7294,"Ġrepresentation":7295,"Ġindicators":7296,"eter":7297,"fair":7298,"ĠCM":7299,"Ġerr":7300,"ĠAlabama":7301,"Ġconfidence":7302,"OT":7303,"Changes":7304,"arma":7305,"vert":7306,"quarter":7307,"ert":7308,"sell":7309,"ĠARTICLE":7310,"Ġacceleration":7311,"ĠAf":7312,"Ġdifferenti":7313,"ĠLT":7314,"Ġinvestigations":7315,"ĠBANK":7316,"ĠCA":7317,"Ġenroll":7318,"resolved":7319,"Ġ):":7320,"Ġpers":7321,"atin":7322,"adjusted":7323,"Ġdetection":7324,"during":7325,"Ġpoll":7326,"Equity":7327,"currently":7328,"Ġconsultant":7329,"Ġdefaults":7330,"ĠREPORT":7331,"Ġindications":7332,"SIGN":7333,"ĠMicro":7334,"Ġuncoll":7335,"ĠReports":7336,"daq":7337,"UST":7338,"Ġlaboratory":7339,"zz":7340,"Ġconducting":7341,"File":7342,"Ġappears":7343,"ĠTen":7344,"ĠEntities":7345,"Ġclauses":7346,"bestos":7347,"itions":7348,"ĠHuman":7349,"Ġsuitable":7350,"determined":7351,"ĠINCOME":7352,"atch":7353,"ĠLicensed":7354,"Ġnine":7355,"Ġseasonal":7356,"ĠRus":7357,"ĠLI":7358,"ald":7359,"ĠEarly":7360,"asdaq":7361,"Serv":7362,"rights":7363,"assess":7364,"Ġreturned":7365,"Ġenfor":7366,"Ġrecoveries":7367,"Ġcomputation":7368,"Ġasserted":7369,"efore":7370,"Ġbases":7371,"pite":7372,"ĠUpdate":7373,"ĠWHEREAS":7374,"public":7375,"ĠHistor":7376,"former":7377,"ĠVol":7378,"Ġpledge":7379,"tail":7380,"Ġreliable":7381,"Ġfacilitate":7382,"Ġwaived":7383,"Ġrealizable":7384,"Ġdoing":7385,"ĠDisclosed":7386,"ĠRestric":7387,"ĠHaw":7388,"Ġrepairs":7389,"cle":7390,"ĠCli":7391,"ĠDividends":7392,"Ġissuing":7393,"Ġallocations":7394,"connection":7395,"Ġdesignate":7396,"text":7397,"Exp":7398,"Ġrenewable":7399,"Ġfleet":7400,"Ġautomotive":7401,"Ġ-.":7402,"Ġnotwithstanding":7403,"TIN":7404,"decre":7405,"Ġseri":7406,"Ġrata":7407,"ĠHo":7408,"Ġvarying":7409,"Ġexpose":7410,"ĠRestruct":7411,"Business":7412,"oir":7413,"Ġoffsetting":7414,"Or":7415,"ATIONAL":7416,"Ġmisstatements":7417,"Ġresolved":7418,"Off":7419,"Ġintrinsic":7420,"ĠBankruptcy":7421,"approval":7422,"ĠColorado":7423,"dress":7424,"registrant":7425,"Ġincreasingly":7426,"ĠRatio":7427,"Ġheav":7428,"Ġunamortized":7429,"Ġadditions":7430,"Ġoutcomes":7431,"Med":7432,"ĠGROUP":7433,"TIAL":7434,"Ġdistributor":7435,"Ġfailed":7436,"option":7437,"Ġcatast":7438,"Ġdisposed":7439,"URE":7440,"Ġcom":7441,"ARTICLE":7442,"ĠMATTERS":7443,"ĠCodification":7444,"ĠColumbia":7445,"Ġled":7446,"Ġmaster":7447,"ĠEvaluated":7448,"ĠHotel":7449,"ĠOEM":7450,"ĠMichigan":7451,"ĠAllowance":7452,"Ġworth":7453,"ĠApproximately":7454,"Ġbecoming":7455,"rective":7456,"ĠLTIP":7457,"ĠGrantor":7458,"included":7459,"Ġpreliminary":7460,"urric":7461,"ĠRequired":7462,"Ġmatching":7463,"ĠAssociates":7464,"affiliated":7465,"ursement":7466,"cings":7467,"ĠFuel":7468,"Ġquick":7469,"Ġexplo":7470,"ĠAccrued":7471,"Ġadverti":7472,"Ġoutsour":7473,"pur":7474,"Ġconserv":7475,"Ġefficient":7476,"Ġunused":7477,"Ġweight":7478,"ULTS":7479,"ĠCL":7480,"ĠCongress":7481,"sales":7482,"Ġtested":7483,"ĠHy":7484,"Ġlat":7485,"ariff":7486,"Ġassured":7487,"souri":7488,"Ġresource":7489,"Ġsymbol":7490,"requirements":7491,"Des":7492,"Trans":7493,"ĠDays":7494,"generally":7495,"ĠDEF":7496,"bers":7497,"Ġmine":7498,"Ġalig":7499,"Ġprogramming":7500,"ĠIndustrial":7501,"ĠMembers":7502,"Ġstrengthe":7503,"ĠReceivable":7504,"kl":7505,"Ġpeople":7506,"Ġrecording":7507,"Tax":7508,"affiliates":7509,"Ġsm":7510,"Ġprofitable":7511,"ode":7512,"INESS":7513,"ĠArticles":7514,"Ġclim":7515,"Ġinternet":7516,"Ġsup":7517,"ANG":7518,"Ġseeks":7519,"Ġdeterioration":7520,"ilt":7521,"Year":7522,"ĠAutom":7523,"ĠSelling":7524,"Ġoriginated":7525,"Ġelement":7526,"ĠServicing":7527,"ĠVi":7528,"Ġabandon":7529,"Ġarbitr":7530,"HG":7531,"Ġrestrictive":7532,"Ġsetting":7533,"ĠRequirements":7534,"Ġselection":7535,"Ġintegrate":7536,"Ġunenforceable":7537,"Ġexemption":7538,"ologies":7539,"oted":7540,"Ġsanctions":7541,"Ġexpanding":7542,"Ġconvenience":7543,"ESENT":7544,"ĠEquivalents":7545,"Ġbonuses":7546,"Ġassemb":7547,"Ġdefinitions":7548,"approved":7549,"Ġshipment":7550,"also":7551,"ĠManaging":7552,"Ġsubjective":7553,"ALYS":7554,"mer":7555,"USINESS":7556,"Ġinspection":7557,"ago":7558,"ĠProf":7559,"ALYSIS":7560,"MD":7561,"ĠTherap":7562,"Ġcharacteriz":7563,"Ġerrors":7564,"aker":7565,"ĠRock":7566,"Ġimmaterial":7567,"ĠĠĠĠĠĠĠĠĠĠĠĠĠĠĠĠĠĠĠ":7568,"ĠGO":7569,"Ġopp":7570,"Ġpresently":7571,"limit":7572,"restricted":7573,"GC":7574,"Ġleasehold":7575,"Ġexempt":7576,"Related":7577,"ĠCOMMISSION":7578,"ĠProcess":7579,"Ġcompeting":7580,"ĠRestructuring":7581,"ĠOmn":7582,"ĠMarkets":7583,"Ġbrokers":7584,"utine":7585,"yers":7586,"ĠCOMPENSATION":7587,"SECTION":7588,"onsors":7589,"ĠPSC":7590,"ĠClean":7591,"Ġbroadcast":7592,"Ġprobability":7593,"developed":7594,"OWER":7595,"payments":7596,"____________":7597,"enchmark":7598,"Ġembedded":7599,"Ġcasualty":7600,"ype":7601,"ECO":7602,"FS":7603,"Ġtherapeutic":7604,"Ġrecoverability":7605,"Ġcontext":7606,"Ġpopulation":7607,"sideration":7608,"ĠRepresents":7609,"urate":7610,"toc":7611,"ĠHealthcare":7612,"try":7613,"ĠESP":7614,"Ġinstead":7615,"years":7616,"Ġappointment":7617,"ĠDECEMBER":7618,"ĠFrance":7619,"soever":7620,"Ġremove":7621,"plif":7622,"base":7623,"Ġblock":7624,"ĠPipeline":7625,"ĠKong":7626,"Ġassumes":7627,"ĠĠĠĠĠĠĠĠĠĠĠĠĠĠĠĠĠĠĠĠĠĠĠ":7628,"ĠALL":7629,"expenses":7630,"ĠWHEREOF":7631,"Ġrenewed":7632,"ĠNasdaq":7633,"asters":7634,"ĠEPS":7635,"Ġrank":7636,"lin":7637,"General":7638,"Ġmuch":7639,"Ġexclude":7640,"Ġbilling":7641,"ĠAre":7642,"Ġtakes":7643,"Ġaccurate":7644,"Certain":7645,"Su":7646,"elect":7647,"ucky":7648,"Operating":7649,"ĠSuccess":7650,"Ġtaxation":7651,"ĠANALYSIS":7652,"ĠIntellectual":7653,"Ġpatterns":7654,"ĠEdu":7655,"ĠGS":7656,"accord":7657,"lot":7658,"CIP":7659,"ĠDescription":7660,"ĠFin":7661,"Ġill":7662,"Ġinternally":7663,"etitive":7664,"Ġconsolidate":7665,"Ġing":7666,"ĠSmall":7667,"Ġhypothe":7668,"ĠExcess":7669,"Ġconsents":7670,"Ġundertake":7671,"ught":7672,"selves":7673,"Ġrated":7674,"ĠTHER":7675,"ĠOriginal":7676,"iche":7677,"economic":7678,"Ġacknowledge":7679,"Ġcable":7680,"principal":7681,"Ġforecasts":7682,"Ġeducation":7683,"Ġrefinance":7684,"occ":7685,"ittle":7686,"due":7687,"ĠHOLDINGS":7688,"ĠExisting":7689,"Ġinstallment":7690,"law":7691,"ĠKent":7692,"ĠEcon":7693,"ĠRefer":7694,"PC":7695,"ĠWestern":7696,"ĠOverview":7697,"ĠMount":7698,"USSION":7699,"Ġhotels":7700,"accounting":7701,"Ġcontamination":7702,"defined":7703,"ĠBasic":7704,"atient":7705,"ondon":7706,"Ġgovernments":7707,"Ġoperator":7708,"Ġdiscontin":7709,"Ġanalysts":7710,"Ġsubmission":7711,"onomy":7712,"aho":7713,"tel":7714,"Ġvessels":7715,"Ġcomplement":7716,"EE":7717,"ĠTrade":7718,"ĠMissouri":7719,"pending":7720,"itary":7721,"ĠPercentage":7722,"pecially":7723,"Ġprivately":7724,"Ġsubstance":7725,"Ġconstrain":7726,"uishment":7727,"Ġjoining":7728,"ishing":7729,"Board":7730,"ĠTim":7731,"Ġretired":7732,"customers":7733,"Ġbreak":7734,"Ġexcludes":7735,"urances":7736,"ĠPC":7737,"Ġallocate":7738,"ectr":7739,"untarily":7740,"Commission":7741,"adverse":7742,"Ġhire":7743,"Ġdismiss":7744,"Ġmultiplied":7745,"ĠRM":7746,"Ġsuspension":7747,"Ġutilizes":7748,"va":7749,"ster":7750,"ĠServicer":7751,"quir":7752,"Ġincorpor":7753,"Ġqualification":7754,"ĠOrganization":7755,"Ġsensitivity":7756,"ĠSing":7757,"Ġreimbursed":7758,"license":7759,"rell":7760,"IAL":7761,"ĠInventory":7762,"ectus":7763,"Ġfinished":7764,"ĠMD":7765,"abric":7766,"Ġreleases":7767,"Ġidentifying":7768,"Ġweeks":7769,"ĠBEN":7770,"ĠWITNESS":7771,"Ġwilling":7772,"Ġlost":7773,"Ġreservoir":7774,"apore":7775,"Ġmiles":7776,"Ġpayors":7777,"III":7778,"oung":7779,"abil":7780,"Ġclosely":7781,"Ġdrive":7782,"Ġfutures":7783,"Ġsupported":7784,"Ġproposals":7785,"Ġdies":7786,"ĠEnterprise":7787,"fiscal":7788,"suming":7789,"ĠReturn":7790,"pet":7791,"without":7792,"Ġpeer":7793,"ĠSyn":7794,"ĠUtilities":7795,"ĠWil":7796,"Revenue":7797,"sim":7798,"Ġcure":7799,"Ġwarehouse":7800,"ĠDerivatives":7801,"Ġclimate":7802,"ĠAbout":7803,"ches":7804,"Ġinsufficient":7805,"Compensation":7806,"Ġconstant":7807,"ĠFer":7808,"ides":7809,"Common":7810,"Ġdepartment":7811,"Ġcourts":7812,"ĠPLAN":7813,"look":7814,"ahoma":7815,"DITION":7816,"Ġmeets":7817,"lable":7818,"PLOY":7819,"Ġjudicial":7820,"Enter":7821,"Ġmethodologies":7822,"Ġrender":7823,"ĠDISCUSSION":7824,"ĠPP":7825,"ĠSpr":7826,"ĠCiti":7827,"otechnology":7828,"earning":7829,"ĠPersons":7830,"Ġfrequency":7831,"ĠCircuit":7832,"Ġstorm":7833,"osite":7834,"Ġenables":7835,"Ġjoined":7836,"ĠCERTAIN":7837,"Ġdecommissioning":7838,"Ġdeems":7839,"ĠRepublic":7840,"Ġexamining":7841,"ĠSERVICES":7842,".*":7843,"itan":7844,"unto":7845,"Ġspecifications":7846,"klahoma":7847,"Ġsch":7848,"ĠPAR":7849,"ĠNorthern":7850,"Ġassociation":7851,"Ġlowest":7852,"Ġstring":7853,"ture":7854,"ĠEvents":7855,"These":7856,"ĠQuantitative":7857,"Ġfeed":7858,"Ġsupersed":7859,"ĠKn":7860,"_.":7861,"Ġleave":7862,"Ġeligibility":7863,"angu":7864,"ĠDil":7865,"ĠTrad":7866,"ĠOWNERS":7867,"ĠReserves":7868,"Ġshipments":7869,"ecution":7870,"Ġapproximates":7871,"Wh":7872,"Ġcamp":7873,"ik":7874,"Ġwar":7875,"ĠOFFICER":7876,"Ġpromotional":7877,"Ġcards":7878,"NITED":7879,"ventions":7880,"Ġunrelated":7881,"ĠDen":7882,"Ġblood":7883,"ĠHER":7884,"alone":7885,"Ġcorporations":7886,"Ġcontractor":7887,"Ġintroduced":7888,"ertainment":7889,"fficer":7890,"sumptions":7891,"Ġspent":7892,"ĠGuarantors":7893,"ĠNetherlands":7894,"ĠFour":7895,"ĠConditions":7896,"ĠCovered":7897,"Ġdescrib":7898,"Ġunfunded":7899,"ĠLa":7900,"Ġdifficulty":7901,"bo":7902,"Ġtraffic":7903,"Ġcontinuation":7904,"Ġresignation":7905,"Ġunknown":7906,"govern":7907,"Ġdeclare":7908,"grees":7909,"mbH":7910,"letion":7911,"ibus":7912,"ny":7913,"Ġextensions":7914,"ĠRoad":7915,"Ġretrospective":7916,"ĠCAP":7917,"ĠThomas":7918,"September":7919,"ĠAvailable":7920,"ĠMS":7921,"Ġpressures":7922,"ĠIslands":7923,"Ġharmed":7924,"ĠHedging":7925,"Ġbarrel":7926,"Ġappearing":7927,"ĠMulti":7928,"arges":7929,"Ġshell":7930,"ests":7931,"Ġdealers":7932,"ĠIndemnified":7933,"Ġprepayments":7934,"Ġinterruption":7935,"ORE":7936,"ordin":7937,"Ġespecially":7938,"ĠSpecific":7939,"Ġdepart":7940,"ĠTaxonomy":7941,"ĠSHAR":7942,"Ġsubsection":7943,"Per":7944,"Ġroutine":7945,"ĠFinal":7946,"Pre":7947,"ĠMorgan":7948,"ĠNuclear":7949,"oody":7950,"Star":7951,"Ġinsolvency":7952,"COM":7953,"idents":7954,"endix":7955,"duce":7956,"ĠSimilar":7957,"gent":7958,"registered":7959,"Ġmeanings":7960,"pricing":7961,"Mr":7962,"Ġindication":7963,"ĠFlo":7964,"ĠFl":7965,"ĠCy":7966,"ĠIndustry":7967,"Ġsought":7968,"Ġstructured":7969,"ĠDisagreements":7970,"Ġdilution":7971,"Ġresell":7972,"Ġissuers":7973,"inese":7974,"ĠAccumulated":7975,"ancing":7976,"Ġworkforce":7977,"PPL":7978,"FC":7979,"Ġseverity":7980,"Credit":7981,"ĠLink":7982,"Ġrefinancing":7983,"band":7984,"employees":7985,"umn":7986,"UT":7987,"ĠBanks":7988,"dilutive":7989,"ĠFarm":7990,"Ġindicates":7991,"nesota":7992,"Ġdiversified":7993,"ĠBroad":7994,"vailability":7995,"solete":7996,"ario":7997,"Accounting":7998,"Ġimposition":7999,"ĠGmbH":8000,"OB":8001,"Ġaffects":8002,"ATURES":8003,"ĠWind":8004,"bility":8005,"Ġcompetent":8006,"Ġwhatsoever":8007,"Ġperce":8008,"Ġcomputing":8009,"eder":8010,"ogen":8011,"Ġsurviving":8012,"emptions":8013,"Ġclosure":8014,"Ġearning":8015,"Ġ(.%":8016,"oodwill":8017,"Ġcollectability":8018,"Ġmeaningful":8019,"Ġpurchasers":8020,"Ġdives":8021,"Balance":8022,"ĠMine":8023,"Ġsponsor":8024,"MI":8025,"Ġdivestit":8026,"ĠQualified":8027,"onents":8028,"ĠFSP":8029,"ĠVenture":8030,"Ġaddressed":8031,"Effective":8032,"Ġasbestos":8033,"amental":8034,"Ġstringent":8035,"ĠDollar":8036,"pursuant":8037,"ĠBay":8038,"alyses":8039,"Ġincorporate":8040,"ha":8041,"Ġpromote":8042,"Ġfire":8043,"ectrum":8044,"Ġmisconduct":8045,"ĠThat":8046,"ĠBUSINESS":8047,"itish":8048,"Ġroom":8049,"aii":8050,"ĠPNM":8051,"feree":8052,"las":8053,"ĠCFO":8054,"ĠSuite":8055,"Ġadvice":8056,"Fair":8057,"oid":8058,"Ġlaunch":8059,"flows":8060,"Participant":8061,"culation":8062,"Ġconcentrations":8063,"Ġexercises":8064,"endments":8065,"HA":8066,"issue":8067,"ĠINV":8068,"Ġprepare":8069,"ĠHong":8070,"Registrant":8071,"ĠMARKET":8072,"Ġdiscussions":8073,"Ġfreight":8074,"Ġbargaining":8075,"ĠRESULTS":8076,"ĠAltern":8077,"Ġcontinually":8078,"ĠShareholder":8079,"Ġimproving":8080,"Ġcar":8081,"ender":8082,"Ġtariff":8083,"Ġgreen":8084,"formerly":8085,"represent":8086,"ĠPOL":8087,"Ġgeneric":8088,"arry":8089,"Ġterminal":8090,"commercial":8091,"Ġhost":8092,"Ġsuspended":8093,"beli":8094,"ĠBoth":8095,"Ġtelecommunications":8096,"Ġrevisions":8097,"Ġallowing":8098,"Ġalternatives":8099,"ĠProceeds":8100,"Ġformation":8101,"ĠAp":8102,"ĠComments":8103,"Ġofficial":8104,"amm":8105,"Ġentertainment":8106,"Ġredeemable":8107,"izational":8108,"Ġscientific":8109,"Ġeffected":8110,"Ġmilitary":8111,"ĠAfric":8112,"THE":8113,"ĠAction":8114,"ectors":8115,"ĠPlace":8116,"ĠStep":8117,"Ġdissolution":8118,"ominating":8119,"lications":8120,"Ġconvey":8121,"uda":8122,"Ġprocedure":8123,"ĠEducation":8124,"ressed":8125,"vii":8126,"board":8127,"Ġcertainty":8128,"atories":8129,"ĠDC":8130,"Ġstructures":8131,"Ġdimin":8132,"ĠGeneration":8133,"Ġcommodities":8134,"ĠCombination":8135,"ĠPronouncements":8136,"ĠLondon":8137,"ĠIR":8138,"Ġstay":8139,"provide":8140,"Ġingred":8141,"ĠOklahoma":8142,"Ġretire":8143,"rates":8144,"ĠAdvance":8145,"FID":8146,"grade":8147,"ĠRepurchase":8148,"Property":8149,"Addition":8150,"IGH":8151,"Ġdenied":8152,"ĠIssuance":8153,"BB":8154,"ffici":8155,"Ġsatellite":8156,"portation":8157,"Ġsurface":8158,"Ġindemnity":8159,"ĠConsequently":8160,"ENTIAL":8161,"ĠHospital":8162,"Up":8163,"vari":8164,"ĠIsra":8165,"quality":8166,"ustod":8167,"Ġestablishment":8168,"Any":8169,"ĠProduction":8170,"Ġtender":8171,"limited":8172,"Ġprospectively":8173,"Ġdebts":8174,"ĠKentucky":8175,"istant":8176,"Ġdeclar":8177,"ĠCard":8178,"Ġaccelerate":8179,"ĠDebentures":8180,"ĠChinese":8181,"ĠCONS":8182,"Ġextinguishment":8183,"Ġdisb":8184,"alers":8185,"ĠAnti":8186,"ĠAttorn":8187,"Ġacre":8188,"increased":8189,"ivity":8190,"estation":8191,"atri":8192,"Ġmicro":8193,"Ġuncollectible":8194,"Directors":8195,"Ġobsolete":8196,"ayman":8197,"Ġnotification":8198,"burg":8199,"Ġanalyses":8200,"ume":8201,"ĠAvenue":8202,"ĠPoint":8203,"Ġproducers":8204,"simile":8205,"Ġconcess":8206,"Ġpercentages":8207,"iform":8208,"Ġwillful":8209,"Ġpertain":8210,"Ġcollaborators":8211,"ĠWithout":8212,"ĠSem":8213,"ĠFlow":8214,"Ġunanticipated":8215,"ĠCommod":8216,"Ġsupplemented":8217,"ĠSo":8218,"INI":8219,"ĠCS":8220,"Ġjunior":8221,"Ġsurrender":8222,"eng":8223,"gricultural":8224,"Ġcomparing":8225,"ĠParticipating":8226,"ĠOTC":8227,"Ġinclusion":8228,"Ġdealer":8229,"avior":8230,"Ġinherently":8231,"Ġpurchaser":8232,"First":8233,"ulative":8234,"ĠSellers":8235,"Ġexaminations":8236,"ĠSmith":8237,"Ġdise":8238,"uer":8239,"conditions":8240,"rete":8241,"Ġdeterminations":8242,"ĠĠĠĠĠĠĠĠĠĠĠĠĠĠĠĠĠĠĠĠĠĠĠĠĠĠĠĠĠĠĠĠĠĠĠĠĠĠĠĠĠĠĠĠĠĠĠĠĠĠĠĠĠĠĠĠĠĠĠĠĠĠĠĠĠĠĠĠĠĠĠĠĠĠĠĠĠĠĠĠĠĠĠĠĠĠĠĠĠĠĠĠĠĠĠĠ":8243,"Disc":8244,"Ġaffairs":8245,"Ġpayout":8246,"Ġattributed":8247,"ĠPurchased":8248,"Ġstudent":8249,"Ġindependently":8250,"site":8251,"Ġprove":8252,"Ġquickly":8253,"ĠClinical":8254,"times":8255,"ĠPER":8256,"Ġlever":8257,"ĠCompared":8258,"argin":8259,"Ġfewer":8260,"Ġtank":8261,"ĠItems":8262,"Ġgives":8263,"regulatory":8264,"imal":8265,"ĠTRS":8266,"LEMENT":8267,"Ġmaximize":8268,"Ġcategor":8269,"Ġexceeding":8270,"Ġpreference":8271,"Ġcancelled":8272,"ĠREGISTR":8273,"Ġgold":8274,"UED":8275,"ĠPosition":8276,"UN":8277,"four":8278,"ĠRichard":8279,"ĠWal":8280,"Ġraised":8281,"consin":8282,"isconsin":8283,"Ġnoninterest":8284,"istry":8285,"osing":8286,"Ġille":8287,"Ġschool":8288,"ĠFiled":8289,"ĠYoung":8290,"Ġrepayments":8291,"Ġemission":8292,"ĠEuro":8293,"mal":8294,"Ġprivile":8295,"ategic":8296,"ĠRegion":8297,"Signature":8298,"ĠLog":8299,"tures":8300,"Ġalleging":8301,"Ġshift":8302,"Ġspreads":8303,"Ġresale":8304,"ĠBlue":8305,"arbor":8306,"Ġdiligence":8307,"anel":8308,"opping":8309,"exclusive":8310,"Ġvaluable":8311,"ĠVIEs":8312,"Ġdepreciated":8313,"Is":8314,"obligations":8315,"Ġpetition":8316,"yed":8317,"ĠInteractive":8318,"ĠCharter":8319,"na":8320,"ĠQuality":8321,"rey":8322,"pret":8323,"ĠLC":8324,"Exchange":8325,"ĠSTATEMENT":8326,"oston":8327,"ĠBasis":8328,"ĠSCHED":8329,"Ġwebsites":8330,"Ġscr":8331,"ITF":8332,"Ġanticipates":8333,"Ġusually":8334,"ĠCASH":8335,"grant":8336,"Ġdisasters":8337,"uses":8338,"Ġhundred":8339,"Ġflu":8340,"Ġplay":8341,"Ġdesigns":8342,"Ġfinancings":8343,"ĠPrac":8344,"Information":8345,"Ġadminister":8346,"ĠBook":8347,"hentic":8348,"ĠMo":8349,"reland":8350,"Ġphysician":8351,"cancelable":8352,"*]":8353,"Ġenters":8354,"ĠNeither":8355,"Ġdiseases":8356,"dependent":8357,"Ġresolve":8358,"Ġtherefor":8359,"Ġinnovative":8360,"Ġtranslated":8361,"Capital":8362,"most":8363,"odollar":8364,"Ġdelivering":8365,"ĠHistorically":8366,"Ġpays":8367,"Ġbenchmark":8368,"ĠChase":8369,"Ġbo":8370,"accordance":8371,"gg":8372,"He":8373,"Ġjob":8374,"Ġconclusive":8375,"LED":8376,"ĠInf":8377,"Ġefficiencies":8378,"Ġdemonstrate":8379,"Ġcurtail":8380,"Ġincons":8381,"irable":8382,"ĠShould":8383,"Ġshared":8384,"Ġdecide":8385,"step":8386,"Ġspeed":8387,"Ġstation":8388,"Ġfeas":8389,"ĠVoting":8390,"leans":8391,"Ġcounterparts":8392,"Ġinterpreted":8393,"ĠSingapore":8394,"abled":8395,"Ġregister":8396,"ĠPOLIC":8397,"Ġstatis":8398,"ĠHawaii":8399,"Ġspouse":8400,"Ġgene":8401,"Ġslight":8402,"ats":8403,"bi":8404,"ĠBritish":8405,"ĠHar":8406,"onald":8407,"Ġimproper":8408,"ermuda":8409,"Ġcauses":8410,"ĠPort":8411,"ĠINCORPOR":8412,"Ġours":8413,"aution":8414,"total":8415,"pred":8416,"ider":8417,"ronics":8418,"Gu":8419,"roub":8420,"Ġbelieved":8421,"izona":8422,"secured":8423,"Ġsemiconductor":8424,"Ġsuperior":8425,"ulk":8426,"Ġproductivity":8427,"Ġ#":8428,"Ġpharm":8429,"UE":8430,"ĠGrand":8431,"ĠRoyalty":8432,"eth":8433,"Ġsubstitute":8434,"BM":8435,"Ġcollections":8436,"xic":8437,"prior":8438,"Americ":8439,"ĠEngland":8440,"Ġbur":8441,"Dollars":8442,"BI":8443,"Ġlabeling":8444,"lined":8445,"Ġways":8446,"asso":8447,"Ġload":8448,"ĠMoody":8449,"ĠCMS":8450,"Ġintense":8451,"Ġchallenge":8452,"Ġprud":8453,"Ġvacation":8454,"Ġcurve":8455,"OPTED":8456,"ĠMax":8457,"Ġpresident":8458,"Ġnegotiations":8459,"Ġcontracted":8460,"ATIVE":8461,"Ġcarrier":8462,"ĠFif":8463,"Ġpain":8464,"ĠCell":8465,"ĠCurrently":8466,"ectic":8467,"Ġretaining":8468,"ographic":8469,"uston":8470,"Ġnotified":8471,"their":8472,"penditures":8473,"Ġmetal":8474,"Ġinstalled":8475,"Ġforced":8476,"Ġpurport":8477,"Ġsimplif":8478,"igher":8479,"ĠVer":8480,"Ġstudents":8481,"sw":8482,"ĠParticipation":8483,"Ġexpiring":8484,"ĠAmeren":8485,"internal":8486,"posal":8487,"ham":8488,"ĠConsolidation":8489,"ĠCV":8490,"PT":8491,"order":8492,"ommod":8493,"Ġassurances":8494,"Ġoffshore":8495,"ĠMess":8496,"ĠBasel":8497,"ventional":8498,"realized":8499,"ĠDan":8500,"Ġdiagnostic":8501,"ĠNamed":8502,"Ġdeposited":8503,"holding":8504,"www":8505,"ĠSelect":8506,"ĠĠĠĠĠĠĠĠĠĠĠĠĠĠĠĠĠĠĠĠĠĠĠĠĠĠĠĠĠĠĠĠĠĠĠĠĠĠĠĠĠĠĠĠĠĠĠĠĠĠĠĠĠĠĠĠĠĠĠĠĠĠĠĠĠĠĠĠĠĠĠĠĠĠĠĠĠĠĠĠĠĠĠĠĠĠĠĠĠĠĠĠĠĠĠĠĠĠĠĠĠĠĠĠĠĠĠĠĠĠĠĠĠĠĠĠĠĠĠĠĠĠĠĠĠĠĠĠ":8507,"Ġemphas":8508,"ĠĠĠĠĠĠĠĠĠĠĠĠĠĠĠĠĠĠĠĠĠ":8509,"Ġ--.":8510,"Ġintroduction":8511,"Ed":8512,"Ġstrict":8513,"Ġorganic":8514,"ĠDelivery":8515,"liances":8516,"urisdiction":8517,"ulated":8518,"Ġrecourse":8519,"asive":8520,"Ġreinsure":8521,"Ġillegal":8522,"Ġtit":8523,"Ġsponsored":8524,"ĠĠĠĠĠĠĠĠĠĠĠĠĠĠĠĠĠĠĠĠ":8525,"Ġcloud":8526,"ĠBel":8527,"made":8528,"Ġaccuracy":8529,"ANTS":8530,"olly":8531,"Ġinsurer":8532,"trust":8533,"ĠStud":8534,"ĠJeff":8535,"equity":8536,"Ġcausing":8537,"purchase":8538,"dealer":8539,"ĠOffer":8540,"Ġstable":8541,"ĠMae":8542,"Ġenhancements":8543,"Ġregulate":8544,"Ġintermedi":8545,"Ġexchanged":8546,"Ġtons":8547,"Ġautomobile":8548,"Ġwaive":8549,"ĠOmnibus":8550,"ids":8551,"ĠMA":8552,"profit":8553,"bl":8554,"ĠCharges":8555,"annual":8556,"Ġelects":8557,"Ġinhibit":8558,"ĠMeasurement":8559,"Ġsubscrib":8560,"Ġmergers":8561,"ĠBorrowings":8562,"GR":8563,"Ġexchanges":8564,"lev":8565,"Ġmatch":8566,"NY":8567,"Ġevidenced":8568,"Ġplas":8569,"ĠPS":8570,"Ġtoward":8571,"ILL":8572,"Ġprocurement":8573,"Senior":8574,"Ġcontractually":8575,"loans":8576,"standard":8577,"mod":8578,"basis":8579,"orse":8580,"Ġsubjects":8581,"Ġprofile":8582,"ĠNU":8583,"ĠAmong":8584,"ĠImprovements":8585,"Ġmovements":8586,"Ġnonaccrual":8587,"Ġopening":8588,"izer":8589,"Ġpassed":8590,"ĠEconomic":8591,"Ġbelief":8592,"lantic":8593,"OUR":8594,"Ġrents":8595,"Ġantib":8596,"Ġseasoned":8597,"Ġfalse":8598,"Ġformal":8599,"GP":8600,"Ġstanding":8601,"ĠYEAR":8602,"atab":8603,"disclosure":8604,"icago":8605,"Ġsour":8606,"ĠOrleans":8607,"nessee":8608,"Ġprop":8609,"Ġsolid":8610,"Ġsixty":8611,"effect":8612,"ĠRecent":8613,"ĠSil":8614,"ĠEngineering":8615,"Imp":8616,"ĠApproval":8617,"Ġexcise":8618,"ordinary":8619,"arent":8620,"Ġholdings":8621,"system":8622,"Ġminority":8623,"essional":8624,"Ġfinanced":8625,"anded":8626,"ĠItal":8627,"ĠEU":8628,"Ġfract":8629,"anguage":8630,"ding":8631,"CM":8632,"Ġbears":8633,"isco":8634,"Ġ.)":8635,"liant":8636,"ĠAccess":8637,"alle":8638,"ĠFil":8639,"Ġreimbursements":8640,"Ġproposal":8641,"Ġsearch":8642,"Ġmol":8643,"CONSOLIDATED":8644,"PPLEMENT":8645,"Ġfurniture":8646,"ARE":8647,"Ġfabric":8648,"Ġ$..":8649,"ĠAdvances":8650,"Ġvoluntarily":8651,"ĠSupport":8652,"Ġestimation":8653,"porarily":8654,"Ġclearing":8655,"emor":8656,"Ġleadership":8657,"ousands":8658,"Ġnegotiate":8659,"Ġserious":8660,"ĠProfit":8661,"fere":8662,"ĠEND":8663,"ĠArea":8664,"ara":8665,"ĠRSU":8666,"ĠMinnesota":8667,"Link":8668,"ĠHE":8669,"Ġside":8670,"Ġratif":8671,"ĠFLO":8672,"Ġdeficiency":8673,"ĠGreat":8674,"ache":8675,"respect":8676,"Ġlittle":8677,"Ġced":8678,"ylaws":8679,"Ġshipped":8680,"effectiveness":8681,"Ġengaging":8682,"ECT":8683,"ĠRecovery":8684,"NIFIC":8685,"Ġconsiderations":8686,"ĠCritical":8687,"ĠDigital":8688,"ĠProvisions":8689,"ĠBeginning":8690,"ĠREC":8691,"Ġevaluations":8692,"ĠEscrow":8693,"ĠSk":8694,"Ġlicensees":8695,"ĠADOPTED":8696,"poss":8697,"Ġspecialized":8698,"Ġreversal":8699,"gor":8700,"ĠIdentif":8701,"ĠGains":8702,"Control":8703,"ĠPOLICIES":8704,"Ġpark":8705,"een":8706,"ĠProm":8707,"Ġsponsors":8708,"posed":8709,"revenue":8710,"Ġcomplying":8711,"Ġauthoritative":8712,"ĠSTATES":8713,"ecticut":8714,"istributed":8715,"Ġperforms":8716,"Ġbranches":8717,"Ġretroactive":8718,"count":8719,"recorded":8720,"Ġrecommendations":8721,"ĠPres":8722,"ĠEmerg":8723,"Ġannounce":8724,"Ġtherapies":8725,"CORP":8726,"CERTIFICATION":8727,"ĠKore":8728,"Ġescal":8729,"Ġlink":8730,"Ġthereunto":8731,"Ġmar":8732,"Ġattacks":8733,"ĠMont":8734,"txt":8735,"Ġevolving":8736,"together":8737,"Ġcompensatory":8738,"Ġelectrical":8739,"Ġsituations":8740,"necess":8741,"HS":8742,"ĠAdvertising":8743,"ĠEurodollar":8744,"ĠFE":8745,"ste":8746,"ĠRad":8747,"ĠTrustees":8748,"Ġfilers":8749,"ĠLiber":8750,"ĠPA":8751,"Ġcommonly":8752,"ĠCONDITION":8753,"Ġhereinafter":8754,"Ġcharacterized":8755,"titution":8756,"Ġbylaws":8757,"FIDENTIAL":8758,"Ġdeclining":8759,"Ġcompounds":8760,"OUT":8761,"Ġdeficit":8762,"lish":8763,"vantage":8764,"Cost":8765,"property":8766,"ĠAppendix":8767,"Ġeconomically":8768,"been":8769,"ĠLinkbase":8770,"roubled":8771,"antom":8772,"ĠSTOCKHOLDER":8773,"Ġunexpected":8774,"ĠArizona":8775,"Ġlock":8776,"itro":8777,"ĠOnce":8778,"ĠWisconsin":8779,"worthiness":8780,"Ġunqualified":8781,"olesale":8782,"ĠSE":8783,"Ġprotoc":8784,"Ġextreme":8785,"Ġbranded":8786,"placement":8787,"olid":8788,"reatment":8789,"orizon":8790,"ERAL":8791,"//":8792,"ISI":8793,"Ġskilled":8794,"five":8795,"ĠPor":8796,"Ġrestriction":8797,"rals":8798,"ĠAttorney":8799,"Ġlawful":8800,"ĠFred":8801,"Ġexclusively":8802,"Ġnegligence":8803,"Ġcovers":8804,"Ġintegrity":8805,"CES":8806,"ĠBasin":8807,"Cons":8808,"ĠDev":8809,"OK":8810,"Ġadvantages":8811,"ĠGHG":8812,"Ġprepar":8813,"ĠTRANSAC":8814,"star":8815,"Ġviolate":8816,"puts":8817,"Ġaffirmative":8818,"ĠWithin":8819,"rown":8820,"ĠLetters":8821,"ynam":8822,"Ġexpenditure":8823,"division":8824,"Statements":8825,"Ġcreation":8826,"June":8827,"Ġdd":8828,"Ġdisplay":8829,"atter":8830,"Ġquestion":8831,"ĠDiluted":8832,"ĠINTERN":8833,"present":8834,"Ġperf":8835,"maturity":8836,"Ġsound":8837,"ĠAfrica":8838,"Ġsure":8839,"Chairman":8840,"ordable":8841,"ĠTransmission":8842,"Ġcoup":8843,"Ġpossess":8844,"Ġremote":8845,"eters":8846,"Ġsemi":8847,"SS":8848,"Ġbuilt":8849,"Ġvirtue":8850,"ĠJose":8851,"ĠJPM":8852,"petual":8853,"ĠAdvisors":8854,"Ġrefers":8855,"gations":8856,"ĠMiddle":8857,"ĠProvider":8858,"Ġhy":8859,"Ġprote":8860,"Ġport":8861,"etween":8862,"Borrow":8863,"itch":8864,"counter":8865,"berg":8866,"Ġauthorize":8867,"Ġenrollment":8868,"soft":8869,"Ġguaranty":8870,"Certification":8871,"Ġfunctionality":8872,"encement":8873,"Ġaddresses":8874,"Ġseller":8875,"ĠShort":8876,"ĠCoven":8877,"eutics":8878,"Ġdest":8879,"pe":8880,"how":8881,"ĠBoston":8882,"opy":8883,"ĠLO":8884,"ĠReview":8885,"sidiary":8886,"ĠDom":8887,"criptions":8888,"Ġinternationally":8889,"ĠConsulting":8890,"Ġpermitting":8891,"load":8892,"bridge":8893,"ĠFort":8894,"Ġreinvested":8895,"uing":8896,"existing":8897,"Ġinvo":8898,"ordination":8899,"Ġuncondition":8900,"Ġterrorism":8901,"Ġpoly":8902,"equival":8903,"Ġadvisor":8904,"ney":8905,"ĠMaturity":8906,"instru":8907,"ĠOld":8908,"STATE":8909,"ĠRating":8910,"subsidiaries":8911,"Ġsimilarly":8912,"medi":8913,"NDER":8914,"ĠTele":8915,"Ġabsorb":8916,"Ġdisrupt":8917,"reasonable":8918,"Ġrepatri":8919,"ĠINCORPORATED":8920,"ĠFRB":8921,"ĠKansas":8922,"ĠJud":8923,"ulner":8924,"ĠLending":8925,"Ġrestoration":8926,"ĠPetroleum":8927,"ĠESPP":8928,"ĠSHE":8929,"Ġcomplexity":8930,"Ġmetrics":8931,"ĠGiven":8932,"Ġregistr":8933,"ĠESOP":8934,"ocket":8935,"Ġhearing":8936,"Ġexclusivity":8937,"ival":8938,"ĠPRESENT":8939,"pat":8940,"Ġdiverse":8941,"contrib":8942,"illary":8943,"umin":8944,"ĠEMPLOY":8945,"Ġcreating":8946,"uerto":8947,"Ġdrawn":8948,"ĠPrim":8949,"OCI":8950,"ĠAppeals":8951,"Entergy":8952,"ĠRecip":8953,"ortality":8954,"chit":8955,"ĠHel":8956,"Ġbiotechnology":8957,"Ġaggregated":8958,"funded":8959,"Ġcompares":8960,"Ġundistributed":8961,"Ġunaudited":8962,"Ġbuyer":8963,"ĠWood":8964,"Ġaccommod":8965,"certif":8966,"ĠExcluding":8967,"ĠSECURITY":8968,"ĠDevelop":8969,"Ġreduces":8970,"Ġirrevocably":8971,"Ġpound":8972,"aps":8973,"Ġlapse":8974,"Ġmedic":8975,"ĠĠĠĠĠĠĠĠĠĠĠĠĠĠĠĠĠĠĠĠĠĠĠĠĠĠĠĠĠĠĠĠĠĠĠĠĠ":8976,"ĠJohns":8977,"Ġexecuting":8978,"ĠSH":8979,"Ġhypothetical":8980,"ĠChapter":8981,"Ġrecruit":8982,"ĠPURCH":8983,"Ġearth":8984,"Ġreviewing":8985,"asured":8986,"Ġbehavior":8987,"ĠChemical":8988,"ĠAmericas":8989,"estimated":8990,"Ġsurround":8991,"phan":8992,"ĠApplication":8993,"Ġsil":8994,"Ġvariations":8995,"ĠInventories":8996,"Ġdefects":8997,"Ġpretax":8998,"exerc":8999,"ĠThey":9000,"ĠMill":9001,"Ġspin":9002,"cor":9003,"she":9004,"Ġproportionate":9005,"Ġdemonstrated":9006,"ALANCE":9007,"investments":9008,"sett":9009,"Ġfifty":9010,"Ġpursuing":9011,"med":9012,"ĠMonth":9013,"ained":9014,"ĠBylaws":9015,"Ġadding":9016,"NOW":9017,"amples":9018,"ĠCAPITAL":9019,"Ġmedium":9020,"ĠBul":9021,"Ġheading":9022,"ĠLeased":9023,"into":9024,"INE":9025,"yle":9026,"ĠTER":9027,"Ġcalls":9028,"ĠKe":9029,"Ġattestation":9030,"ĠMessrs":9031,"Ġorganizational":9032,"Ġdose":9033,"ĠOM":9034,"Ġcyber":9035,"ĠStar":9036,"IND":9037,"Ġinquir":9038,"Ġenforceability":9039,"Ġartic":9040,"Ġprohibits":9041,"ĠCounter":9042,"utual":9043,"reek":9044,"ĠEITF":9045,"ĠLake":9046,"Committee":9047,"ĠBR":9048,"Ġchapter":9049,"VA":9050,"Mark":9051,"ĠAdvisory":9052,"Ġinduce":9053,"ĠIr":9054,"ĠRico":9055,"ĠDesignated":9056,"ĠACCOUNT":9057,"ĠAmendments":9058,"ĠĠĠĠĠĠĠĠĠĠĠĠĠĠĠĠĠĠĠĠĠĠĠĠĠĠĠĠĠĠĠĠĠĠĠĠ":9059,"ĠLiberty":9060,"ĠPal":9061,"ĠTrademark":9062,"Ġunreason":9063,"INCIP":9064,"VERN":9065,"design":9066,"Ġobs":9067,"raul":9068,"transactions":9069,"ĠLIM":9070,"Ġscen":9071,"quest":9072,"successful":9073,"ĠTennessee":9074,"overage":9075,"ĠOwned":9076,"Ġruling":9077,"Ġpath":9078,"ĠCOMMON":9079,"Gen":9080,"ĠCONTROL":9081,"Ġwages":9082,"aneously":9083,"Ġvulner":9084,"INCIPAL":9085,"ĠWaiver":9086,"volver":9087,"Ġdedicated":9088,"ĠExpress":9089,"mo":9090,"gov":9091,"UNITED":9092,"utor":9093,"ĠUnresolved":9094,"Ġheadcount":9095,"ike":9096,"ĠSHARE":9097,"ĠQU":9098,"Ġowing":9099,"Ġconsumption":9100,"Ġopened":9101,"group":9102,"Ġeas":9103,"ĠClear":9104,"Ġreinvestment":9105,"ĠSupreme":9106,"ĠGuid":9107,"ĠAuthorized":9108,"ospace":9109,"ĠCombined":9110,"ĠENDED":9111,"ĠEstimated":9112,"cumbr":9113,"Ġstability":9114,"VI":9115,"Ġdecid":9116,"IEF":9117,"ĠSUPPLEMENT":9118,"stat":9119,"ĠInstitute":9120,"Ġaccredit":9121,"Ġstocks":9122,"Ġprepay":9123,"ĠSA":9124,"Ġclearance":9125,"ALL":9126,"ola":9127,"Ġcommunicated":9128,"ĠConnecticut":9129,"Ġ**":9130,"Ġcorrective":9131,"Ġcompleting":9132,"ĠTDR":9133,"pretation":9134,"ĠSteel":9135,"aign":9136,"perties":9137,"ormal":9138,"iff":9139,"ĠGl":9140,"enth":9141,"Ġcycles":9142,"ĠIdaho":9143,"Ġcapability":9144,"orne":9145,"Ġdismis":9146,"Ġgreenhouse":9147,"ĠHyatt":9148,"ĠIreland":9149,"Ġessential":9150,"ĠMIS":9151,"ĠCORP":9152,"Ġchallenging":9153,"dividend":9154,"nst":9155,"ĠHouston":9156,"ĠIndividual":9157,"ĠStan":9158,"Ġequitable":9159,"asurement":9160,"Ġmanages":9161,"ĠBre":9162,"ĠPrinciples":9163,"activities":9164,"Ġcarbon":9165,"Ġinstructions":9166,"ĠChicago":9167,"cillary":9168,"ĠBermuda":9169,"associated":9170,"ĠController":9171,"ĠResidential":9172,"ĠFrank":9173,"mentioned":9174,"Ġcommittees":9175,"Ġentirely":9176,"MMARY":9177,"ĠContinued":9178,"arel":9179,"ĠSM":9180,"Cl":9181,"Ġirrevocable":9182,"Ġconcept":9183,"Ġtum":9184,"supp":9185,"Ġcolumn":9186,"Ġextra":9187,"production":9188,"enter":9189,"ĠMethod":9190,"Ġchemicals":9191,"ĠAdvisor":9192,"Ġreclassification":9193,"specified":9194,"earned":9195,"Ġflat":9196,"redecessor":9197,"Ġprescrib":9198,"would":9199,"Ġpreparing":9200,"thanol":9201,"ĠREGISTRANT":9202,"Ġguarantor":9203,"EB":9204,"Ġ-).":9205,"ĠLimit":9206,"Ġnin":9207,"Ġdeple":9208,"Ġunion":9209,"ĠAccountant":9210,"ĠPB":9211,"Ġspecify":9212,"Ġ//":9213,"ĠField":9214,"ANGES":9215,"ĠĠĠĠĠĠĠĠĠĠĠĠĠĠčĊ":9216,"ĠGE":9217,"Ġ(,":9218,"cellaneous":9219,"erospace":9220,"ĠTwo":9221,"impact":9222,"Ġinvolvement":9223,"unity":9224,"affect":9225,"Ġceases":9226,"ĠCore":9227,"Ġrevise":9228,"Ġagricultural":9229,"Ġsurrounding":9230,"Ġexpression":9231,"roph":9232,"Ġrecession":9233,"letin":9234,"Pl":9235,"olf":9236,"rated":9237,"ĠVI":9238,"Ġconstraints":9239,"PSC":9240,"hers":9241,"ĠJunior":9242,"Lived":9243,"marketing":9244,"ĠMidstream":9245,"Cal":9246,"Sp":9247,"det":9248,"ĠAcquired":9249,"Ġdistr":9250,"artered":9251,"viation":9252,"ĠMB":9253,"Ġflood":9254,"Because":9255,"ĠBlock":9256,"ĠIndemnification":9257,"wan":9258,"anine":9259,"Ġencourage":9260,"ĠPuerto":9261,".(":9262,"ĠClient":9263,"Ġprescription":9264,"Ġreversed":9265,"NB":9266,"ape":9267,"Ġfarm":9268,"wear":9269,"opted":9270,"Ġdegrees":9271,"WARD":9272,"Ġ=":9273,"regulations":9274,"Ġdesirable":9275,"ĠMaintenance":9276,"ete":9277,"print":9278,"ĠTRANSACTIONS":9279,"Ġmagn":9280,"ĠSign":9281,"ollo":9282,"ĠMor":9283,"Ġmatures":9284,"Ġallegations":9285,"Ġrol":9286,"Ġauthorizes":9287,"Ġarre":9288,"radu":9289,"ĠBrands":9290,"ĠFound":9291,"resh":9292,"Ġinacc":9293,"Ġstages":9294,"Ġtoxic":9295,"Ġpages":9296,"UD":9297,"Ġvaries":9298,"established":9299,"itzer":9300,"Inte":9301,"ĠLead":9302,"ĠRegistr":9303,"ĠDistributions":9304,"Ġdatab":9305,"ĠCapitalized":9306,"ĠVAL":9307,"Ġmul":9308,"Ġshut":9309,"Ġmonitors":9310,"Ġholid":9311,"Ġbeneficiaries":9312,"Ġcomprom":9313,"ĠRedemption":9314,"ĠPrime":9315,"Ġannualized":9316,"LC":9317,"Ġtrades":9318,"include":9319,"Ġinitiate":9320,"Ġ$(":9321,"general":9322,"ĠOcc":9323,"claims":9324,"Ġlogistics":9325,"ĠVentures":9326,"Ġfranchisees":9327,"ĠRail":9328,"fficiency":9329,"tis":9330,"MO":9331,"ĠFifth":9332,"SFAS":9333,"provisions":9334,"Ġclin":9335,"Ġmerchant":9336,"ĠPreviously":9337,"ĠBack":9338,"ĠWall":9339,"Ġceased":9340,"onic":9341,"Ġdistin":9342,"ĠFre":9343,"Ġrenewals":9344,"Ġarbitrator":9345,"new":9346,"Ġmaturing":9347,"uter":9348,"Ġpreserve":9349,"ĠLiquid":9350,"ĠDetermination":9351,"igor":9352,"ĠNA":9353,"Ġsurvive":9354,"ĠTRUST":9355,"ourn":9356,"bre":9357,"ĠTermin":9358,"Ġdom":9359,"ship":9360,"Ġinfluenced":9361,"ĠSW":9362,"allow":9363,"ĠMart":9364,"oen":9365,"ĠWhere":9366,"Deferred":9367,"Ġvoid":9368,"loan":9369,"Ġspot":9370,"Ġconcentrated":9371,"Ġauto":9372,"ACT":9373,"Ġpollution":9374,"NIFICANT":9375,"Ġfer":9376,"utors":9377,"ĠBP":9378,"ĠVis":9379,"ĠCLO":9380,"Ġdeliverables":9381,"anger":9382,"predict":9383,"Ġpermanently":9384,"cil":9385,"za":9386,"TP":9387,"ĠFLOWS":9388,"ĠCumulative":9389,"Ġversion":9390,"ference":9391,"ursements":9392,"ĠDISCLOSURES":9393,"Ġauthentic":9394,"chitect":9395,"sen":9396,"ĠCollabor":9397,"Exact":9398,"zzanine":9399,"Restr":9400,"ibly":9401,"ĠMal":9402,"ĠQUAL":9403,"unctive":9404,"markets":9405,"ĠHer":9406,"ĠCayman":9407,"Ġfollowed":9408,"Ġprotected":9409,"ĠEnterprises":9410,"ĠRegistrants":9411,"terms":9412,"ĠIC":9413,"only":9414,"ĠNothing":9415,"Ġaw":9416,"ĠFC":9417,"Ġimposes":9418,"imbursement":9419,"Ġamends":9420,"Es":9421,"Ġcollaborative":9422,"Ġreferen":9423,"SIGNATURES":9424,"raulic":9425,"ĠTranche":9426,"vw":9427,"Ġfundamental":9428,"Number":9429,"Ġreme":9430,"ĠTHAT":9431,"building":9432,"Che":9433,"companies":9434,"FA":9435,"program":9436,"echnical":9437,"Ġrecipient":9438,"Ġdeed":9439,"Ġshopping":9440,"GI":9441,"ĠWhite":9442,"ĠMil":9443,"ĠMajor":9444,"Share":9445,"Ġ($,":9446,"ĠRepresentative":9447,"Ġacreage":9448,"erivative":9449,"Ġundeveloped":9450,"Ġlaunched":9451,"Ġsublease":9452,"real":9453,"Ġderive":9454,"Ġterrit":9455,"gressive":9456,"Ġnumbers":9457,"Ġpersonally":9458,"ERIC":9459,"Ġappraisal":9460,"Product":9461,"Ġalign":9462,"ĠWar":9463,"Ġterrorist":9464,"ĠLicensee":9465,"Ġcapable":9466,"Ġminimal":9467,"PB":9468,"ĠTransportation":9469,"--------------------------------":9470,"Ġ________________":9471,"Ġupfront":9472,"ĠPROPERTIES":9473,"annie":9474,"Ġfixtures":9475,"Ġrebates":9476,"Ġworked":9477,"Ġinterruptions":9478,"Ġ+":9479,"Ġstaffing":9480,"ĠSB":9481,"allocated":9482,"utr":9483,"core":9484,"ĠCHIEF":9485,"Over":9486,"ĠGOVERN":9487,"patient":9488,"Ġrefr":9489,"Ġdiscover":9490,"ĠSpecialty":9491,"Ġrefined":9492,"ĠCreek":9493,"One":9494,"EFORE":9495,"Ġoutlook":9496,"Ġattributes":9497,"issible":9498,"Ġthence":9499,"necessary":9500,"Ġelimination":9501,"ĠJohnson":9502,"Nove":9503,"acquired":9504,"tt":9505,"ĠNov":9506,"ĠQualifying":9507,"Ġddex":9508,"ĠCombinations":9509,"ĠRecipient":9510,"Ġintroduce":9511,"asion":9512,"Ġfacsimile":9513,"aried":9514,"Ġaccomp":9515,"Ġfinding":9516,"Ġwastes":9517,"Schedule":9518,"Ġowning":9519,"half":9520,"Ġliving":9521,"ĠPhil":9522,"Ġunderst":9523,"ĠSpecifically":9524,"Ġethics":9525,"aska":9526,"Ġunderwriters":9527,"Ġformerly":9528,"ĠHill":9529,"ĠEV":9530,"ildren":9531,"Ġeconomies":9532,"Ġinconsistent":9533,"Ġassert":9534,"borrow":9535,"Ġdefines":9536,"Ġorderly":9537,"industr":9538,"ASC":9539,"Ġstandby":9540,"ĠĠĠĠĠĠĠĠĠĠĠĠĠĠĠĠĠĠĠĠĠĠ":9541,"diff":9542,"Ġattend":9543,"ĠEastern":9544,"ĠPass":9545,"TINUED":9546,"impairment":9547,"ĠPlease":9548,"Do":9549,"ĠPack":9550,"Ġconsummated":9551,"Ġinnovation":9552,"Amendment":9553,"ĠRuss":9554,"night":9555,"Ġguarantors":9556,"Ġinterested":9557,"fizer":9558,"November":9559,"ĠSpecified":9560,"Ġpronouncements":9561,"ĠBranch":9562,"rick":9563,"Ġaccountants":9564,"Ġconstituting":9565,"ĠRenew":9566,"ĠPROCEED":9567,"Ġindemnified":9568,"zen":9569,"Ġopinions":9570,"Ġdevote":9571,"ĠMBS":9572,"Ġstarting":9573,"Ġdivert":9574,"voting":9575,"Ġrecognizing":9576,"Ġsubstantive":9577,"ĠStrategy":9578,"ĠAdjustment":9579,"ĠObligation":9580,"proceed":9581,"Ġradi":9582,"ologic":9583,"Ġsigning":9584,"Ġfiber":9585,"parti":9586,"ĠDomestic":9587,"October":9588,"ĠAccelerated":9589,"ITED":9590,"ĠTerritory":9591,"Ġenj":9592,"Ġunivers":9593,"ĠPaul":9594,"Ġmortality":9595,"ĠSIGNIFICANT":9596,"directors":9597,"Ġnomin":9598,"cir":9599,"options":9600,"ĠSARs":9601,"otherwise":9602,"COSO":9603,"tically":9604,"Ġslightly":9605,"ĠMortg":9606,"ĠResource":9607,"leased":9608,"ĠPARTNERS":9609,"Ġur":9610,"TRIC":9611,"ominant":9612,"VED":9613,"RG":9614,"ectivity":9615,"require":9616,"ĠDefaulting":9617,"ĠGrowth":9618,"ĠNRC":9619,"acent":9620,"appropriate":9621,"Ġcopper":9622,"Ġsuspend":9623,"ptible":9624,"Ġdesired":9625,"ĠISSU":9626,"ordinate":9627,"ĠPool":9628,"Ġunemployment":9629,"ĠArbit":9630,"Ġwidely":9631,"bec":9632,"amil":9633,"ĠTherapeutics":9634,"ĠCoast":9635,"Vice":9636,"ĠEL":9637,"ĠClause":9638,"NUAL":9639,"Ġarrears":9640,"Ġcreditworthiness":9641,"Br":9642,"ĠPV":9643,"delivered":9644,"anufacture":9645,"ĠLatin":9646,"Ġdefending":9647,"otherap":9648,"ĠTEC":9649,"ĠMountain":9650,"ĠLTD":9651,"Ġcomplied":9652,"Ġwaivers":9653,"ureau":9654,"ĠJPMorgan":9655,"employer":9656,"Ġresc":9657,"Ġalways":9658,"abling":9659,"ĠLight":9660,"ĠCam":9661,"ĠDEFINI":9662,"ĠErnst":9663,"ploration":9664,"Ġassesses":9665,"ĠUNDER":9666,"Ġvigor":9667,"particip":9668,"Ġimpacting":9669,"estimates":9670,"ĠED":9671,"Ġminus":9672,"ĠKorea":9673,"********":9674,"Ġcome":9675,"ĠEdison":9676,"ipe":9677,"Sales":9678,"Ġtissue":9679,"Ġtransferee":9680,"Ġtreatments":9681,"Ġvariability":9682,"aa":9683,"Ġmanufactures":9684,"ĠPRINCIPAL":9685,"Ġcontinuously":9686,"ĠProsp":9687,"Ġcancel":9688,"regulated":9689,"Ġqualifications":9690,"sers":9691,"ĠPotential":9692,"ĠAuto":9693,"Ġengagement":9694,"Amended":9695,"hab":9696,"ĠBur":9697,"Ġnonperforming":9698,"ĠEntertainment":9699,"traded":9700,"Ġsubstitution":9701,"ĠFannie":9702,"redu":9703,"osure":9704,"ECTED":9705,"Ġsometimes":9706,"power":9707,"carr":9708,"Ġdefine":9709,"Ġretrospectively":9710,"Ġaccretion":9711,"itizens":9712,"Ġlay":9713,"ĠISO":9714,"Ġquestions":9715,"inator":9716,"ĠHead":9717,"Ġmechanisms":9718,"Ġstabil":9719,"ĠSchool":9720,"Ġoverr":9721,"Ġcatastrop":9722,"Ġcarefully":9723,"ĠOrd":9724,"revenues":9725,"ĠJV":9726,"oling":9727,"ĠCommencement":9728,"ĠConsultant":9729,"emic":9730,"Ġperceived":9731,"ĠIssued":9732,"number":9733,"Ġpriced":9734,"ĠWholesale":9735,"Ġ[*]":9736,"Ġunaffiliated":9737,"Ġnormally":9738,"ĠPremium":9739,"MIC":9740,"ĠREQU":9741,"Ġfracturing":9742,"Ġaccruing":9743,"Ġauditor":9744,"Ġbodies":9745,"Ġbulk":9746,"unless":9747,"Ġninety":9748,"Ġproblem":9749,"criber":9750,"ams":9751,"Goodwill":9752,"flow":9753,"ĠFranc":9754,"eeping":9755,"Ġcomparative":9756,"ĠID":9757,"ĠCond":9758,"Ġquantity":9759,"ĠAlternative":9760,"Can":9761,"gating":9762,"Ġovers":9763,"ĠSubstantially":9764,"ĠFAC":9765,"Ġenactment":9766,"ĠIsrael":9767,"ORK":9768,"aters":9769,"Ġextending":9770,"Ġindependence":9771,"TON":9772,"Ġskills":9773,"Ġappropriately":9774,"ĠUncertain":9775,"ĠPlatform":9776,"Ġstop":9777,"Investment":9778,"respective":9779,"Ġrequesting":9780,"Ġdismissed":9781,"Be":9782,"Fore":9783,"ETS":9784,"Ġharmless":9785,"Ġundertaken":9786,"NH":9787,"Long":9788,"ĠReinsurance":9789,"tiliz":9790,"ichever":9791,"Ġpredecessor":9792,"Di":9793,"Val":9794,"Ġgradu":9795,"ĠLux":9796,"ĠCC":9797,"ĠSimilarly":9798,"Ġpools":9799,"Ġrecy":9800,"ĠContractual":9801,"exempt":9802,"Ġplc":9803,"ĠOFFICERS":9804,"Ġmen":9805,"ĠAge":9806,"Ġspend":9807,"ĠPfizer":9808,"FIN":9809,"Ġprejud":9810,"eness":9811,"lege":9812,"earnings":9813,"vocation":9814,"cepted":9815,"ĠSUMMARY":9816,"ĠIndian":9817,"car":9818,"Ġglob":9819,"ASU":9820,"ĠNEW":9821,"Ġshortf":9822,"ĠGain":9823,"Ġtal":9824,"Ġmotor":9825,"ray":9826,"ĠRoy":9827,"Ġcult":9828,"ĠWire":9829,"Ġease":9830,"ĠAlliance":9831,"Ġchem":9832,"rix":9833,"oline":9834,"ĠOCC":9835,"termination":9836,"ĠOpport":9837,"Ġdesire":9838,"ĠMinimum":9839,"Ġterritory":9840,"Ġvice":9841,"customer":9842,"April":9843,"fired":9844,"Ġconducts":9845,"ACH":9846,"ĠSpace":9847,"Ġstip":9848,"ĠFerrell":9849,"ulent":9850,"Ġpropane":9851,"ĠCHANGES":9852,"ĠSand":9853,"benefits":9854,"aly":9855,"Ġsecret":9856,"Own":9857,"ĠABL":9858,"Ġscreen":9859,"Ġhouse":9860,"ecuritiz":9861,"ĠAMENDMENT":9862,"alt":9863,"ĠRestrictions":9864,"losures":9865,"ustodian":9866,"Ġtowards":9867,"Officer":9868,"Ġdenial":9869,"Ġmutually":9870,"ursing":9871,"Ġcomprising":9872,"Bl":9873,"achment":9874,"ĠRelations":9875,"Ġclaimed":9876,"ĠREAL":9877,"Ġcategorized":9878,"Ġpenet":9879,"ĠNotices":9880,"debt":9881,"stall":9882,"Ġbroader":9883,"Ġassignee":9884,"competition":9885,"decrease":9886,"Ġranges":9887,"ĠOak":9888,"uminum":9889,"Ġpump":9890,"MIN":9891,"Ġinventions":9892,"ser":9893,"ĠPaper":9894,"produ":9895,"Federal":9896,"Ġsubscribers":9897,"Ġcompensated":9898,"Ġassociates":9899,"Ġconsistently":9900,"ican":9901,"ĠSBA":9902,"ĠDeed":9903,"compared":9904,"Ġethanol":9905,"Ġbeverage":9906,"ĠMutual":9907,"rence":9908,"ĠCarr":9909,"ĠBulletin":9910,"ĠSurv":9911,"Ġmetals":9912,"ĠAnge":9913,"Ġunderstood":9914,"Ġadopting":9915,"Ġfinalized":9916,"ĠCharles":9917,"Ġanimal":9918,"Ġlands":9919,"Ġton":9920,"viii":9921,"Ġconclusion":9922,"PMG":9923,"Ġenforced":9924,"Ġ(.":9925,"GS":9926,"acle":9927,"Dated":9928,"Ġefficiently":9929,"UCT":9930,"Ġenvironments":9931,"ĠCoal":9932,"Ġomission":9933,"bro":9934,"ouses":9935,"ĠEnd":9936,"oral":9937,"ĠMSR":9938,"Ġdental":9939,"uated":9940,"Ins":9941,"ĠCAL":9942,"ĠChris":9943,"...":9944,"Corporate":9945,"acco":9946,"fl":9947,"Contract":9948,"ĠCOSO":9949,"Ġrising":9950,"Ġinvoluntary":9951,"Ġalone":9952,"ĠDemand":9953,"agle":9954,"ĠRIC":9955,"ULES":9956,"ĠDU":9957,"Ġaccessories":9958,"Ġlessee":9959,"now":9960,"owners":9961,"distribution":9962,"Index":9963,"Ġavoidance":9964,"Ġcompetes":9965,"Ġpackage":9966,"Ġteams":9967,"BT":9968,"Ġapproving":9969,"perience":9970,"Competition":9971,"Ġsellers":9972,"ĠLocal":9973,"alog":9974,"mont":9975,"believe":9976,"ĠAssistant":9977,"mits":9978,"ĠFive":9979,"ĠBefore":9980,"ĠPoor":9981,"ĠTown":9982,"die":9983,"deferred":9984,"ĠDOE":9985,"\",":9986,"ĠCase":9987,"oreseen":9988,"ĠForce":9989,"Ġdistance":9990,"Ġ'":9991,"ĠCooper":9992,"ĠSERP":9993,"Ġadvised":9994,"Ġvacc":9995,"ĠRoom":9996,"uctuations":9997,"Ġcooperate":9998,"Each":9999,"Ġever":10000,"rex":10001,"ĠBALANCE":10002,"Ġwr":10003,"Benef":10004,"ĠRental":10005,"ĠMargin":10006,"========":10007,"ĠPredecessor":10008,"Ġlatest":10009,"ĠTel":10010,"amation":10011,"either":10012,"ano":10013,"liest":10014,"Ġmus":10015,"NS":10016,"Ġinjunctive":10017,"stantial":10018,"ONS":10019,"Ġobserved":10020,"owa":10021,"polic":10022,"Ġheavily":10023,"tenant":10024,"ĠNu":10025,"Ġdeclaration":10026,"case":10027,"Ġprivileges":10028,"ĠProceeding":10029,"ĉĉĉ":10030,"Ġvigorously":10031,"itzerland":10032,"ĠPatents":10033,"ĠTai":10034,"forementioned":10035,"Ġprospectus":10036,"Ġpublicity":10037,"ĠHI":10038,"Ġdiesel":10039,"ĠOTTI":10040,"Ġinformed":10041,"Qual":10042,"depos":10043,"Ġsubdivision":10044,"Ġprinciple":10045,"Ġreact":10046,"continue":10047,"Ġmerged":10048,"Ġetc":10049,"ĠNGLs":10050,"PD":10051,"method":10052,"Ġhydraulic":10053,"ĠAv":10054,"Ġconnected":10055,"era":10056,"ĠSite":10057,"ĠFL":10058,"Ġdomain":10059,"ĠConcent":10060,"Ġsectors":10061,"potential":10062,"Ġrelied":10063,"ĠPlaintiff":10064,"amin":10065,"Ġexpectation":10066,"asset":10067,"ĠCE":10068,"leg":10069,"Ġencounter":10070,"ĠAbb":10071,"gative":10072,"Ġrecon":10073,"comb":10074,"Ġanalog":10075,"urricane":10076,"Ġvoice":10077,"Ġlegacy":10078,"Ġanalyze":10079,"Ġbegins":10080,"Ġpanel":10081,"Ġshelf":10082,"ĠWA":10083,"Ġchairman":10084,"first":10085,"ĠLIMITED":10086,"cumstances":10087,"usal":10088,"ĠAOCI":10089,"recourse":10090,"ym":10091,"SB":10092,"ĠRO":10093,".:":10094,"Ġacknowledged":10095,"Ġquotes":10096,"ĠINVEST":10097,"Ġsubcontractors":10098,"ourg":10099,"WHER":10100,"aste":10101,"ĠFloor":10102,"ĠSwingline":10103,"Ġcapitalize":10104,"Ġpayables":10105,"ignment":10106,"previously":10107,"uro":10108,"With":10109,"ĠTM":10110,"ĠSolar":10111,"Ġincurrence":10112,"atement":10113,"notes":10114,"ĠTECHN":10115,"Ġundercapitalized":10116,"eration":10117,"ĠDefined":10118,"Ġnation":10119,"Ġinterstate":10120,"Ġenterprises":10121,"Ġupgrades":10122,"Ġemergency":10123,"irs":10124,"Ġliquids":10125,"TV":10126,"itness":10127,"Ġearthqu":10128,"Ġpurported":10129,"Ġrelocation":10130,"note":10131,"ĠCertificates":10132,"facility":10133,"Ġlists":10134,"Ġsurve":10135,"ĠIL":10136,"purposes":10137,"Ġelectronics":10138,"Ġcontingency":10139,"cf":10140,"ĠDiscontinued":10141,"ĠNOW":10142,"ĠAircraft":10143,"ĠGEN":10144,"Ġsupervisory":10145,"athe":10146,"Ġtransact":10147,"Gr":10148,"Ġmarine":10149,"ĠGM":10150,"ĠRMBS":10151,"Ġminutes":10152,"ĠBal":10153,"Annual":10154,"avig":10155,"Ġdiversification":10156,"ULATION":10157,"Ġingredients":10158,"Ġindefinitely":10159,"Ġdetected":10160,"ĠFFO":10161,"Ġcompensate":10162,"ĠREITs":10163,"Ġassembly":10164,"ĠAutomotive":10165,"Ġmac":10166,"Ġappraisals":10167,"ĠDrive":10168,"Ġwaives":10169,"eered":10170,"Ġengineers":10171,"ĠAdjustments":10172,"ssue":10173,"ĠTer":10174,"Cr":10175,"Ġdeducti":10176,"Ġcorro":10177,"Bu":10178,"Ġconsummate":10179,"Ġtext":10180,"ĠDIRECTORS":10181,"Ġupdates":10182,"ĠTHEREFORE":10183,"Ġrefunds":10184,"anese":10185,"purch":10186,"ellon":10187,"la":10188,"Ġadjacent":10189,"eem":10190,"ashion":10191,"ulations":10192,"ĠScott":10193,"Ġcontest":10194,"ĠTransition":10195,"Ġbacked":10196,"vised":10197,"Ġpenny":10198,"Ġsyner":10199,"Ġunderstands":10200,"Ġmg":10201,"ĠTw":10202,"ĠLEG":10203,"ĠExpected":10204,"ceptance":10205,"Ġautomated":10206,"ascular":10207,"Ġgames":10208,"Ġmerits":10209,"Ġdrivers":10210,"ĠItaly":10211,"reference":10212,"ĠNominating":10213,"Ġcaution":10214,"yme":10215,"Research":10216,"ĠINDEX":10217,"ĠPur":10218,"olitan":10219,"Ġsupplied":10220,"asures":10221,"ĠInterpretation":10222,"Ġtow":10223,"ĠSmaller":10224,"ĠFord":10225,"Sell":10226,"Ġdex":10227,"REPORT":10228,"Ġincorporates":10229,"ĠPractices":10230,"embourg":10231,"Ġterritories":10232,"Ġwhichever":10233,"Ġcopyright":10234,"Ġsusce":10235,"ĠAdviser":10236,"Ġdiscontinue":10237,"gregated":10238,"Ġclaimant":10239,"Ġnonqualified":10240,"Ġtemper":10241,"Ġreferenced":10242,"FASB":10243,"adjust":10244,"Ġraising":10245,"ĠNOT":10246,"ubs":10247,"Ġequally":10248,"ĠVehic":10249,"Ġcaptions":10250,"ĠCONSENT":10251,"REDIT":10252,"Ġpossibly":10253,"ica":10254,"Ġmarked":10255,"Ġnearly":10256,"Ġmotiv":10257,"Shares":10258,"ĠAsh":10259,"Ġequals":10260,"Ġoriginate":10261,"Ġlandlord":10262,"Ġformat":10263,"Ġsam":10264,"ĠINTERNATIONAL":10265,"Ġinterfere":10266,"Ġformulation":10267,"Loan":10268,"ĠProfessional":10269,"ĠSim":10270,"Ġcompetitor":10271,"ĠGaming":10272,"Ġbuyers":10273,"Ġadap":10274,"Ġaforementioned":10275,"Ġtrustees":10276,"Ġcollaborations":10277,"enez":10278,"Ġpun":10279,"Ġclarifies":10280,"identif":10281,"Ġexisted":10282,"Ġparcel":10283,"Ġvotes":10284,"Ġadvisable":10285,"Ġdrilled":10286,"Ġinure":10287,"osen":10288,"keeping":10289,"gered":10290,"Ġearliest":10291,"Source":10292,"Ġfifteen":10293,"South":10294,"JM":10295,"xi":10296,"Ġovernight":10297,"ĠAggregate":10298,"Ġlanguage":10299,"VEN":10300,"ĠFirstEnergy":10301,"via":10302,"Ġfraudulent":10303,"oche":10304,"Ġaver":10305,"Ġdesigning":10306,"Ġsupplements":10307,"Restricted":10308,"ona":10309,"Looking":10310,"Ġgen":10311,"ĠREFER":10312,"Ġexercising":10313,"Ġhydroc":10314,"ĠObligor":10315,"Ġshortages":10316,"Ġbatter":10317,"Ġineffective":10318,"ĠTECHNOL":10319,"WHEREAS":10320,"ĠNC":10321,"guarant":10322,"ĠCommerce":10323,"Ġpractical":10324,"Ġapproaches":10325,"HEN":10326,"PU":10327,"Statement":10328,"Ġbarr":10329,"ĠCB":10330,"follow":10331,"AGREE":10332,"Sec":10333,"ĠPenn":10334,"Ġunreasonably":10335,"respons":10336,"procedures":10337,"Ġlif":10338,"using":10339,"Ġspeculative":10340,"writing":10341,"ĠPrograms":10342,"Ġrecall":10343,"Ġsequ":10344,"Ġcomplaints":10345,"Depreciation":10346,"ifts":10347,"executive":10348,"opers":10349,"ki":10350,"Ġsurch":10351,"ĠStrategic":10352,"ĠJack":10353,"ruption":10354,"Ġtransp":10355,"West":10356,"IX":10357,"ARP":10358,"Ġdiscuss":10359,"Ġcampaign":10360,"Ġask":10361,"ĠRespons":10362,"gery":10363,"shire":10364,"currency":10365,"Ġchallenged":10366,"Ġdeferrals":10367,"ABIL":10368,"ĠPOWER":10369,"ICO":10370,"Ġconservation":10371,"Dis":10372,"Ġcorrel":10373,"high":10374,"Ġallocable":10375,"laim":10376,"Ġstress":10377,"Ġconfirmed":10378,"ĠProgress":10379,"enezuel":10380,"Ġunsuccessful":10381,"ensor":10382,"accounts":10383,"ush":10384,"PE":10385,"ĠFourth":10386,"ĠTou":10387,"Ġdeliveries":10388,"://":10389,"areness":10390,"Ġhiring":10391,"Ġeducational":10392,"ecting":10393,"isis":10394,"evalu":10395,"ĠAdvanced":10396,"ĠCompar":10397,"Ġevidencing":10398,"Address":10399,"ĠNetworks":10400,"ĠNEO":10401,"lab":10402,"allowance":10403,"ĠVII":10404,"FR":10405,"ros":10406,"ĠOpinion":10407,"ĠProvision":10408,"Ġliquidated":10409,"Ġlear":10410,"Ġnovel":10411,"thetic":10412,"Ġtrigg":10413,"initi":10414,"regard":10415,"etit":10416,"ainst":10417,"ĠEagle":10418,"leted":10419,"Ġincurring":10420,"itrogen":10421,"Ġcreditor":10422,"ĠTest":10423,"ĠCouncil":10424,"Mat":10425,"ails":10426,"Ġsubsid":10427,"ĠMellon":10428,"charge":10429,"ĠSHEETS":10430,"Ġtroubled":10431,"Ġsucceeding":10432,"ĠAustralian":10433,"habilit":10434,"Ġinjection":10435,"ĠCat":10436,"ĠAgents":10437,"[***]":10438,"ka":10439,"ĠFamily":10440,"Ġperpetual":10441,"quencies":10442,"ĠHarr":10443,"Ġsimult":10444,"ĠDR":10445,"ĠPep":10446,"Ġconventional":10447,"Out":10448,"Ġintegrating":10449,"contracts":10450,"ARR":10451,"mar":10452,"utin":10453,"ĠDespite":10454,"ĠNOLs":10455,"Ġbudg":10456,"gineered":10457,"inte":10458,"Ġaid":10459,"ĠFA":10460,"Joh":10461,"ĠInfr":10462,"ĠDefinitions":10463,"ĠLEGAL":10464,"Ġprec":10465,"Ġcomplementary":10466,"Care":10467,"Ġexperiences":10468,"IZ":10469,"Ġprevented":10470,"estone":10471,"ĠKr":10472,"ends":10473,"ĠOUR":10474,"Ġcomposed":10475,"Amounts":10476,"Ġnetting":10477,"Ġmig":10478,"Ġprudent":10479,"hai":10480,"ipping":10481,"ĠVariable":10482,"Ġhar":10483,"STAR":10484,"Ġtemporarily":10485,"SOE":10486,"artis":10487,"Ġinitiative":10488,"Ġobligor":10489,"Ġupgrade":10490,"dum":10491,"eek":10492,"ĠThree":10493,"transaction":10494,"Ġattempts":10495,"arrow":10496,"Ġoverse":10497,"Ġdup":10498,"EFIC":10499,"ĠLNG":10500,"ĠWy":10501,"Ġacquires":10502,"cence":10503,"Large":10504,"ĠAmb":10505,"ĠKPMG":10506,"billed":10507,"Coopers":10508,"ĠSEL":10509,"ĠStanley":10510,"Ġrefinery":10511,"paragraph":10512,"sponsored":10513,"que":10514,"described":10515,"Ġsusceptible":10516,"Ġworks":10517,"ĠPersonal":10518,"ĠPURCHAS":10519,"added":10520,"houseCoopers":10521,"Ġbroadband":10522,"ĠHA":10523,"lanta":10524,"ĠANNUAL":10525,"ishes":10526,"Results":10527,"ĠRevolver":10528,"Invent":10529,"those":10530,"Ġpeak":10531,"outhern":10532,"Ġprovisional":10533,"Ġgall":10534,"ĠAccording":10535,"ĠMining":10536,"transfer":10537,"Ġconstructed":10538,"Ste":10539,"Ġextraordinary":10540,"Ġdefendant":10541,"pread":10542,"---":10543,"ĠĠĠĠĠĠĠĠĠĠĠĠĠĠĠĠĠĠĠĠĠĠĠĠĠĠĠĠĠĠĠĠĠĠĠ":10544,"Ġeth":10545,"ATES":10546,"ĠFoods":10547,"ĠThus":10548,"ows":10549,"Ġdeducting":10550,"Ġfuels":10551,"Foreign":10552,"ĠCenters":10553,"account":10554,"ĠElectronics":10555,"Ġfractional":10556,"itude":10557,"uities":10558,"ĠPSUs":10559,"received":10560,"erved":10561,"ĠBureau":10562,"Ġthresholds":10563,"Ġinjunction":10564,"ĠTem":10565,"Loans":10566,"waterhouseCoopers":10567,"ĠCONFIDENTIAL":10568,"ĠLE":10569,"ĠFreddie":10570,"ĠMartin":10571,"below":10572,"udget":10573,"ĠIts":10574,"Ġwage":10575,"ĠParti":10576,"ĠOWNERSHIP":10577,"Ġdownward":10578,"Ġdivestiture":10579,"aggregate":10580,"Ġfilm":10581,"Ġincidental":10582,"audit":10583,"ĠRegional":10584,"between":10585,"Ġunpredict":10586,"Liquidity":10587,"Ġrepeal":10588,"tifamily":10589,"Point":10590,"ĠPNC":10591,"Govern":10592,"when":10593,"arrange":10594,"ĠSUCH":10595,"ĠĠĠĠĠĠĠĠĠĠĠĠĠĠĠčĊ":10596,"oe":10597,"ĠBridge":10598,"Ġreceiver":10599,"ĠEXHIBITS":10600,"Ġ...":10601,"ĠLos":10602,"allas":10603,"bered":10604,"ĠNJ":10605,"Ġheadings":10606,"adversely":10607,"wealth":10608,"Ġspectrum":10609,"ĠLG":10610,"Ġtrail":10611,"FF":10612,"Ġdevelops":10613,"lose":10614,"Ġacquirer":10615,"ented":10616,"ĠASSE":10617,"Ġpros":10618,"Life":10619,"Ġarticles":10620,"ĠSpin":10621,"Ġdebit":10622,"brid":10623,"ĠPty":10624,"Ġadministrator":10625,"ĠMM":10626,"ĠĠĠĠĠĠĠĠĠĠĠĠĠĠĠĠĠĠĠĠĠĠĠĠĠĠ":10627,"BRA":10628,"ALS":10629,"Orig":10630,"Ġancillary":10631,"elon":10632,"Ġrelies":10633,"Ġglobally":10634,"Ġmerit":10635,"Ġtook":10636,"Ġmarks":10637,"oup":10638,"loitte":10639,"ĠTru":10640,"ĠScience":10641,"Ġinaccurate":10642,"Ġdiscip":10643,"ĠCalculation":10644,"ĠGoverning":10645,"ĠIB":10646,"Ġtract":10647,"circumstances":10648,"Ġroll":10649,"rophic":10650,"ĠHazardous":10651,"ONE":10652,"Ġmisappropri":10653,"omen":10654,"Ġsynergies":10655,"Ġquotations":10656,"Supp":10657,"Ġexclusion":10658,"ĠSteven":10659,"Ġsolicit":10660,"inder":10661,"ĠPD":10662,"Ġrevocation":10663,"relating":10664,"commerce":10665,"Ġinspections":10666,"ĠIntegr":10667,"Ġseal":10668,"facilities":10669,"ligh":10670,"Ġdevelopers":10671,"erate":10672,"ĠTaiwan":10673,"Ġcomprise":10674,"Ġdelinquency":10675,"Ġdecided":10676,"WE":10677,"Ġemployers":10678,"ĠFerrellgas":10679,"PI":10680,"Security":10681,"obs":10682,"Ġclassify":10683,"ITS":10684,"refund":10685,"ĠGre":10686,"Ġrecommended":10687,"ĠSix":10688,"Ġplease":10689,"Ġmolec":10690,"Ġfulfillment":10691,"Ġendpoint":10692,"Ġawareness":10693,"ĠRMB":10694,"instruments":10695,"mediately":10696,"venth":10697,"Ġfields":10698,"ĠIssue":10699,"ĠDS":10700,"regon":10701,"ĠBoe":10702,"ĠBB":10703,"ĠJoseph":10704,"Ġchoice":10705,"Ġdry":10706,"ĠVenezuel":10707,"ĠComponents":10708,"Ġalternate":10709,"Ġdeliverable":10710,"ORD":10711,"ĠREFERENCE":10712,"Although":10713,"ze":10714,"ĠFranch":10715,"door":10716,"ĠDisposition":10717,"Ġsugg":10718,"regarding":10719,"Ġoccasion":10720,"review":10721,"inity":10722,"Lease":10723,"ĠLAB":10724,"Ġrecapital":10725,"ĠRegarding":10726,"atisf":10727,"Ġapplicant":10728,"Ġsurety":10729,"annually":10730,"ĠReorganization":10731,"fidential":10732,"ĠCollaboration":10733,"Ġviolated":10734,"erry":10735,"ĠFACTORS":10736,"ĠCross":10737,"usive":10738,"ĠFinally":10739,"Ġdeployment":10740,"ĠStation":10741,"ĠBENEFIC":10742,"Ġcontributing":10743,"stein":10744,"Ag":10745,"Ġcrisis":10746,"consuming":10747,"Ġremedial":10748,"Ġends":10749,"Ġmachinery":10750,"ĠTV":10751,"two":10752,"ĠAppreciation":10753,"ĠSuperior":10754,"ĠElectronic":10755,"olio":10756,"Da":10757,"Ġaccepting":10758,"lick":10759,"ĠMaximum":10760,"Ġunderground":10761,"default":10762,"uan":10763,"sd":10764,"ĠRA":10765,"Ġrigs":10766,"ĠAssess":10767,"ĠWorking":10768,"Ġmentioned":10769,"ĠMAY":10770,"Ġrenov":10771,"Ġrestructured":10772,"three":10773,"ĠATM":10774,"Ġinstability":10775,"ismic":10776,"ĠPostretirement":10777,"ĠIdentification":10778,"tario":10779,"periods":10780,"Ġmerge":10781,"Ġbarrels":10782,"Ġrevision":10783,"Ġgift":10784,"Ġpermissible":10785,"Ġprejudice":10786,"ompanied":10787,"Ġplaces":10788,"ĠOCI":10789,"Ġore":10790,"Ġqualifies":10791,"Ġrentals":10792,"Ġabsent":10793,"Ġarchitect":10794,"federal":10795,"Aud":10796,"Ġfocuses":10797,"Ref":10798,"ips":10799,"ophistic":10800,"ĠPROCED":10801,"warrant":10802,"ĠLas":10803,"Ġcut":10804,"ĠEvaluation":10805,"Ġpace":10806,"Ġproven":10807,"apers":10808,"project":10809,"ĠLogistics":10810,"ĠMineral":10811,"PO":10812,"technology":10813,"inees":10814,"ĠLyn":10815,"Code":10816,"Ġwareh":10817,"Ġinstance":10818,"demand":10819,"isons":10820,"Ġfullest":10821,"Ġparking":10822,"Ġdistinct":10823,"Ġourselves":10824,"Ġindices":10825,"forfe":10826,"ĠPCA":10827,"Ġmanagerial":10828,"Ġoutput":10829,"Ġtaxed":10830,"Mich":10831,"Ġtypical":10832,"Spec":10833,"ĠSegments":10834,"uries":10835,"ĠWorldwide":10836,"ĠSharing":10837,"ĠArm":10838,"ĠSwitzerland":10839,"Ġaccumul":10840,"Ġidentity":10841,"ĠPeople":10842,"Ġsuits":10843,"Ġaggressive":10844,"yne":10845,"Ġreinsurers":10846,"ĠCall":10847,"ĠSwap":10848,"exchange":10849,"Ġiron":10850,"ita":10851,"ĠUsed":10852,"ĠPRESENTATION":10853,"Ġdamaged":10854,"ĠMerck":10855,"Ġbillings":10856,"Ġevol":10857,"Ġpredominant":10858,"ĠPayable":10859,"Ġscrutin":10860,"ĠSupplier":10861,"Series":10862,"Ġadjustable":10863,"ĠRIGH":10864,"life":10865,"Ġenabling":10866,"Ġsourcing":10867,"Ġseverally":10868,"ARN":10869,"ĠCORPORATE":10870,"ĠCREDIT":10871,"Ġspe":10872,"orders":10873,"vesting":10874,"ops":10875,"ĠDominion":10876,"Performance":10877,"arios":10878,"ĠDUKE":10879,"ĠCommodity":10880,"olvent":10881,"cling":10882,"ĠTC":10883,"Ġcoupled":10884,"Ġcreates":10885,"ategory":10886,"Prior":10887,"portf":10888,"Ġcaps":10889,"Ġperception":10890,"Ġlook":10891,"collateral":10892,"Ġnegotiation":10893,"Service":10894,"Ġdecree":10895,"ĠIowa":10896,"Ġengines":10897,"Ġsophistic":10898,"Ġexpert":10899,"fficers":10900,"herein":10901,"Ġbuying":10902,"ĠDISCLOSURE":10903,"ederally":10904,"RST":10905,"antif":10906,"mart":10907,"Ġordered":10908,"ĠMad":10909,"ĠĠĠĠĠĠĠĠĠĠĠĠĠĠĠĠĠĠĠĠĠĠĠĠĠĠĠĠĠĠĠĠĠ":10910,"stockholders":10911,"Ġdiversion":10912,"Ġlev":10913,"Ġapparel":10914,"ĠMatching":10915,"ĠPlacement":10916,"orrect":10917,"eemable":10918,"prof":10919,"inge":10920,"ĠCommittees":10921,"equivalent":10922,"Ġlicensee":10923,"ĠSpain":10924,"ĠAssignee":10925,"ĠPlains":10926,"generation":10927,"factors":10928,"Ġparam":10929,"Artic":10930,"Ġnationally":10931,"ĠFEES":10932,"Ġgasoline":10933,"ickback":10934,"ĠSuccessor":10935,"Ġencumbr":10936,"Guarant":10937,"ĠAMENDED":10938,"Ġsimulation":10939,"assumptions":10940,"Ġforwards":10941,"theast":10942,"cean":10943,"Ġsublicense":10944,"**]":10945,"Group":10946,"Ġcanceled":10947,"Ġregistrations":10948,"Ġmass":10949,"Ġdeep":10950,"Ġomissions":10951,"provision":10952,"Ġwinding":10953,"SIVE":10954,"Ġstopp":10955,"ĠUntil":10956,"Ġexpands":10957,"ptive":10958,"LD":10959,"ĠGuaranteed":10960,"Borrower":10961,"ĠPurchasers":10962,"islation":10963,"Ġpredic":10964,"Ġphantom":10965,"ĠDaniel":10966,"Ġdiscourage":10967,"Ġretains":10968,"Ġheavy":10969,"Ġdepartments":10970,"payable":10971,"Ġsmart":10972,"impro":10973,"book":10974,"Commercial":10975,"ĠFoundation":10976,"Ġfavorably":10977,"ĠJurisdiction":10978,"ĠAngeles":10979,"ĠCoverage":10980,"Ġuniform":10981,"Ġunforeseen":10982,"Ġfashion":10983,"ĠPledge":10984,"olation":10985,"ĠBANCORP":10986,"Employment":10987,"uous":10988,"May":10989,"Ġinvoice":10990,"ĠPRE":10991,"ĠJones":10992,"veloper":10993,"ĠPharma":10994,"Ġdecreasing":10995,"ĠInputs":10996,"tilizer":10997,"istance":10998,"omet":10999,"ba":11000,"follows":11001,"arri":11002,"Ġoutsourcing":11003,"ĠActivity":11004,"ĠDebtor":11005,"cology":11006,"ĠTN":11007,"ĠAffiliated":11008,"Ġheating":11009,"ĠHun":11010,"ĠConsideration":11011,"Ġhazard":11012,"UTIC":11013,"ĠUnsecured":11014,"Party":11015,"ĠHeld":11016,"heast":11017,"ĠPARTY":11018,"inanced":11019,"ĠSignature":11020,"Ġunus":11021,"bles":11022,"ij":11023,"Ġarises":11024,"Ġsituated":11025,"ĠVested":11026,"ĠTor":11027,"culated":11028,"Ġreset":11029,"above":11030,"Ġroad":11031,"ĠVSOE":11032,"Ġstem":11033,"itments":11034,"ĠPharm":11035,"ĠExpiration":11036,"ĠIntangibles":11037,"habilitation":11038,"ĠKen":11039,"oring":11040,"ĠPJM":11041,"ĠCERTIFIC":11042,"ĠDIRECTOR":11043,"ĠChannel":11044,"orum":11045,"ĠSUPPLEMENTARY":11046,"Ġfeasibility":11047,"ĠCivil":11048,"ula":11049,"Ġexperiencing":11050,"John":11051,"ATING":11052,"Ġservicer":11053,"ĠSUBSIDIARY":11054,"Ġdepletion":11055,"ĠPriority":11056,"ilian":11057,"Ġ(),":11058,"pocket":11059,"ĠARS":11060,"Ġconsultation":11061,"Ġmacro":11062,"ĠPROCEDURES":11063,"Ġeigh":11064,"ĠAU":11065,"Ġ---------":11066,"Ġblank":11067,"ĠMobile":11068,"ĠArbitration":11069,"Incre":11070,"Ġsurgical":11071,"August":11072,"Ġlive":11073,"bal":11074,"mail":11075,"ĠOregon":11076,"rozen":11077,"ĠControlled":11078,"Ġconsiderable":11079,"ĠBEEN":11080,"ĠPromissory":11081,"Ġindicator":11082,"Ġliquidate":11083,"ANTI":11084,"Ġaccompanied":11085,"ĠCovenants":11086,"iter":11087,"Ġextr":11088,"Ġcount":11089,"ĠDeuts":11090,"ĠWH":11091,"ĠTelec":11092,"Ġimmun":11093,"Ġunions":11094,"ĠPhys":11095,"coun":11096,"ĠStorage":11097,"ĠInstitution":11098,"Current":11099,"Ġdelivers":11100,"NEY":11101,"itored":11102,"ĠWireless":11103,"Ġorphan":11104,"Ġcompare":11105,"Subsidiaries":11106,"Ġattainment":11107,"akota":11108,"bury":11109,"Ġbiological":11110,"ĠIsland":11111,"exercise":11112,"emoran":11113,"ĠCamp":11114,"ĠSAF":11115,"Ġaluminum":11116,"Risks":11117,"ĠORE":11118,"Ġbrief":11119,"equipment":11120,"Docu":11121,"ĠFrancisco":11122,"ĠMerch":11123,"ĠCT":11124,"leases":11125,"xsd":11126,"Ġleader":11127,"Ġrestatement":11128,"ĠVegas":11129,"/(":11130,"exercised":11131,"Ġalleges":11132,"Ġappeals":11133,"Ġimaging":11134,"KR":11135,"athered":11136,"OSS":11137,"Ġmal":11138,"ĠContingent":11139,"ĠCOMMIT":11140,"ĠCel":11141,"ĠBest":11142,"both":11143,"lical":11144,"Ġdrill":11145,"Ġabuse":11146,"Health":11147,"ĠCollege":11148,"Ġconcessions":11149,"CONTINUED":11150,"ĠExploration":11151,"take":11152,"make":11153,"inking":11154,"Change":11155,"Ġcatastrophe":11156,"ĠAssumption":11157,"Ġamortize":11158,"PAA":11159,"Ġterminals":11160,"States":11161,"store":11162,"foreign":11163,"Ġunderwritten":11164,"Sum":11165,"Ġthemselves":11166,"WC":11167,"OLVED":11168,"verted":11169,"ĠCommonwealth":11170,"ĠStephen":11171,"Ġhtt":11172,"ĠIPL":11173,"emorandum":11174,"Ġstead":11175,"ancies":11176,"Ġmultiples":11177,"ĠIncreased":11178,"Ġcasino":11179,"mond":11180,"Ġdespite":11181,"ydro":11182,"Ġclaiming":11183,"tah":11184,"Ġestimable":11185,"osci":11186,"Gross":11187,"Ġprolong":11188,"GA":11189,"Ġbox":11190,"roy":11191,"Ġoptimize":11192,"Ġweaken":11193,"Ġsituation":11194,"Consent":11195,"Ġcompletely":11196,"INC":11197,"Ġsuffered":11198,"Ġcleanup":11199,"tw":11200,"anghai":11201,"alk":11202,"Ġpreclude":11203,"Ġobtains":11204,"uth":11205,"Ġnarrow":11206,"ĠCAR":11207,"Ġdatabase":11208,"Ġvariables":11209,"ĠDesignation":11210,"ATIONSHIP":11211,"ĠLuxembourg":11212,"Ġdiscrete":11213,"Ġbott":11214,"receiv":11215,"Ġfindings":11216,"otherapy":11217,"ĠJO":11218,"July":11219,"kin":11220,"Ġexpressions":11221,"ĠSELECTED":11222,"construction":11223,"Ġvulnerable":11224,"ĠSEP":11225,"opharmaceutical":11226,"ĠGraph":11227,"Ġdisaster":11228,"ĠSy":11229,"Ġtrucks":11230,"Ġtrain":11231,"Ġflexible":11232,"ĠMexican":11233,"NR":11234,"Ġleveraged":11235,"ista":11236,"ĠAtlanta":11237,"atric":11238,"ffer":11239,"ĠBlackstone":11240,"ĠBENEFICIAL":11241,"incurred":11242,"Acquisition":11243,"advantage":11244,"olescence":11245,"Ġprosec":11246,"ĠPI":11247,"ĠArgent":11248,"Ġpatented":11249,"Ġoversee":11250,"scale":11251,"Ġtreating":11252,"Issu":11253,"ĠDepending":11254,"urricanes":11255,"Ġunearned":11256,"................................................................":11257,"Ġelections":11258,"Corp":11259,"Ġcured":11260,"Ġmechanical":11261,"Ġscenarios":11262,"Ġpredicted":11263,"corporate":11264,"Ġoccupied":11265,"Ġtariffs":11266,"Ġfinite":11267,"ĠRecord":11268,"ounder":11269,"ĠOEMs":11270,"ĠIM":11271,"Ġfulf":11272,"ĠDefense":11273,"Ġincorrect":11274,"Ġu":11275,"GMP":11276,"iang":11277,"Ġpress":11278,"Ġ);":11279,"written":11280,"Ġreclassifications":11281,"Ġproduces":11282,"week":11283,"ĠScientific":11284,"Ġnominee":11285,"FL":11286,"Ġcomments":11287,"Dividend":11288,"Ġpolicyholders":11289,"Ġadvertise":11290,"Ġenhancement":11291,"label":11292,"Ġnews":11293,"exvw":11294,"Ġcertifies":11295,"ĠĠĠĠĠĠĠĠĠĠĠĠĠĠĠĠĠĠĠĠĠĠĠĠĠ":11296,"Ġfault":11297,"ificance":11298,"ĠABOUT":11299,"Ġrev":11300,"orge":11301,"Filed":11302,"ĠPROCEEDINGS":11303,"ĠDeloitte":11304,"Ġven":11305,"ĠExpenditures":11306,"voke":11307,"consid":11308,"Ġcapture":11309,"del":11310,"AFF":11311,"ĠYour":11312,"tinent":11313,"Option":11314,"Ġconfig":11315,"Ġdeducted":11316,"segment":11317,"abs":11318,"Additionally":11319,"ĠPE":11320,"Ġer":11321,"Ġunpredictable":11322,"Ġhired":11323,"Power":11324,"icians":11325,"Ġmonitored":11326,"Ġbrokered":11327,"apped":11328,"ĠWilliams":11329,"Ġnothing":11330,"Coll":11331,"Ġresidents":11332,"return":11333,"Ġunrestricted":11334,"Ġemphasis":11335,"Ġrefusal":11336,"ĠCable":11337,"Ġscrutiny":11338,"Ġminerals":11339,"Ġemail":11340,"Ġready":11341,"ĠMerc":11342,"Ġ-),":11343,"Ġseismic":11344,"ĠRates":11345,"anding":11346,"Ġpresum":11347,"lief":11348,"ĠPan":11349,"AW":11350,"refundable":11351,"Ġcustomized":11352,"dens":11353,"Ġstating":11354,"ĠSCHEDULES":11355,"vironment":11356,"ĠBudget":11357,"Ġther":11358,"Ġtool":11359,"ĠISSUER":11360,"utiliz":11361,"Int":11362,"Ġacute":11363,"Appro":11364,"Ġinfringing":11365,"Ġfast":11366,"Integrated":11367,"International":11368,"Ġdepreci":11369,"ĠRELATIONSHIP":11370,"cers":11371,"ĠTower":11372,"ĠAtlantic":11373,"ĠMillion":11374,"Ġsulf":11375,"lower":11376,"ĠWM":11377,"ĠExpansion":11378,"Ġnonrecurring":11379,"VIE":11380,"eli":11381,"Ġcondensed":11382,"awn":11383,"compete":11384,"money":11385,"recognition":11386,"Ġsums":11387,"prom":11388,"dealers":11389,"Ġopposed":11390,"manufacturing":11391,"Ġillust":11392,"ĠRequest":11393,"ĠPortions":11394,"ĠIncrease":11395,"Ġtrigger":11396,"David":11397,"Ġmoving":11398,"Ġaccre":11399,"plans":11400,"Ġaim":11401,"eligible":11402,"Ġheirs":11403,"Ġmailed":11404,"imination":11405,"ĠSTOCKHOLDERS":11406,"Ġprotecting":11407,"ĠBer":11408,"Ġpersu":11409,"Ġnutr":11410,"eline":11411,"Ġhttp":11412,"Ġmachines":11413,"Ġtail":11414,"Ġaddressing":11415,"Ġgrew":11416,"agers":11417,"Ġalliances":11418,"owner":11419,"ecuritization":11420,"aza":11421,"ĠNM":11422,"ademic":11423,"Ġlot":11424,"oto":11425,"ĠDeposits":11426,"Ġadvertisers":11427,"Ġconditional":11428,"availability":11429,"Ġpul":11430,"Ġdead":11431,"Ġreplacements":11432,"Recent":11433,"enger":11434,"ĠTrial":11435,"Ġbreached":11436,"endor":11437,"Ġoptional":11438,"Ġexcessive":11439,"Ġoutlined":11440,"ĠPledged":11441,"ĠWill":11442,"Ġdiffers":11443,"Ġstructural":11444,"SUR":11445,"Ġhon":11446,"Ġnominal":11447,"Ġbio":11448,"China":11449,"amond":11450,"ĠBeach":11451,"ĠPROPERTY":11452,"ĠMarine":11453,"Ġinstituted":11454,"ĠInterim":11455,"ĠDallas":11456,"ĠPROV":11457,"Ġresident":11458,"Ġmitigation":11459,"competitive":11460,"elected":11461,"ĠExcluded":11462,"ĠJapanese":11463,"portfolio":11464,"urable":11465,"ĠProcessing":11466,"ĠSeveral":11467,"akers":11468,"laint":11469,"Ġparameters":11470,"atility":11471,"Ġsurrendered":11472,"Ġscal":11473,"Ġcatastrophic":11474,"Ġ$(.)":11475,"Ġundue":11476,"ĠCOBRA":11477,"Ġsufficiently":11478,"Ġannouncement":11479,"Ġfederally":11480,"proportion":11481,"ĠBN":11482,"Ġunconditionally":11483,"ossible":11484,"green":11485,"Ġtumor":11486,"ĠĠĠĠĠĠĠĠĠĠĠĠĠĠĠĠĠčĊ":11487,"Ġprosecution":11488,"Ġmess":11489,"ĠHV":11490,"ĠTechnical":11491,"ĠModel":11492,"Ġcalling":11493,"ĠDakota":11494,"iding":11495,"ĠINS":11496,"Ġenforcing":11497,"ĠHen":11498,"urs":11499,"Ġattracting":11500,"ĠSL":11501,"Assets":11502,"Ġcompromise":11503,"oms":11504,"ĠDealer":11505,"ĠPricewaterhouseCoopers":11506,"Ġnavig":11507,"truction":11508,"Ġoriginations":11509,"uctible":11510,"oxide":11511,"Ġnursing":11512,"ĠDeath":11513,"Ġdisbursements":11514,"Ear":11515,"lights":11516,"Ġconditioned":11517,"ĠIF":11518,"ĠDetermin":11519,"ensors":11520,"timate":11521,"sumed":11522,"Ġtied":11523,"against":11524,"Ġfill":11525,"ĠLeasing":11526,"Rock":11527,"ĠRay":11528,"Ġparticipated":11529,"ĠReimbursement":11530,"USTR":11531,"Ġentitlement":11532,"ĠClub":11533,"ĠNovartis":11534,"Ġundertaking":11535,"xx":11536,"Ġtargeting":11537,"Ġexemptions":11538,"ĠTouche":11539,"Ge":11540,"ĠUtah":11541,"ĠDO":11542,"Ġcomparisons":11543,"lder":11544,"Ġholiday":11545,"Ġaccrues":11546,"Ġextends":11547,"Ġtheft":11548,"Ġprecedent":11549,"ĠInves":11550,"Ġprotein":11551,"licit":11552,"Ġwrong":11553,"Ġabandonment":11554,"Ġdistrict":11555,"hu":11556,"Ġboards":11557,"ĠFU":11558,"Ġexperts":11559,"Ġstrengthen":11560,"electric":11561,"kins":11562,"ĠNex":11563,"controlled":11564,"MAN":11565,"Ġfocusing":11566,"compass":11567,"ubt":11568,"ĠKU":11569,"Ġdivisions":11570,"ĠList":11571,"ĠStores":11572,"Ġcircumstance":11573,"ĠACCOUNTANTS":11574,"Ġinquiries":11575,"Ġaging":11576,"pen":11577,"ĠProdu":11578,"orig":11579,"Ġrepric":11580,"Ġquantif":11581,"ĠATTOR":11582,"otors":11583,"ĠCompetitive":11584,"ĠMonthly":11585,"ĠHAS":11586,"before":11587,"Ġmiddle":11588,"ĠPol":11589,"ĠOutside":11590,"industry":11591,"Preferred":11592,"pres":11593,"ĠPrices":11594,"ĠBrown":11595,"aco":11596,"ĠConsum":11597,"ĠGuarantees":11598,"Ġpreventing":11599,"Ġsignificance":11600,"Ġarray":11601,".()":11602,"ĠTransfers":11603,"Ġenough":11604,"ITTED":11605,"YSTEM":11606,"table":11607,"ĠMotor":11608,"Ġfifth":11609,"Ġroles":11610,"ĠLeverage":11611,"Ġ,.":11612,"ours":11613,"Ġtherefrom":11614,"plit":11615,"Significant":11616,"ios":11617,"Ġlighting":11618,"ĠTSR":11619,"ĠTravel":11620,"USA":11621,"Ġep":11622,"levant":11623,"etitors":11624,"Ġdenomin":11625,"Ġbills":11626,"Ps":11627,"avy":11628,"ĠOREO":11629,"Ġunchanged":11630,"Tech":11631,"ĠBen":11632,"Ġsupersedes":11633,"ĠPricing":11634,"jection":11635,"aret":11636,"prac":11637,"Ġ________________________________":11638,"ulatory":11639,"Ġinsignificant":11640,"Quick":11641,"ĠCALC":11642,"Ġprolonged":11643,"Ġauditing":11644,"EPCo":11645,"Ġdiscovered":11646,"Accounts":11647,"till":11648,"Ġprinting":11649,"Ġnoncurrent":11650,"tributable":11651,"LI":11652,"ĠHS":11653,"ME":11654,"lets":11655,"Ġapartment":11656,"Ġobsolescence":11657,"Ġtick":11658,"inf":11659,"expect":11660,"Ġexplan":11661,"Ġsouth":11662,"IDA":11663,"Ġinvesti":11664,"Ġchildren":11665,"Ġpostage":11666,"ĠLPSC":11667,"Ġproof":11668,"ĠBENEF":11669,"Ġke":11670,"ĠHouse":11671,"Min":11672,"Ġindicating":11673,"Ġtranche":11674,"olicitation":11675,"adel":11676,"Ġconfirming":11677,"ĠWyn":11678,"Ġheat":11679,"ĠMISO":11680,"overs":11681,"Sc":11682,"Ġenhancing":11683,"Ġdischarged":11684,"attle":11685,"dication":11686,"ga":11687,"ĠBroker":11688,"Ġdepth":11689,"han":11690,"Ġfalls":11691,"ĠBrook":11692,"ĠTreatment":11693,"Ġcorrobor":11694,"Ġdouble":11695,"ĠReclass":11696,"Ġdynam":11697,"Ġrevoke":11698,"ĠRELATIONSHIPS":11699,"ursed":11700,"ĠLarge":11701,"Ġforeclosed":11702,"maintain":11703,"ĠAdopted":11704,"bacco":11705,"gun":11706,"Ġdowngrade":11707,"LLC":11708,"ura":11709,"ĠAvailability":11710,"ustice":11711,"AGREEMENTS":11712,"ĠConcer":11713,"Ġillness":11714,"ĠĠĠĠĠĠĠĠĠĠĠĠĠĠĠĠĠĠĠĠĠĠĠĠĠĠĠ":11715,"Ġtracking":11716,"Ġtoler":11717,"ĠMoney":11718,"ĠSquare":11719,"Ġtitled":11720,"Ġdowngr":11721,"aton":11722,"ĠIG":11723,"Ġsupports":11724,"erially":11725,"ĠShale":11726,"Ġarm":11727,"ĠGuidelines":11728,"undering":11729,"OURCES":11730,"ORT":11731,"ĠGSK":11732,"ensuring":11733,"cery":11734,"ONG":11735,"ĠEquivalent":11736,"ĠSS":11737,"ĠCALCULATION":11738,"Ġabroad":11739,"American":11740,"WA":11741,"ĠAcceptance":11742,"eck":11743,"Key":11744,"Unaudited":11745,"rections":11746,"umbent":11747,"arriott":11748,"Ġdeploy":11749,".),":11750,"dividends":11751,"ĠINST":11752,"ĠWithholding":11753,"Ġrepe":11754,"ĠBancshares":11755,"ĠPH":11756,"ĠExelon":11757,"vince":11758,"Ġrecommendation":11759,"ealand":11760,"Use":11761,"Ġjust":11762,"Ġstrike":11763,"inafter":11764,"Ġclearly":11765,"Ġloyalty":11766,"ĠMiller":11767,"ĠTARP":11768,"ĠSCHE":11769,"Ġentitle":11770,"Ġmoved":11771,"ĠYEARS":11772,"ĠUl":11773,"TM":11774,"ĠRestaur":11775,"ĠCondensed":11776,"ervation":11777,"ĠOntario":11778,"ĠIndemnity":11779,"ĠPURCHASES":11780,"affected":11781,"ĠSciences":11782,"ĠTyp":11783,"Ġprotocol":11784,"ossil":11785,"ĠPAY":11786,"Ġ____":11787,"ĠCop":11788,"Ġharbor":11789,"Ġrestructurings":11790,"Ġlessor":11791,"Ġdefenses":11792,"Ġstored":11793,"Sign":11794,"ĠStatus":11795,"ĠSche":11796,"Ġsimultaneously":11797,"ĠCharge":11798,"Ġplacebo":11799,"unit":11800,"Ġlooking":11801,"uncertain":11802,"ĠStore":11803,"Ġunavailable":11804,"illy":11805,"completion":11806,"inted":11807,"ĠDown":11808,"Ġimage":11809,"Ġthreats":11810,"rich":11811,"Ġelev":11812,"ĠAffordable":11813,"Ġreject":11814,"OUS":11815,"ĠHIPAA":11816,"Ġstim":11817,"Ġdesires":11818,"ĠFree":11819,"lamation":11820,"ander":11821,"Ġmovement":11822,"Ġround":11823,"means":11824,"ede":11825,"ĠHousing":11826,"ĠDEFINITION":11827,"ĠSAB":11828,"cumbered":11829,"stage":11830,"Revenues":11831,"Ġ,,,":11832,"Ġconsequently":11833,"Ġdealing":11834,"support":11835,"Ġfluid":11836,"los":11837,"ĠATTORNEY":11838,"Audit":11839,"Ġfranchises":11840,"ĠEXP":11841,"men":11842,"Ġoutflows":11843,"ITATIVE":11844,"Ġresellers":11845,"Ġcontracting":11846,"ĠEmployers":11847,"ĠAMERIC":11848,"Originator":11849,"independent":11850,"ĠSR":11851,"ĠDISAGREEMENTS":11852,"theless":11853,"tron":11854,"ĠEQ":11855,"Ġeliminates":11856,"Car":11857,"aut":11858,"VEL":11859,"ĠNormal":11860,"Inter":11861,"ĠASSETS":11862,"prime":11863,"Col":11864,"hereinafter":11865,"Ġexchangeable":11866,"ĠHu":11867,"SCHED":11868,"Ġdiversity":11869,"Ġroutinely":11870,"erenti":11871,"Ġindentures":11872,"Ne":11873,"kind":11874,"ĠSoci":11875,"ĠZealand":11876,"HENSIVE":11877,"Ġtimber":11878,"Ġsubscriber":11879,"Ġtriggered":11880,"TATIVE":11881,"ĠPrud":11882,"Class":11883,"Ġimmune":11884,"denominated":11885,"controls":11886,"DO":11887,"Canada":11888,"Ġsurvey":11889,"Ġheadquartered":11890,"Check":11891,"Ġfresh":11892,"ĠTher":11893,"ĠLABEL":11894,"renew":11895,"Links":11896,"ien":11897,"ĠKem":11898,"ĠNET":11899,"ANTITATIVE":11900,"Environmental":11901,"Ġcodes":11902,"North":11903,"Ġalmost":11904,"ĠRF":11905,"ĠWarranties":11906,"orated":11907,"ĠContinuing":11908,"ĠSO":11909,"idel":11910,"SECUR":11911,"Ġencour":11912,"properties":11913,"Ġconsuming":11914,"ĠCountry":11915,"ĠCFPB":11916,"Legal":11917,"Ġacted":11918,"Ġimpl":11919,"ĠCONTROLS":11920,"Texas":11921,"aysia":11922,"ĠSCHEMA":11923,"Ġconclude":11924,"ĠRC":11925,"RESOLVED":11926,"Ġchronic":11927,"ĠINSTANCE":11928,"prem":11929,"Fac":11930,"ĠType":11931,"ĠMMB":11932,"ĠOx":11933,"Ġconsequence":11934,"From":11935,"reasonably":11936,"Ġtriggering":11937,"ISE":11938,"Ġphone":11939,"ĠBrazilian":11940,"Ġoutages":11941,"achelor":11942,"Ġeliminating":11943,"residential":11944,"ĠcGMP":11945,"includes":11946,"Ġensuring":11947,"ĠGSE":11948,"Ġbudgets":11949,"ĠEst":11950,"ĠCasualty":11951,"Ġpredominantly":11952,"Ġtight":11953,"ao":11954,"arency":11955,"ulate":11956,"ĠTAXES":11957,"Ġaccredited":11958,"onent":11959,"Ġquorum":11960,"ĠEqu":11961,"Ġ________":11962,"Ġtransmit":11963,"Ġconcession":11964,"Ġparagraphs":11965,"ĠQUALITATIVE":11966,"Ġdelegate":11967,"Ġcareer":11968,"Ġfaster":11969,"being":11970,"REAT":11971,"ĠNSTAR":11972,"ownership":11973,"Ġheart":11974,"ĠHills":11975,"Ġacademic":11976,"classified":11977,"forwards":11978,"ĠRealized":11979,"ĠIncremental":11980,"NO":11981,"accompanying":11982,"Ġwinter":11983,"ĠPaying":11984,"Ġsophisticated":11985,"Ġpharmacy":11986,"ĠLOAN":11987,"Description":11988,"Ġtobacco":11989,"ĠRepresentations":11990,"aven":11991,"ĠCompletion":11992,"ensurate":11993,"ĠPROD":11994,"rations":11995,"ĠReinvestment":11996,"Ġsurgery":11997,"ĠImprovement":11998,"isher":11999,"hou":12000,"ĠOPCo":12001,"ĠProprietary":12002,"ĠDefinition":12003,"ĠGOVERNANCE":12004,"ĠRussia":12005,"Ġcrop":12006,"Overview":12007,"exhibit":12008,"ĠRULE":12009,"Ġidentifies":12010,"ĠTABLE":12011,"ĠHigher":12012,"ĠTur":12013,"quires":12014,"Ġanalyzed":12015,"Ġcyclical":12016,"Ġredemptions":12017,"ious":12018,"Ġdestruction":12019,"Ġschools":12020,"lar":12021,"ĠMidwest":12022,"ĠFarmer":12023,"Ġthroughput":12024,"Ġenrolled":12025,"ĠOnly":12026,"ĠĠĠĠĠĠĠĠĠĠĠĠĠĠĠĠĠĠĠĠĠĠĠĠĠĠĠĠĠ":12027,"Qualified":12028,"Employees":12029,"Ġprotections":12030,"Ġsafegu":12031,"els":12032,"ĠDelta":12033,"Ġappoints":12034,"Ġassociations":12035,"ĠPeter":12036,"Operations":12037,"reported":12038,"ĠEC":12039,"ĠVIII":12040,"Ġhybrid":12041,"prot":12042,"ĠAnnuity":12043,"metic":12044,"Ġdivestitures":12045,"ĠVehicle":12046,"Ġpharmac":12047,"ĠCollection":12048,"ĠCellular":12049,"tle":12050,"Ob":12051,"growth":12052,"ĠMonte":12053,"ĠBL":12054,"ĠTop":12055,"Ġdownturns":12056,"ĠRecently":12057,"Ġdecon":12058,".'":12059,"financing":12060,"ubtful":12061,"rift":12062,"Ġnorth":12063,"Ġnonvested":12064,"Ġsolicitation":12065,"ĠTDRs":12066,"ĠFF":12067,"Ġpayers":12068,"Registration":12069,"Ġdelinquencies":12070,"call":12071,"Ġtheat":12072,"Ġilli":12073,"Ġpersuasive":12074,"ĠSpring":12075,"ANA":12076,"Since":12077,"ĠSIGN":12078,"amended":12079,"Ġaf":12080,"eca":12081,"Ġmodules":12082,"REHENSIVE":12083,"uglas":12084,"operated":12085,"ĠNRG":12086,"Ġlawfully":12087,"Ġstatistical":12088,"Ġaccommodate":12089,"Ġrefining":12090,"major":12091,"carrying":12092,"Ġincurs":12093,"vertical":12094,"ĠDefinitive":12095,"Ġhourly":12096,"Ġrecruiting":12097,"Mar":12098,"entity":12099,"Ġdescribe":12100,"ĠFPL":12101,"XBRL":12102,"ĠCOMPREHENSIVE":12103,"ĠEnforce":12104,"iction":12105,"Ġcopyrights":12106,"Ġfeedstock":12107,"ĠRS":12108,"ĠStage":12109,"ĠSCHEDULE":12110,"health":12111,"ĠOpportunity":12112,"ĠModification":12113,"ĠACE":12114,"ĠSJ":12115,"ĠCRA":12116,"ĠMGE":12117,"apol":12118,"ĠAlex":12119,"uk":12120,"GH":12121,"ĠFe":12122,"infr":12123,"particular":12124,"had":12125,"ĠWPL":12126,"ICA":12127,"ĠOperation":12128,"essation":12129,"ĠIncreases":12130,"Ġunlikely":12131,"ĠClo":12132,"Ġproducer":12133,"oples":12134,"Ġsimple":12135,"Ġwelf":12136,"Ġwelfare":12137,"Fiscal":12138,"Ġcollecting":12139,"ĠAlber":12140,"ĠDam":12141,"Ġreplacing":12142,"Ġallocating":12143,"ĠSTAFF":12144,"Aff":12145,"GM":12146,"Us":12147,"subsidiary":12148,"Ġreput":12149,"rom":12150,"ĠLaboratories":12151,"ĠDES":12152,"Robert":12153,"ĠCVR":12154,"Ġregulator":12155,"ĠApproved":12156,"Ġnonperformance":12157,"ĠApollo":12158,"aper":12159,"ĠLegacy":12160,"ĠBC":12161,"ĠOperator":12162,"arbons":12163,"completed":12164,"ĠAV":12165,"covered":12166,"Ġadapt":12167,"Ġseasonality":12168,"ĠDon":12169,"Ġgases":12170,"ĠGar":12171,"ilot":12172,"ĠInfrastructure":12173,"Me":12174,"ectibility":12175,"ĠInvesting":12176,"gates":12177,"ĠHC":12178,"Ġmoderate":12179,"ĠAdd":12180,"ĠIntel":12181,"ĠMSRs":12182,"Ġcast":12183,"Ġvs":12184,"Ġhorizon":12185,"ĠĠĠĠĠĠĠĠĠĠĠĠĠĠĠĠĠĠĠĠĠĠĠĠĠĠĠĠĠĠĠĠĠĠ":12186,"ĠVisa":12187,"Ġbarriers":12188,"endants":12189,"Ġconsolidating":12190,"ĠChen":12191,"ĠSwiss":12192,"diffic":12193,"deductible":12194,"sts":12195,"ĠHow":12196,"Administrative":12197,"prices":12198,"ĠLeasehold":12199,"RO":12200,"gs":12201,"Ġinvestee":12202,"Ġcompression":12203,"ĠHedge":12204,"ĠReplacement":12205,"Ġgenerates":12206,"topic":12207,"ĠBrand":12208,"Insurance":12209,"Ġcircuit":12210,"Ġfrozen":12211,"Ġanticipation":12212,"Ġwithdrawn":12213,"materially":12214,"Ġadministrators":12215,"ĠGrants":12216,"stead":12217,"sharing":12218,"ĠPersonnel":12219,"event":12220,"Michael":12221,"Ġrecapitalization":12222,"Ġgroundwater":12223,"Ġshortfall":12224,"etter":12225,"anium":12226,"gium":12227,"ĠHurricane":12228,"ĠAnnex":12229,"Ġsports":12230,"Ret":12231,"user":12232,"Ġbegun":12233,"Ġentr":12234,"Ġconfirmation":12235,"Ġdiscounting":12236,"QuickLinks":12237,"Lim":12238,"ĠUnrealized":12239,"SCHEDULE":12240,"ĠPrimary":12241,"Ġobject":12242,"ĠSpouse":12243,"ĠSAL":12244,"ĠMy":12245,"Ġanalytics":12246,"mortgage":12247,"Ġmachine":12248,"ĠSus":12249,"Ġremediate":12250,"Ġsufficiency":12251,"vance":12252,"Ġcomposite":12253,"Ġbread":12254,"rench":12255,"Ġfootprint":12256,"ĠRob":12257,"Ġinterval":12258,"maller":12259,"ĠREST":12260,"Ġ****":12261,"Custom":12262,"Ġcoupon":12263,"Ġaccomplish":12264,"Ġcertifications":12265,"ĠDie":12266,"fees":12267,"backs":12268,"ĠAssumptions":12269,"System":12270,"Ġgeographical":12271,"Ġmotivate":12272,"ĠRESOURCES":12273,"ĠRedeemable":12274,"substantially":12275,"ĠPlaza":12276,"ĠExposure":12277,"ropolitan":12278,"Asset":12279,"Ġcentralized":12280,"Ġincorporating":12281,"ĠPlaintiffs":12282,"ĠSWEPCo":12283,"ĠGENERAL":12284,"Ġmetropolitan":12285,"Ġengages":12286,"Yes":12287,"ĠFurn":12288,"Ġendorse":12289,"ĠCitizens":12290,"Ġturb":12291,"uneration":12292,"ĠJustice":12293,"acific":12294,"Ġvertical":12295,"Ġprovin":12296,"Ġfertilizer":12297,"CLA":12298,"Ġcommensurate":12299,"ĠVarious":12300,"Ġdenominator":12301,"Ġwood":12302,"ĠDNA":12303,"Ġregulates":12304,"ĠKel":12305,"ĠRegistrable":12306,"Ġconstituted":12307,"ĠMortgaged":12308,"ĠSD":12309,"ĠMED":12310,"ournal":12311,"ĠSYSTEM":12312,"Ġinser":12313,"ĠCasino":12314,"Ġdisclaim":12315,"William":12316,"zyme":12317,"stated":12318,"ĠBill":12319,"Ġaz":12320,"ĠActive":12321,"sheet":12322,"fort":12323,"days":12324,"ousand":12325,"Ġtechnique":12326,"Ġpassage":12327,"trad":12328,"ĠTE":12329,"lawful":12330,"ĠGerman":12331,"western":12332,"Ġ(.%)":12333,"Ġadviser":12334,"ologics":12335,"onciliation":12336,"Ġpublish":12337,"AME":12338,"Ġsamples":12339,"Ġolder":12340,"Ġchosen":12341,"locations":12342,"ipt":12343,"Ġsummer":12344,"WH":12345,"ĠCOMMENTS":12346,"Ġcomparability":12347,"California":12348,"While":12349,"guid":12350,"ĠRelief":12351,"ĠLimitation":12352,"Ġneur":12353,"Ġrepricing":12354,"Ġdisadvantage":12355,"ACK":12356,"ĠForms":12357,"coh":12358,"ĠEMEA":12359,"allel":12360,"ĠSHALL":12361,"afts":12362,"Ġdomic":12363,"Ġborne":12364,"ustif":12365,"ulin":12366,"errals":12367,"ĠAIG":12368,"cho":12369,"MANAGEMENT":12370,"Ġundelivered":12371,"ĠAndrew":12372,"Ġceded":12373,"Ġdioxide":12374,"ĠAssurance":12375,"outs":12376,"phia":12377,"ivided":12378,"ĠDeutsche":12379,"Ġnomination":12380,"Ġinflows":12381,"ĠVill":12382,"tu":12383,"ĠSimp":12384,"government":12385,"oning":12386,"Ġanalyzing":12387,"ahn":12388,"Future":12389,"ĠWaste":12390,"Ġmultifamily":12391,"idth":12392,"ĠVALUE":12393,"ĠAllocation":12394,"Ġrefin":12395,"Ġwastewater":12396,"ĠPledgor":12397,"versely":12398,"creditor":12399,"egoti":12400,"ĠRegister":12401,"Ġmeters":12402,"Ġinvalidity":12403,"Purch":12404,"percentage":12405,"Ġfranchis":12406,"Ġcommercializing":12407,"Ġband":12408,"ĠCommodities":12409,"ĠImpact":12410,"ĠDOCUMENTS":12411,"Ġrider":12412,"Ġnetworking":12413,"Pacific":12414,"ĠAdoption":12415,"ĠApple":12416,"otions":12417,"Ġchecks":12418,"Ġsubmits":12419,"ĠWeighted":12420,"Ġap":12421,"Ġculture":12422,"ĠStart":12423,"-..":12424,"ĠUSD":12425,"ĠAmbac":12426,"Ġfabrication":12427,"ken":12428,"Ġproductive":12429,")/":12430,"SOCI":12431,"mented":12432,"Ġacid":12433,"ĠBoeing":12434,"urities":12435,"ĠHarbor":12436,"ĠINDEPENDENCE":12437,"Ġpunitive":12438,"Ġdiscr":12439,"Notwithstanding":12440,"ĠArch":12441,"Ġlots":12442,"Ġnitrogen":12443,"atur":12444,"ĠMontana":12445,"OKING":12446,"Gas":12447,"ĠINDUSTR":12448,"ĠLock":12449,"XX":12450,"Ġtanks":12451,"ĠSN":12452,"erivatives":12453,"UK":12454,"ĠEARN":12455,"Ġauthorizing":12456,"individual":12457,"various":12458,"remaining":12459,"ĠMeasures":12460,"ĠSV":12461,"oinder":12462,"Ġwomen":12463,"ĠThousands":12464,"Ġmatured":12465,"Ġmiscellaneous":12466,"Eur":12467,"administrative":12468,"ilipp":12469,"ĠJeffrey":12470,"Ġdistributes":12471,"Ġviruses":12472,"Ġsuite":12473,"Str":12474,"Ġremit":12475,"build":12476,"issuance":12477,"Ġpollut":12478,"ĠStudy":12479,"Ġgame":12480,"Ġdealership":12481,"abet":12482,"parate":12483,"Ġnoncompliance":12484,"ĠRy":12485,"ĠAUM":12486,"granted":12487,"ĠLot":12488,"Ġbiom":12489,"security":12490,"ĠExcise":12491,"ESA":12492,"Ġmisappropriation":12493,"ĠResponse":12494,"Termination":12495,"officers":12496,"ĠYORK":12497,"Pat":12498,"Ġlessees":12499,"ĠPLC":12500,")(),":12501,"Ġmostly":12502,"Ġprioritiz":12503,"Ġoptical":12504,"evaluation":12505,"Ġvalidly":12506,"erver":12507,"Ġhistoric":12508,"pot":12509,"percent":12510,"ĠHP":12511,"ĠMerr":12512,"ĠNON":12513,"ĠOS":12514,"ami":12515,"fixed":12516,"ĠCin":12517,"ĠMO":12518,"ĠCategory":12519,"Ġstreams":12520,"ĠInnov":12521,"ĠDevelopments":12522,"ĠArgentina":12523,"OGIES":12524,"HARMA":12525,"Ġunissued":12526,"Ġaerospace":12527,"Ġstrengthening":12528,"ĠCriteria":12529,"Ġmandated":12530,"ĠWay":12531,"erman":12532,"Ġresolutions":12533,"ĠTS":12534,"Ġretroactively":12535,"ĠLower":12536,"ĠCertified":12537,"anufacturers":12538,"ĠPSNH":12539,"Ġaccountant":12540,"Ġtransparency":12541,"ĠAlaska":12542,"favorable":12543,"ĠNorthwest":12544,"Ġchart":12545,"GEN":12546,"trial":12547,"Certificate":12548,"ĠKemper":12549,"Ġlaboratories":12550,"ky":12551,"ĠSanta":12552,"Ġburdens":12553,"ĠMicrosoft":12554,"ĠNAV":12555,"amb":12556,"Ġincidents":12557,"iger":12558,"Ġ|":12559,"ĠSol":12560,"oco":12561,"Back":12562,"ĠOccup":12563,"Ġviable":12564,"UTION":12565,"Ġprohibition":12566,"Ġsignal":12567,"ĠHAVE":12568,"ENSED":12569,"Ġallowable":12570,"Ġpenetration":12571,"Ġtransferable":12572,"topher":12573,"erizon":12574,"ĠBDC":12575,"PLIC":12576,"ĠYield":12577,"shareholders":12578,"Article":12579,"Ġreward":12580,"failure":12581,"tiveness":12582,"Ġadvantageous":12583,"ĠPCAOB":12584,"tier":12585,"Ġapproximated":12586,"Ġresort":12587,"Ġserviced":12588,"ĠAA":12589,"etermined":12590,"Ġaway":12591,"Ġmem":12592,"Ġmagnitude":12593,"Ġcurves":12594,"Distrib":12595,"ĠCre":12596,"Ġfailing":12597,"ĠĠĠĠĠĠĠĠĠĠĠĠĠĠĠĠĠĠĠĠĠĠĠĠĠĠĠĠĠĠĠĠĠĠĠĠĠĠĠĠĠ":12598,"Ġoptimization":12599,"forth":12600,"Ġtemperature":12601,"ĠSource":12602,"similar":12603,"andom":12604,"Ġhelps":12605,"Ġgrid":12606,"Accelerated":12607,"histor":12608,"implement":12609,"ĠRemed":12610,"ĠAttention":12611,"osis":12612,"ĠWrit":12613,"Ġvision":12614,"ĠMarriott":12615,"typ":12616,"ĠLakes":12617,"Ġnominees":12618,"experience":12619,"Ġsteam":12620,"recover":12621,"Ġunbilled":12622,"post":12623,"Ġadjusting":12624,"ĠDun":12625,"Ġsubscriptions":12626,"ĠMand":12627,"Ġvariance":12628,"ĠLAW":12629,"PAR":12630,"Ġsigns":12631,"ĠWat":12632,"need":12633,"Ġ.*":12634,"risks":12635,"ĠLAE":12636,"Ġunallocated":12637,"Services":12638,"systems":12639,"Ġmill":12640,"Par":12641,"Person":12642,"It":12643,"sc":12644,"Ġanalytical":12645,"Additional":12646,"adelphia":12647,"WP":12648,"Ġcorroborated":12649,"Ġstandardized":12650,"Ġtalent":12651,"REATMENT":12652,"Ġviews":12653,"Ġaggregating":12654,"Ġlifetime":12655,"assurance":12656,"Ġfine":12657,"aver":12658,"aul":12659,"ĠWARR":12660,"Ġphases":12661,"ĠSemiconductor":12662,"ĠSab":12663,"Ġapproves":12664,"Ġdistributable":12665,"ĠSupervision":12666,"ĠWES":12667,"Ġrenegoti":12668,"Ġknowingly":12669,"ĠFron":12670,"Ġunitholder":12671,"ĠRESTATED":12672,"cars":12673,"ĠMF":12674,"Ġhurricanes":12675,"ĠGene":12676,"Ġbreadth":12677,"ĠMC":12678,"Ġdriver":12679,"Ġappealed":12680,"arden":12681,"driven":12682,"extent":12683,"Ġturnover":12684,"Ġtub":12685,"docu":12686,"ĠMV":12687,"Ġcessation":12688,"Ġbiopharmaceutical":12689,"Ġswit":12690,"IVER":12691,"Standard":12692,"alyst":12693,"ĠDiagnos":12694,"Ġinjuries":12695,"ĠFull":12696,"Ġretiree":12697,"Ġunusual":12698,"ICH":12699,"ĠSwed":12700,"Ġweekly":12701,"Regulation":12702,"Ġdisplays":12703,"Ġfluctuation":12704,"ĠHolly":12705,"ĠSam":12706,"Ġfeasible":12707,"Ġescalation":12708,"titute":12709,"ĠLynch":12710,"ĠMur":12711,"ĠGreg":12712,"Ġhands":12713,"Debt":12714,"Ġascribed":12715,"Ġconc":12716,"ĠEARNINGS":12717,"Ġinclusive":12718,"Ġextremely":12719,"Ġintroductions":12720,"oked":12721,"UDC":12722,"ĠLines":12723,"impaired":12724,"Ġleft":12725,"Ġretainer":12726,"Ġequities":12727,"ĠIntermedi":12728,"Ġceiling":12729,"Ġsecuritizations":12730,"dale":12731,"ĠSter":12732,"ubic":12733,"iented":12734,"oster":12735,"Further":12736,"Ġparticipates":12737,"atings":12738,"ĠEmerging":12739,"resulting":12740,"assessment":12741,"Designed":12742,"ĠFILED":12743,"Ġcounties":12744,"win":12745,"ĠLimitations":12746,"achute":12747,"Ġrecipients":12748,"mington":12749,"inson":12750,"ĠFed":12751,"Ġtask":12752,"amilies":12753,"chemical":12754,"ĠPM":12755,"Ġrestricting":12756,"Ġimportance":12757,"consumer":12758,"irmation":12759,"ĠSilver":12760,"ĠASSOCI":12761,"ĠPO":12762,"mentation":12763,"Ġeventual":12764,"ENTS":12765,"substantial":12766,"Ġreclamation":12767,"ĠTeam":12768,"ĠDem":12769,"Exhibits":12770,"arest":12771,"Ġinactive":12772,"aching":12773,"Ġrooms":12774,"Ġdraft":12775,"statutory":12776,"ĠRidge":12777,"uit":12778,"ĠSoutheast":12779,"provides":12780,"ORR":12781,"ĠSouthwest":12782,"derivative":12783,"closing":12784,"atients":12785,"duit":12786,"Ġassignments":12787,"Ġcomputers":12788,"ĠOpen":12789,"ĠLocation":12790,"Ġrob":12791,"Subsidiary":12792,"Retirement":12793,"setting":12794,"ĠFutures":12795,"Ġcampaigns":12796,"ĠFormer":12797,"ĠMi":12798,"Ġburden":12799,"ĠPrudential":12800,"Ġcounterpart":12801,"Ġadministering":12802,"ĠQUANTITATIVE":12803,"Ġdischarges":12804,"taxes":12805,"ĠSky":12806,"lon":12807,"ĠNortheast":12808,"ĠDated":12809,"Ġdrop":12810,"notice":12811,"Ġbed":12812,"Ġallegedly":12813,"Ġheight":12814,"Ġinterchange":12815,"insure":12816,"mis":12817,"ĠDisposal":12818,"TT":12819,"Ġcaptioned":12820,"Ġrecycling":12821,"ĠChile":12822,"ĠPot":12823,"Ġrepatriation":12824,"clear":12825,"ĠTransferred":12826,"ĠIssues":12827,"large":12828,"Ġunfair":12829,"Ġcru":12830,"Ġannuities":12831,"ĠRecords":12832,"type":12833,"etings":12834,"ĠMetro":12835,"-)":12836,"Ġold":12837,"ĠBrad":12838,"Investments":12839,"Ġcorn":12840,"Ġcatalog":12841,"cli":12842,"Ġcontents":12843,"Ġtakeover":12844,"pension":12845,"oresaid":12846,"Ġdesignee":12847,"ĠFROM":12848,"Lic":12849,"Ġpackages":12850,"Ġpoor":12851,"whole":12852,"ensity":12853,"ĠPeoples":12854,"EV":12855,"OND":12856,"ĠHart":12857,"thousands":12858,"Ġdeductibles":12859,"ĠGU":12860,"Ġpromises":12861,"second":12862,"ĠNATIONAL":12863,"esign":12864,"Ġgeological":12865,"idelity":12866,"Ġterminations":12867,"Ġsubordinate":12868,"Ġcommunicate":12869,"ĠPHI":12870,"Critical":12871,"further":12872,"Ġdilute":12873,"heim":12874,"ĠGal":12875,"eneca":12876,"Supplement":12877,"Inf":12878,"ĠAbbott":12879,"Ġmedicine":12880,"Agent":12881,"SURANCE":12882,"Ġplastic":12883,"ĠTX":12884,"haust":12885,"Ġinterconn":12886,"Ġencompass":12887,"Ġformulations":12888,"ĠNI":12889,"ĠAssociated":12890,"Ġbackground":12891,"Ġprohibiting":12892,"ĠDiscovery":12893,"stra":12894,"Ġrecept":12895,"ĠARE":12896,"ĠComputer":12897,"Ġjustif":12898,"ĠSEG":12899,"asic":12900,"Ġspeeds":12901,"Ġmerchants":12902,"ĠRoche":12903,"ĠPMA":12904,"Ġintel":12905,"accept":12906,"Ġviewed":12907,"Ġversions":12908,"ĠLee":12909,"ĠFranchise":12910,"ĠNoncontrolling":12911,"ĠNature":12912,"Ġbund":12913,"Ġclos":12914,"Cap":12915,"ĠHotels":12916,"ĠDire":12917,"Grant":12918,"actual":12919,"Ġtitles":12920,"Ġunlawful":12921,"ĠRange":12922,"ĠGeorge":12923,"Ġconcurrently":12924,"Ġrecalls":12925,"rata":12926,"Hold":12927,"Ġprecise":12928,"Ġlaser":12929,"Ġmotions":12930,"dollar":12931,"Ġasserting":12932,"Ġprotocols":12933,"Ġmultiplying":12934,"ĠComplaint":12935,"liquid":12936,"Purchase":12937,"eron":12938,"consideration":12939,"ĠRelating":12940,"ĠOffshore":12941,"ĠMach":12942,"Ġaccessible":12943,"ulings":12944,"ĠForfe":12945,"lien":12946,"ĠSafe":12947,"policies":12948,"ĠProposed":12949,"Ġdriving":12950,"Ġshowing":12951,"ece":12952,"Ġparticipations":12953,"Ġ[**]":12954,"ĠMit":12955,"ĠMortgagee":12956,"Ġinterference":12957,"Ġreaching":12958,"Ġredevelopment":12959,"ĠKKR":12960,"Ġamb":12961,"apping":12962,"Ġhousehold":12963,"inances":12964,"ĠDiego":12965,"ĠWorth":12966,"Ġmixed":12967,"ĠTECHNOLOGIES":12968,"Dr":12969,"Ġvirtual":12970,"Ġpipe":12971,"Ġmacroeconomic":12972,"Ġbeliefs":12973,"ĠOverall":12974,"fil":12975,"Ġafford":12976,"presented":12977,"Ġvoted":12978,"ĠVerizon":12979,"umer":12980,"Ġreposs":12981,"ĠAssignor":12982,"atically":12983,"ĠENTER":12984,"ĠLow":12985,"odes":12986,"Includes":12987,"plant":12988,"Ġmines":12989,"Ġineffectiveness":12990,"Ġsecuritized":12991,"settled":12992,"Ġlengthy":12993,"Ġinvests":12994,"ĠLegislation":12995,"ĠREALTY":12996,"ĠEmergency":12997,"Ġbattery":12998,"ĠUniform":12999,"forfeitable":13000,"Ġfar":13001,"ĠMP":13002,"Ġple":13003,"officer":13004,"Ġbuffer":13005,"Ġskin":13006,"Ġrentable":13007,"Ġinfl":13008,"America":13009,"Ġreputational":13010,"Ġansw":13011,"ĠUr":13012,"Ġappraised":13013,"Ġlag":13014,"Ġsubp":13015,"ĠManaged":13016,"ALTH":13017,"dated":13018,"referred":13019,"ĠInsp":13020,"ĠELEC":13021,"ĠUNRESOLVED":13022,"Ġaforesaid":13023,"Ġremitted":13024,"endum":13025,"ĠTREATMENT":13026,"invent":13027,"Ġnegotiating":13028,"Ġexplore":13029,"ĠActions":13030,"Ġrestructure":13031,"tentions":13032,"Ġmezzanine":13033,"Ġemergence":13034,"Ġdependence":13035,"ĠCitigroup":13036,"higher":13037,"ASED":13038,"ĠSeverability":13039,"Ġvaccine":13040,"Warrant":13041,"Ġwithdrawals":13042,"Ġachievements":13043,"Card":13044,"ivor":13045,"Ġfounded":13046,"Ġphr":13047,"Ġpositioned":13048,"INGTON":13049,"Account":13050,"Ġfinancially":13051,"aked":13052,"illips":13053,"short":13054,"ĠNos":13055,"ks":13056,"ĠINVESTMENT":13057,"Ġgrounds":13058,"ĠNi":13059,"ĠSmart":13060,"When":13061,"ĠMalaysia":13062,"obtain":13063,"Ġimpr":13064,"ĠWE":13065,"ador":13066,"Ġsoft":13067,"sens":13068,"Ġantibody":13069,"Ġnearest":13070,"Ġcooling":13071,"ĠUsing":13072,"innacle":13073,"Ġdeter":13074,"ĠCOMMITMENTS":13075,"Ġ($,,":13076,"ĠBut":13077,"ĠNuStar":13078,"ĠHD":13079,"James":13080,"Ġgreatest":13081,"ĠPremier":13082,"Ġunlimited":13083,"Summary":13084,"erential":13085,"apolis":13086,"ĠIX":13087,"months":13088,"ĠWilmington":13089,"ĠTri":13090,"ĠĠĠĠĠĠĠĠĠĠĠĠĠĠĠĠĠĠĠĠĠĠĠĠĠĠĠĠĠĠĠĠĠĠĠĠĠĠ":13091,"acquisitions":13092,"Ġrescind":13093,"Sw":13094,"Ġwillingness":13095,"ĠHorizon":13096,"Ġbringing":13097,"vd":13098,"ensus":13099,"ĠBelgium":13100,"restrictions":13101,"ĠGriff":13102,"AK":13103,"ĠIndemnifying":13104,"ediatric":13105,"erica":13106,"mers":13107,"inas":13108,"ĠDecre":13109,"significantly":13110,"Ġsynthetic":13111,"IO":13112,"Ġsegregated":13113,"ĠRoyal":13114,"Lender":13115,"dam":13116,"illance":13117,"ĠConfidentiality":13118,"Ġhandle":13119,"TIV":13120,"Ġmusic":13121,"sever":13122,"Ġstake":13123,"GAN":13124,"Ġuninsured":13125,"ĠCentury":13126,"producing":13127,"ĠAssessment":13128,"ĠWyoming":13129,"Ġapparent":13130,"ĠInstitutional":13131,"ĠRegulated":13132,"source":13133,"Ġmaker":13134,"Ġrelying":13135,"requires":13136,"Ġviability":13137,"Ġranged":13138,"fathered":13139,"ĠAssociate":13140,"Ġfit":13141,"Ġseen":13142,"Ġclassifications":13143,"sized":13144,"Ġlived":13145,"Ġdescribes":13146,"ĠProspectus":13147,"Ġunsafe":13148,"Ġengagements":13149,"ĠStatutory":13150,"Ġdelegated":13151,"Ġliter":13152,"Ġrefinanced":13153,"Ġadvise":13154,"Ġstarted":13155,"ĠUnobservable":13156,"Ġexpressing":13157,"gression":13158,"Ġvests":13159,"subs":13160,"Ġnumerator":13161,"ĠCounterparts":13162,"ĠEnforcement":13163,"REIT":13164,"PH":13165,"edia":13166,"ups":13167,"urban":13168,"discus":13169,"ette":13170,"function":13171,"designated":13172,"then":13173,"ĠDiscount":13174,"ijing":13175,"ĠShipping":13176,"ĠDeferrals":13177,"Ġwish":13178,"Ġgrown":13179,"ĠSubscription":13180,"ĠSecuritization":13181,"Ġchecking":13182,"increases":13183,"Type":13184,"Ġmission":13185,"arrangements":13186,"principles":13187,"Ġdebtor":13188,"ediation":13189,"ĠOVER":13190,"arc":13191,"Atlantic":13192,"ofi":13193,"DENSED":13194,"considered":13195,"ĠMcC":13196,"ABILITY":13197,"Ġrulings":13198,"Ġguests":13199,"ĠSpectrum":13200,"ĠSet":13201,"vage":13202,"Ġtreaty":13203,"pert":13204,"Ġadjud":13205,"Ġmodest":13206,"ĠJUR":13207,"Ġnationwide":13208,"ĠResorts":13209,"agen":13210,"sets":13211,"ĠWhich":13212,"Ġconce":13213,"ĠMBIA":13214,"ĠPSE":13215,"ĠUCC":13216,"Ġresponses":13217,"ĠUniversal":13218,"Ġ,,.":13219,"''":13220,"ĠAlliant":13221,"who":13222,"Ġpublication":13223,"Ġdeveloper":13224,"ĠSeason":13225,"Ġlicensors":13226,"ĠVendor":13227,"Ġrecoup":13228,"ĠShip":13229,"TEE":13230,"delivery":13231,"ensate":13232,"Ġattained":13233,"tide":13234,"Ġeuro":13235,"Ġforty":13236,"Ġclassifies":13237,"ĠTy":13238,"Ġunderstandings":13239,"othy":13240,"Ġselecting":13241,"ĠCommitted":13242,"estimate":13243,"Owned":13244,"Rich":13245,"owered":13246,"Ġrandom":13247,"Ġpounds":13248,"ĠTech":13249,"FINANCIAL":13250,"beginning":13251,"abular":13252,"osoph":13253,"Ġindemnities":13254,"ĠEP":13255,"vac":13256,"Eng":13257,"abetes":13258,"ĠDisp":13259,"funds":13260,"YN":13261,"TL":13262,"Ġprorated":13263,"Ġingredient":13264,"imen":13265,"Ġpositively":13266,"ensure":13267,"trading":13268,"ĠĠĠĠĠĠĠĠĠĠĠĠĠĠĠĠĠĠĠĠĠĠĠĠĠĠĠĠĠĠĠĠĠĠĠĠĠĠĠĠĠĠĠĠĠĠĠĠĠĠĠĠĠĠĠĠĠĠĠĠĠĠĠĠĠĠĠĠĠĠĠĠĠĠĠĠĠĠĠĠĠĠĠĠĠĠĠĠĠĠĠĠĠĠĠĠĠĠĠĠĠĠĠĠĠĠĠĠĠĠ":13269,"ustion":13270,"ligent":13271,"designed":13272,"Ġunspecified":13273,"Ġconveyance":13274,"Ġverify":13275,"Ġlaundering":13276,"Ġexhaust":13277,"Ġterminating":13278,"Ġhydrocarbons":13279,"Ġrefuse":13280,"Ġhazards":13281,"ria":13282,"Ġfamilies":13283,"Ġcollectibility":13284,"Ġdelaying":13285,"Ġpromotions":13286,"Ġtoday":13287,"Ġsample":13288,"liers":13289,"Ġpertinent":13290,"ĠComposite":13291,"ĠHeart":13292,"ĠTranslation":13293,"data":13294,"aje":13295,"Ġconsented":13296,"ĠGround":13297,"Ġdefinite":13298,"preced":13299,"arging":13300,"ĠSUB":13301,"Ġcurtailment":13302,"ĠConsumers":13303,"Met":13304,"Ġposting":13305,"ESE":13306,"Ġbenefited":13307,"Ġpose":13308,"ĠProjects":13309,"Ġremeasurement":13310,"mpt":13311,"reduction":13312,"Ġinvoiced":13313,"ĠCMBS":13314,"El":13315,"Ġremuneration":13316,"ĠBLA":13317,"ĠBeneficiaries":13318,"Ġjury":13319,"reflect":13320,"ustody":13321,"ARG":13322,"Ġpassenger":13323,"ĠDoubtful":13324,"corporation":13325,"Selling":13326,"Ġdig":13327,"ĠLED":13328,"Ġscreening":13329,"Ġmodeling":13330,"ĠIPR":13331,".-":13332,"ckn":13333,"CL":13334,"ĠDEP":13335,"ĠClaimant":13336,"Ġreferral":13337,"Ġhosting":13338,"Ġcommences":13339,"environmental":13340,"Ġessentially":13341,"Inventories":13342,"ĠFrench":13343,"ĠWales":13344,"ĠArr":13345,"incentive":13346,"Ġphased":13347,"Ġaside":13348,"Ġsulfur":13349,"willing":13350,"focus":13351,"pass":13352,"Ġglass":13353,"ĠPPA":13354,"ĠJobs":13355,"Ġrestore":13356,"Ġ____________":13357,"bsite":13358,"Ġpayor":13359,"ĠVers":13360,"Ġcity":13361,"units":13362,"ĠTruck":13363,"sable":13364,"width":13365,"Accord":13366,"Ġsubparagraph":13367,"ĠLiquidation":13368,"ĠJackson":13369,"ĠMembership":13370,"inger":13371,"eer":13372,"Ġthermal":13373,"ders":13374,"Ġmunicipalities":13375,"ĠĠĠĠĠĠĠĠĠĠĠĠĠĠĠĠĠĠĠĠĠĠĠĠĠĠĠĠ":13376,"ĠPackaging":13377,"entit":13378,"Ġleads":13379,"ĠRestoration":13380,"Ġinteractive":13381,"obil":13382,"Earnings":13383,"Ġinvoices":13384,"OLL":13385,"ĠVenezuela":13386,"Ġoutsourced":13387,"Ġregulating":13388,"ĠCONTING":13389,"Ġexped":13390,"Ġdisproportion":13391,"Ġnonfinancial":13392,"ĠFranklin":13393,"software":13394,"oil":13395,"ORY":13396,"ĠRegency":13397,"yon":13398,"Ġcommerce":13399,"licate":13400,"Ġsustainable":13401,"ĠDecision":13402,"ĠManagers":13403,"Elect":13404,"receive":13405,"Ġrebate":13406,"Ġcharters":13407,"ĠHarris":13408,"legal":13409,"cious":13410,"ĠIGCC":13411,"Ġwin":13412,"Ġpopular":13413,"ĠUncertainty":13414,"ĠMel":13415,"ĠChair":13416,"Second":13417,"Ġmental":13418,"DM":13419,"some":13420,"Ġmor":13421,"greed":13422,"Expense":13423,"hearing":13424,"ĠPlanning":13425,"Ġsupersede":13426,"CIES":13427,"Ġaccreted":13428,"PUR":13429,"echnologies":13430,"ĠREPR":13431,"ĠWithdraw":13432,"Ġprescribe":13433,"ĠReduction":13434,")),":13435,"expenditures":13436,"measurement":13437,"Ġinvestigate":13438,"ĠPeer":13439,"HR":13440,"Ġconnectivity":13441,"ailand":13442,"binding":13443,"ĠĠĠĠĠĠĠĠĠĠĠĠĠĠĠĠĠĠčĊ":13444,"proceeds":13445,"ffee":13446,"CEPT":13447,"Ġwaters":13448,"Ġintermediaries":13449,"Ġdon":13450,"ĠAx":13451,"Ġcargo":13452,"sur":13453,"ĠCole":13454,"Ġanyone":13455,"umab":13456,"town":13457,"ĠWILL":13458,"Partnership":13459,"ĠPet":13460,
[...]
