#version: 0.2 - Trained by `huggingface/tokenizers`
Ġ Ġ
Ġ a
Ġ t
i n
Ġ o
r e
h e
č Ċ
o n
e r
t i
e n
Ġt he
a n
e s
e d
Ġ c
Ġa n
Ġo f
Ġ s
o r
a l
Ġ in
a t
ĠĠ ĠĠ
Ġ p
Ġ f
ti on
Ġan d
i t
en t
Ġ re
in g
i s
a r
Ġt o
Ġ b
o m
Ġ w
u r
e c
Ġ d
Ġ m
i c
r o
a s
Ġ čĊ
m ent
Ġ C
i l
Ġ e
a tion
s t
v e
l e
u n
l i
Ġ A
l o
e t
Ġo r
Ġ S
Ġt h
c e
at e
Ġ n
om p
l y
Ġa s
Ġ T
Ġ ,
Ġf or
Ġc on
u l
c t
c h
a b
Ġp ro
u s
Ġ I
i d
q u
Ġb e
Ġo ur
ĠĠĠĠ ĠĠĠĠ
Ġ P
Ġ (
Ġs u
Ġ h
Ġe x
i m
Ġo n
c i
o l
er s
re d
ĠĠ Ġ
at ed
o t
Ġ D
ĠĠ čĊ
it h
a y
Ġin c
u t
Ġ is
e m
omp an
Ġw ith
g e
ec t
t he
Ġ F
Ġs t
an t
it y
Ġ .
ompan y
ment s
Ġb y
es s
Ġ E
ĠT he
re s
i r
Ġ g
Ġw e
ab le
Ġth at
Ġa c
i g
a in
Ġ R
s e
p or
ti ve
en d
f f
Ġd e
Ġ un
ĠI n
Ġa re
p er
v er
Ġ O
t er
t r
ĠC ompany
the r
ti es
o un
Ġ $
Ġre s
Ġs h
an ce
Ġ v
u d
Ġ M
u e
Ġ r
Ġ B
ation s
s u
Ġc o
i tion
b er
Ġ L
p p
Ġan y
ci al
i f
er i
d u
ĠĠ ĠčĊ
in an
es t
Ġ N
l l
oun t
o d
Ġa d
Ġp r
d er
Ġw h
c k
it s
Ġn ot
an d
inan cial
om m
Ġ l
Ġo ther
t e
y e
il li
illi on
Ġf r
Ġc omp
por t
Ġ lo
as e
or m
er m
i on
a d
i b
ic h
l ud
Ġsu ch
Ġa t
Ġex p
a ge
an s
i ties
Ġas s
g re
Ġfr om
qu i
a c
a ct
Ġm illion
Ġ W
Ġ li
ar d
Ġwh ich
Ġa pp
t ain
o ck
em ber
ar y
ĠĠĠĠ Ġ
lo w
ul t
tion s
u st
a ve
Ġm ay
re n
u re
Ġa m
al l
Ġ$ .
v id
il l
t h
Ġd is
as ed
Ġh ave
a m
ig n
Ġf inancial
Ġinc lud
Ġac c
o s
gre e
s o
d ition
Ġsu b
en s
ye ar
Ġo per
Ġ us
er v
f orm
i z
Ġun der
ar k
ĠĠĠĠ čĊ
u m
al ly
Ġth is
a x
ec ember
i es
ĠS t
at es
a p
il ity
Ġre g
Ġ U
Ġt r
Ġ year
om e
ĠD ecember
ar t
Ġre c
Ġv al
e f
a re
et s
Ġcon t
Ġ G
ĠC on
or s
Ġc omm
v en
Ġ its
e l
Ġ im
Ġ he
ul d
du ct
o re
r u
Ġd i
Ġc h
Ġres ult
ic e
Ġa l
ent s
re st
ec tion
a ir
at ing
m p
Ġp er
Ġre qui
Ġre port
t ed
Ġ en
te rest
Ġst ock
ĠR e
or d
Ġ le
in ess
gree ment
ĠĠĠĠĠĠĠĠ ĠĠĠĠĠĠĠĠ
Ġw ill
Ġp ur
s s
us iness
Ġm ark
ĠE x
o w
Ġin v
Ġsh all
Ġre l
Ġm an
Ġt ax
ci p
Ġco st
e w
Ġim p
an ge
u p
u al
Ġp ay
ig h
Ġw as
ĠW e
Ġm at
Ġst ate
ol d
Ġres p
ec tive
as h
ec ur
Ġe ff
eri od
Ġa ll
Ġval ue
_ _
Ġ H
is tr
re ct
end ed
Ġpro vid
Ġ J
Ġs e
l ic
Ġin terest
ur ing
erm in
c c
Ġp l
a il
Ġapp ro
f er
Ġam ount
Ġpro duct
if ic
Ġb usiness
s id
or por
Ġp eriod
ic es
Ġs erv
i v
Ġ -
ĠĠĠĠ ĠčĊ
Ġinc re
a ch
t o
mp lo
g es
Ġh as
c al
Ġa b
er tain
en er
i p
Ġass ets
Ġp re
ing s
ter n
is t
ro l
c es
a w
Ġs al
Ġt im
Ġmark et
a tive
ti m
t y
ur ren
ec u
j ect
u g
Ġc ash
T E
ĠIn c
li d
a res
o ur
iz ed
Ġinc ome
it al
Ġo ver
a k
red it
so lid
Ġdis c
Ġ )
o us
Ġm e
Ġo b
Ġ qu
Ġthe se
Ġad dition
ecur ities
igh t
Ġinv est
u b
ĠA greement
age ment
Ġn et
Ġc ap
Ġwe re
Ġtr ans
Ġmat eri
v al
Ġn o
Ġoper ations
he r
Ġco uld
O N
ol low
Ġinclud ing
Ġin d
Ġc l
it ed
Ġtim e
en ef
ar ti
solid ated
or t
ĠĠĠĠ ĠĠčĊ
Ġacc ount
ro w
or y
Ġo p
Ġg ener
an k
c ed
v is
i or
form ation
li g
Ġf air
T I
ab ility
p os
ect ed
e e
Ġcont rol
p t
Ġ up
Ġf ollow
Ġrel ated
Ġcon tr
v ers
Ġ if
ust om
ate ly
ug h
Ġlo ss
Ġd et
a ti
Ġre p
ĠC omm
Ġcost s
r ant
Ġd ec
Ġstate ments
ĠCon t
ĠU n
Ġof f
Ġw he
ĠP l
un d
i ed
Ġp art
g y
g r
Ġsh ares
Ġ es
ve lo
is k
il ities
o f
on g
en ti
is e
velo p
i ve
Ġreg ul
en se
Ġthe re
Ġ$ ,
Ġc ertain
ut ure
Ġ it
Ġc urren
Ġd o
ol l
Ġs p
Ġa ff
Ġ ended
Ġre ce
u res
o ut
Ġt erm
in e
Ġe mplo
Ġc ustom
w ard
Ġb ased
o ver
Ġis su
Ġes tim
Ġcomm on
Ġs ign
Ġa g
Ġ %
st r
Ġ V
Ġe ach
ecu tive
Ġth an
Ġd ate
Ġre ven
Ġo ut
Ġf uture
Ġproduct s
c tion
Ġmateri al
e x
ĠS ection
ĠP ro
Ġde f
ic al
o g
Ġre f
Ġyear s
res ent
ĠC h
Ġb enef
ad e
ific ant
Ġin formation
o se
E N
Ġrequi re
Ġf il
Ġreport ing
o uld
Ġsh are
Ġr ate
ff ic
ti t
Ġbe en
ĠN ot
Ġsub ject
Ġal so
er al
p r
' s
ro ugh
Ġhe re
w n
Ġcon dition
Ġresult s
Ġd uring
E R
Ġcon s
Ġcap ital
Ġd es
Ġde velop
Ġdet ermin
h ip
as s
A N
T he
o p
tern al
ĠPl an
fer red
Ġc redit
Ġdi rect
e ren
Ġrequi red
Ġsal es
Ġper form
as on
is cal
Ġr isk
tr ib
ĠF inancial
Ġthe ir
ĠA s
Ġd ue
Ġapp lic
vis ion
il y
s ion
og n
sid i
Ġn on
st ru
ĠSt ock
ĠA n
ur ance
x im
su re
Ġman agement
Ġsign ificant
ĠA ct
a us
ĠN o
ti v
Ġoper ating
ens ation
Ġcontr act
ĠO ur
. .
Ġe qu
Ġserv ices
ch ange
Ġfollow ing
an ges
ens es
Ġcurren t
i i
Ġrec ord
Ġpro per
as es
in cip
ĠĠĠĠ ĠĠ
Ġth rough
Ġli m
st and
__ __
Ġpur ch
orpor ation
old ers
o ard
or k
arti cip
ar ch
o st
t al
E S
Ġf iscal
istr ant
en ce
Ġpr im
xim ately
vers e
Ġin to
ĠSt ate
f ter
ĠCont ents
ib le
n ual
Ġ. %
i rect
qu is
c ess
ĠT r
ers on
Ġpr ice
u tion
Ġincre ase
ec h
a id
Ġn ew
Ġr ight
Ġo wn
ĠĠĠĠ ĠĠĠ
Ġup on
i al
m in
if ied
Ġl aw
Ġin s
Ġcont in
ective ly
u es
a g
v ed
b t
v i
stand ing
v ail
ĠT h
as t
Ġresp ect
ar ter
ĠA d
ar ily
Ġs ecurities
I N
Ġre ason
Ġcon solidated
quis ition
Ġm ore
Ġob lig
or row
su ant
ĠE n
O R
c y
ce ed
Ġm on
ab ilities
Ġaddition al
Ġappro ximately
Ġrec ogn
r it
ĠA cc
ar g
t em
o od
Ġ( )
Ġe ar
Ġre m
st an
A R
ab l
ĠEx ecutive
Ġw ould
ĠA m
Ġeff ect
ak e
o lo
ar i
Ġf ac
ĠĠĠĠ ĠĠĠčĊ
c on
Ġn e
Ġc an
i ti
ĠS e
Ġ j
I n
Ġm ade
Ġb as
Ġto tal
ech n
Ġexp ense
p end
a ce
Ġs et
Ġlo ans
A L
ar r
e red
Ġon e
Ġc ompany
Ġre du
Ġad verse
in ed
Ġrece iv
) ,
v es
ver age
l ect
y st
Ġemplo ye
Ġp os
Ġexp enses
Ġch anges
Ġpr incip
Ġ est
Ġsp ec
e ve
- -
Ġterm s
a red
Ġf und
Ġm ain
ers hip
Ġimp act
Ġex t
aus e
ĠF orm
Ġin ternal
le ment
on d
ar ies
w e
E C
a im
t en
v ent
Ġa vail
h ib
EN T
Ġg rant
Ġde bt
ti c
Ġprovid ed
Ġtrans ac
Ġprim arily
Ġbas is
A S
ĠP art
Ġa greement
is sion
am e
Ġdis trib
Ġa ut
Ġpro vision
um ber
T able
he d
Ġf ore
yst em
h or
Ġcustom ers
Ġreven ue
i a
Ġpr ior
Ġac quisition
Ġa fter
Ġinclud ed
I T
enti al
Ġr ates
Ġf low
Ġpur suant
Ġa r
Ġamount s
Ġqu arter
TI ON
k e
A TE
ow n
ti f
c lud
Ġissu ed
Ġapplic able
Ġli abilities
Ġprovid e
over n
Ġpl an
c r
at ory
Ġsub sidi
u tions
ation al
Ġacc ord
Ġlo an
e b
Ġinvest ment
ĠI f
ĠRe g
Ġac tiv
ed eral
ĠR es
Ġinclud e
N D
Ġdec re
Ġreg istrant
f or
l ed
ol ic
h olders
Ġwith in
Ġus ed
ĠB ank
an g
Ġdisc lo
i x
Ġin t
l d
f act
Ġv ari
ur n
Ġf act
gr am
Ġrequire ments
Ġp erson
re e
ĠB oard
Ġaff ect
Ġcon sid
ĠIn d
j ust
Ġab ility
ĠD irect
c ent
Ġaccount ing
Ġth ose
ant s
ĠRe port
ĠL o
Ġt ermin
Ġb ec
Ġequ ity
Ġdevelop ment
Ġout standing
eren ce
ĠO ffic
Ġus e
Ġf e
Ġwe ll
) .
Ġdes ign
Ġ K
val u
Ġre t
ĠL L
c ing
ce pt
an u
ub lic
ĠC orporation
Ġavail able
Ġpay ment
Ġc oll
Ġresp ectively
min istr
Ġn umber
Ġcl aim
Ġcomp ensation
ĠAcc ount
echn olo
Ġperform ance
c ul
Ġear n
it te
Ġloss es
gree ments
o ve
at a
in t
Ġrecord ed
Ġincre ased
Ġ ent
Ġeff ective
Ġm et
ĠC omp
su m
Ġ Y
ir d
a ck
Ġ y
ĠS ecurities
ĠS h
M ENT
Ġd ay
Ġserv ice
ur ch
Ġe qui
y ing
Ġp resent
Ġbe li
ĠTh is
a v
Ġaccord ance
Ġc arr
ĠD e
Ġen ti
ĠĠĠĠĠĠĠĠĠĠĠĠĠĠĠĠ ĠĠĠĠĠĠĠĠĠĠĠĠĠĠĠĠ
Ġcondition s
Ġproper ty
ĠF or
Ġfil ed
er c
Ġpurch ase
Ġgener ally
Ġal low
er cial
ĠThe se
on s
ir st
Ġp aid
ĠEx change
ĠM an
al ance
ĠO F
I C
itte e
res s
Ġre al
g ment
Ġb et
vid end
ompan ies
Ġcomp le
Ġwhe n
u ed
hib it
Ġpay ments
Ġfor m
du str
p tion
Ġs o
Ġexp ected
Ġoblig ations
Ġmon th
Ġright s
Ġg u
Ġl ong
v est
ĠOffic er
Ġo cc
Ġf ul
anu ary
Ġst r
Ġp ar
Ġch ange
p ar
Ġaut hor
er tif
il e
E X
Ġoff ic
ĠS ub
and ard
Ġpro cess
ĠLL C
Ġch ar
Ġli ability
ve l
y s
Ġme as
ist ing
Ġmain tain
we en
Ġh ad
Ġimp air
Ġa ud
ĠE mplo
i ef
Ġan nual
Ġe valu
re at
il i
Ġsal e
ĠJ anuary
ĠA ND
Ġm ake
Ġpro du
Ġac qui
Ġre str
Ġpro gram
Ġass et
l es
Ġad just
n er
Ġrecogn ized
Ġbet ween
Ġestim ated
. ,
Ġt w
ur red
Ġrestr ic
Ġs ystem
Ġb ut
o ci
Ġde li
it e
ĠState ments
- .
ĠUn ited
articip ant
f e
Ġcomp ared
Ġa ct
o int
Ġth ird
Ġbenef it
Ġqu al
ter m
Ġb ank
k n
Ġa greements
Ġass oci
ĠI N
Ġcon n
Ġman u
abl is
ĠSt ates
ĠO n
Ġex erc
Ġemploye es
Ġmanu fact
ĠM arch
ut ed
Ġdef ined
Ġrem ain
ĠNot e
Ġactiv ities
Ġreven ues
Ġp olic
Ġg overn
ĠP r
ced ures
w ise
O L
un e
Ġle vel
Ġl ess
ment al
Ġdi vidend
o li
ut e
( )
Ġdi ff
f ore
orpor ated
Ġprincip al
on om
Ġc ompanies
Ġsu pp
ro up
Ġcomm ercial
o c
Ġa ward
Ġins urance
Ġcomp e
id ent
ĠS erv
Ġop tions
Ġ end
Ġm od
Ġinvest ments
y ment
Ġflow s
Ġref erence
ow er
vi ew
Ġper cent
Ġregul atory
Ġperiod s
ĠNot es
Ġother wise
ti ce
Ġ$, ,
Ġest ablis
I S
n ing
Ġw rit
Ġpro ceed
Ġsub stan
I D
Ġdirect ors
Ġcon tain
Ġre n
on e
Ġlaw s
Ġin dustr
g an
iz e
Ġimpair ment
Ġpos ition
Ġt echnolo
Ġconn ection
Ġreg ard
u ti
Ġse ll
h od
Ġregul ations
Ġbenef its
b y
cc ess
Ġpro f
Ġdetermin ed
in es
Ġbe low
ti z
ur ther
ĠC redit
ec onom
e ver
pos es
g ate
per i
Ġwhe ther
Ġlo w
Ġp arti
Ġassoci ated
ec ess
Ġde ferred
Ġsubsidi aries
Ġp or
or tiz
Ġlim it
ĠJ une
Ġg ood
Ġle g
p re
Ġob tain
Ġfor th
g age
ecur ity
ĠCon solidated
ol der
Ġin stru
Ġfore ign
b ased
en ior
Ġl ic
Ġfact ors
s ed
t in
Ġf ederal
ĠA l
and s
o k
orpor ate
pend ent
li ance
Ġprovision s
Ġv ol
S U
Ġg row
Ġp ot
Ġcustom er
C I
al th
he n
Ġtransac tions
eb ru
ebru ary
ĠĠĠĠĠĠĠĠ Ġ
* *
qu id
Ġpro cedures
er gy
Ġpur poses
in al
Ġp erm
Ġgener al
ul es
ar ant
p ro
Ġin ter
Ġlim ited
it ted
Ġcontin ue
p ment
Ġ econom
Ġwh o
ministr ative
ĠS u
Ġf irst
Ġearn ings
an ces
g o
Ġb orrow
ĠCh ief
ĠP articipant
Ġrep resent
Ġmet hod
Ġfe es
Ġwith out
s ing
Ġme et
p art
pr i
A TION
.. ..
D A
ĠA g
Ġestim ates
Ġsubstan ti
our ces
iz ation
ĠTr ust
r ic
Ġn at
is c
Ġhe ld
Ġb alance
su mp
Ġus ing
pt ember
Ġp ublic
ĠO per
Ġmark ets
Ġe vent
Ġg as
f ul
l ess
ĠComm ittee
Ġpr ices
Ġd ata
Ġ "
Ġclaim s
ab ly
ro ss
d e
Ġadverse ly
Ġab ove
Ġs im
ic i
ens ion
Ġcontract s
Ġag ain
Ġd eri
ort f
Ġof fer
Ġpart y
Ġcl ass
ĠI tem
Ġc al
clud ing
ar rant
____ ____
ĠL end
Ġreason able
Ġc oun
Ġbeli eve
Ġst andard
Ġass ess
w ill
l ine
ir on
Ġth ree
ĠDirect ors
Ġsu ccess
v ing
Ġle ase
al s
Ġtr ad
cr ib
ĠAccount ing
ĠB orrow
ĠMan agement
t s
ĠS EC
Ġpor tion
Ġpl ans
Ġf ail
Ġa verage
Ġm in
Ġagain st
om b
y p
res ident
ĠD ate
ĠF ebruary
Ġext ent
ĠSe ptember
c l
e ar
Ġre view
ortf oli
Ġn ecess
Ġreceiv ed
Ġtax es
Ġcontrol s
Ġp at
t ers
ĠS T
Ġhere in
Ġex isting
v iron
Ġtw o
u ly
il ar
Ġvari ous
Ġag gre
ot h
Ġdisclo sure
ĠC ON
Ġret urn
ĠP re
Ġv est
inan cing
Ġfac ility
Ġg ain
Ġt able
R E
Ġdecre ase
ĠLo an
ci es
g in
ed i
u ation
Ġexp ect
Ġw ork
ark et
w ith
Ġd em
ĠR E
ur al
Ġex peri
a ges
lo c
ow ever
Ġon ly
ĠN ew
Ġappro val
ort gage
Ġop tion
ĠL e
Ġpar ties
Ġ kn
Ġin iti
Ġacqui red
Ġam ortiz
n ership
ic ally
b le
ate g
Ġe lect
Ġc ertif
Ġde pos
Ġ) ,
n ess
Ġaccount s
Ġas sump
ar m
W e
Ġp ortfoli
Ġdo es
r ange
Ġconsid er
Ġ) .
Ġlo c
Ġfac ilities
ic ate
at eral
eri es
Ġpro ject
Ġc ase
ĠC l
s et
ap ital
Ġregard ing
ver ti
ve red
Ġequi pment
Ġsu m
Ġday s
ĠA t
ĠAn nual
im um
Ġdeli ver
Ġpot ential
Ġaggre gate
qu ent
ĠT O
in ation
enti f
E x
o ber
in ical
Ġinc urred
it her
Ġpay able
Ġsim ilar
Ġcurrent ly
Ġan ti
Ġfund s
Ġac ce
Ġbe ing
id e
ĠM r
Ġinclud es
Ġstate ment
Ġs ame
ĠI I
ti l
ye e
urch ase
u ct
Ġse gment
Ġnot es
Ġad op
Ġam ended
Ġcons ist
in d
Ġun its
c he
Ġin te
Ġnecess ary
Ġli quid
Ġfollow s
Ġdistrib ution
Ġeconom ic
Ġt est
Ġex change
ĠP resident
Ġindustr y
ĠComm on
Ġh ig
C on
o u
c um
Ġ id
Ġrel ating
Ġthe n
Ġs ec
Ġc lo
Ġli ke
Ġthe y
Ġgrow th
Ġrisk s
Ġre qu
p port
p l
er ve
crib ed
Ġh igh
ĠAg ent
er g
ĠĠĠĠĠĠĠĠ čĊ
Ġd ated
O M
ti re
Ġset t
Ġportfoli o
ĠĠĠĠĠĠĠĠ ĠĠ
en cy
tin ued
Ġor der
ĠA ss
i vid
ro ll
Ġaud it
ĠO ther
Ġp articip
a j
Ġs he
Ġm ost
Ġmonth s
H E
MENT S
Ġb oth
Ġam ong
end ment
ĠA r
-- --
Ġ Q
Ġd r
Ġassump tions
ific ation
Ġresp ons
Ġinv ol
Ġgrant ed
s p
ir m
Ġlow er
ĠF IN
Ġcarr ying
a ult
ic ing
Ġf urther
at er
Ġmateri ally
ĠComp ensation
stan ces
ix ed
n ot
Ġdividend s
Ġne ed
ecu red
Ġres erv
te red
c ertain
Ġt yp
Ġful l
Ġimp ro
tr act
Ġemplo yment
Ġar range
f r
U R
en tive
ATE D
Ġ uti
un der
Ġinstru ments
Ġan n
Ġproper ties
v ents
aw are
ar ge
Ġsu pport
e pendent
er ic
I tem
Ġtermin ation
el aware
a f
Ġcompe ti
Ġexerc ise
Ġf our
h t
end ing
Ġp res
Ġc ir
ct ober
aj or
Ġspec ific
or n
w are
Ġhig her
Ġcontr ib
Ġent ered
Ġderi v
ĠBorrow er
em ed
Ġacc ru
Ġno tice
S C
oll ar
ur se
tire ment
ĠC od
Ġprovid es
i an
Ġtransac tion
Ġprodu ction
i re
Ġoff set
in s
em n
Ġh old
Ġ ro
Ġc omb
ci ation
Ġreport ed
Ġen viron
ang ible
en cies
pr il
CI AL
Ġgu id
ĠD ef
Ġs old
m an
Ġh ist
in c
i ent
Ġp h
et y
Ġh is
Ġreason ably
ec ti
AN CIAL
o b
Ġwhe re
Ġrece ive
ĠTr ans
Ġpolic ies
Ġdisc us
c tions
ĠIn vest
ot her
g ation
Ġs ome
re l
v ol
ĠLend er
Ġf inancing
Ġtechnolo gy
ĠT ax
ĠM ay
ĠO ctober
Ġab out
vi ous
ĠIN C
ĠD uring
Ġw arrant
Ġrec over
Ġaward s
Ġind ivid
Ġcon duct
Ġ :
ĠST ATE
ĠSub sidi
al ys
l er
Ġcomp liance
Ġhe d
i el
Ġcon sum
tern ational
Ġex ecutive
ĠFIN ANCIAL
ap h
Ġest ate
ĠB usiness
L E
ĠE X
Ġwrit ten
Ġcal cul
Ġleg al
c u
O TE
is tered
Ġcir cum
ĠA pril
cul ar
Ġcomp on
Ġm ust
Ġval uation
in ce
Ġme ans
Ġre le
s h
ĠComm ission
Ġad v
Ġsystem s
Ġaff ected
Ġex cept
Ġref lect
is ion
Ġmeas ure
Ġequ al
e y
Ġcon stru
Ġid entif
ĠĠĠĠĠĠĠĠ ĠčĊ
Ġb r
id ential
u ally
Ġm ajor
Ġinc orporated
at or
Ġallow ance
ati ves
Ġal loc
ati s
ent ure
h older
abl es
Ġs ecurity
Ġins tit
a i
Ġdes cribed
Ġe ither
m ber
Ġstock holders
ĠĠĠĠĠĠĠĠĠĠĠĠĠĠĠĠ čĊ
Ġc ause
Ġe l
ĠJ uly
qu ity
ĠCod e
Ġnat ural
ĠEx hibit
Ġe vents
Ġad d
Ġdisc ount
i um
Ġo il
ay ment
Ġrequ est
ĠCont rol
ĠAm eric
Ġhe alth
ĠA ll
Ġse e
in cluding
re c
Ġdem and
Ġbe gin
Ġun til
om es
Ġcl inical
Ġp ower
i ven
Ġdiff eren
ĠN et
ĠAn y
y er
Ġme an
Ġst at
Ġbe fore
ic ation
Ġresult ing
Ġmarket ing
ĠD isc
ow led
Ġoffic ers
ĠA c
m ission
Ġemploye e
um ul
lo b
Ġlike ly
Ġth ous
ab or
Ġgood will
ĠEmplo yee
ĠS p
Ġass urance
alys is
al e
em b
Ġcircum stances
Ġc orporate
p ut
Ġpro t
ations hip
Ġor ig
se quent
Ġb illion
Ġm ortgage
Ġse ver
go ing
n el
Ġde l
iel d
ĠĠĠĠĠĠĠĠ ĠĠĠĠĠ
ĠH old
Ġf ixed
ĠA ward
ĠNo ve
A P
I B
ĠState ment
ĠC apital
Ġoffic er
ĠNove mber
ren t
oun d
ĠG ener
ven ess
ĠEn ergy
il d
Ġremain ing
li z
Ġrequi res
Ġcon f
ĠG roup
Ġappro ved
su res
ĠServ ices
Ġen tit
Ġa gre
Ġpre p
Ġenti ty
Ġprof it
Ġstandard s
Ġex ceed
Ġhist or
ic t
p le
Ġim m
Ġpresent ed
ug ust
Ġpre vious
Ġ, ,
Ġissu ance
Ġrestric ted
Ġun certain
Ġac tion
Ġexperi ence
Ġparti cular
u le
Ġj ud
Ġanti cip
ecti veness
Ġappro pri
u red
ĠIn terest
ĠInc ome
Ġproceed s
ly ing
Ġsum m
Ġs c
Ġredu ce
Ġde emed
Ġab le
Ġrec ent
a pp
Ġocc ur
Ġown ed
Ġb ro
it ures
Ġreserv es
Ġact ual
s erv
ĠThe re
Ġex cess
Ġfor ward
ĠUn der
ĠR ec
ĠL i
ĠD elaware
Ġre se
lob al
Ġun it
Ġindivid ual
Ġit em
Ġb u
ĠPro per
s ive
Ġmat ur
ii i
gr aph
ĠSh ares
ĠA ugust
Ġbec ome
S OL
as ing
Ġind ic
Ġli fe
Ġequi val
d ic
op e
ĠSTATE MENTS
ĠS eries
Ġcurren cy
ĠI s
en ant
Ġind ependent
c er
li ed
Ġconsid ered
re hen
rehen sive
Ġestablis hed
ĠF ac
- (
Ġv ot
Ġbec ause
cl us
ign ed
Ġpos s
ch i
Ġsubsidi ary
is ed
Ġde pend
ul ti
ĠT able
Ġgu arant
par ation
g ments
C E
Ġb oard
ven ue
ĠĠĠĠĠĠĠĠ ĠĠĠ
is s
Ġne g
st ate
for ce
Ġdetermin e
SOL ID
ĠO ption
Ġtr ust
Ġs atis
urren t
Ġmanufact uring
ru g
al f
ur is
r a
Ġthere of
ĠP er
or th
Ġinv ent
Ġinterest s
ili ates
Ġdo cu
ak ing
Ġown ership
Ġg ross
of t
Ġguid ance
ĠDirect or
ĠE quity
Ġr ati
ĠB enef
SOLID ATED
av or
Ġ /
Ġspec ified
ĠA pp
uris dic
Ġchar ge
Ġtr ial
o ugh
ĠM arket
ĠC o
ĠEn ter
ĠReg ul
Ġappropri ate
Ġlevel s
w ork
Ġprogram s
C C
ĠS ee
Ġeff ectiveness
Ġpre m
Ġreport s
B S
Ġy ou
Ġentit led
Ġp ost
ĠPart y
Ġestim ate
Ġa chi
r on
Ġdesign ed
Ġval ues
in ion
TE M
ĠM at
ag ed
Ġc he
i er
vol ving
Ġexp end
Ġcoll ateral
Ġf l
Ġgovern ment
Ġre tain
Ġm arg
Ġsh ould
ffic ient
Ġuti liz
ib ility
Ġd am
p ted
ĠT HE
Ġen g
g ies
Ġdis pos
Ġchar ges
a ff
Ġat trib
Ġrese arch
ĠAd dition
ac ity
Ġbegin ning
Ġcomm it
and l
oft ware
Ġg reat
ti gation
Ġoblig ation
Ġtrans fer
Ġpr iv
ĠĠĠĠĠĠĠĠ ĠĠĠĠčĊ
Ġacquisition s
Ġb ase
Ġex am
Ġcontain ed
Ġlo cal
Ġmanufact ure
Ġpr ac
Ġdecre ased
Ġle ases
Ġrel ationship
if y
ĠP h
Ġvol um
Ġcomple ted
ĠO r
Ġimpro ve
Ġimp lement
ur y
Ġenti ties
Ġlic ense
ec tions
ĠR el
Ġdec l
ĠF ederal
Ġad ministrative
ĠV al
ĠG u
c omp
t ing
Ġex ec
ue l
Ġthous ands
Ġent er
Ġpercent age
Ġsubstanti ally
ĠF r
ĠV ice
ay s
ĠM ed
n ers
ĠOper ations
ĠReg istrant
Ġat t
Ġl arge
igh ted
C ompany
Ġevalu ation
ĠCON SOLIDATED
Ġt reat
is ing
E D
Ġaccru ed
u c
im b
) :
Ġderiv ative
Ġr ules
Ġsh ort
is es
R e
ĠH e
lig ible
Ġs enior
part y
ĠS enior
-. >
Ġc or
Ġf ive
ĠE ur
Ġc r
Ġcan not
ĠPart nership
Ġneg ative
r al
Ġsubstanti al
ĠP R
ĠSh are
ĠRes tr
p h
it le
is ted
Ġj urisdic
Ġdirect ly
form ance
Ġimm edi
Ġint angible
in ance
e qu
Ġm ulti
Ġredu ction
ĠS U
Ġacc ess
owled ge
Ġful ly
Ġfail ure
i o
Ġor d
h old
rel ated
Ġv i
Ġas sum
Ġmod el
Ġb re
< /
Ġc aus
Ġsec ond
Ġs el
Ġprincip les
Ġor gan
ĠT o
O ur
Ġincre ases
ĠCl ass
ĠF AS
.... ....
Ġinte gr
Ġpolic y
Ġarrange ments
ut able
ĠFac ility
O U
e es
Ġgreat er
Ġsupp li
Ġc li
Ġcap acity
S I
Ġbusiness es
Ġconsider ation
at ors
ac tion
Ġcontin u
Ġloc ated
istr ation
ĠC ash
l ity
Ġhistor ical
Ġm ed
m all
Ġshare holders
Ġhere by
ac c
iv ers
Ġconstru ction
arg et
and id
Ġredu ced
in a
ĠL im
Ġco ven
ff ective
Ġg roup
ĠAd ministrative
ĠF und
i tive
ess ion
Ġprevious ly
Ġs ince
du le
Ġso le
T S
Ġgain s
Ġexpend itures
Ġeff ort
Ġpat ent
vers ion
in ated
Ġsignificant ly
Ġamortiz ation
ĠHold ings
Ġres ources
ĠF DA
Ġbe h
Ġestablis h
Ġ X
Ġqual ity
ĠN on
p tions
ĠPre ferred
Ġdef ault
l ation
s ue
Ġcomm un
ĠIn formation
ok ing
ĠP erson
Ġmin imum
Ġcoun tr
o res
Ġthe m
Ġad equ
Ġsatis f
Ġop inion
Ġsee k
Ġre li
Ġst ud
Ġman y
oc u
Ġsuccess ful
ĠEx p
Ġret ail
Ġadop ted
Ġco vered
is h
Ġse par
Ġp en
e ll
Ġac cept
ĠC OM
Ġd rug
re tion
Ġcomp ly
che dule
Ġdeliver y
port un
ĠT erm
Ġs oftware
verti ble
Ġun less
Ġcompeti tive
ĠR isk
ad ing
et ary
erg er
Ġexp o
Ġinvent ory
Ġstr ateg
ompany ing
Ġiniti al
ol utions
Ġreceiv able
Ġc andid
ke y
S t
al ties
OTE S
ten ance
Ġprem ium
ĠGener al
ag ing
ĠT enant
Ġliquid ity
Ġcomp ar
ac y
Ġh owever
eb ted
Ġj oint
ler ated
Ġpre ferred
Ġh olders
ĠC an
Ġsu fficient
re as
ebted ness
Ġac tions
Ġin st
Ġf ee
ic ted
A T
Ġp ati
Ġsett lement
Ġpl us
pre ciation
Ġpr om
Ġun able
Ġp ension
Ġdec ision
Ġsub sequent
g ed
eve l
Ġop portun
Ġenviron mental
p ose
ĠA ff
P OR
g et
Ġin put
Ġs ur
Ġle ast
Ġperm itted
Ġre imb
ĠFAS B
Ġpr icing
Ġmat ters
ĠS out
un ction
res p
Ġresp ective
Ġacce pted
A s
ens ed
ĠSu pp
en ced
re g
ĠB ased
u ations
Ġauthor ized
ĠD istr
ĠAm endment
ĠIn s
ex t
Ġdepos it
Ġoper ation
ht m
Ġmaterial s
Ġquarter ly
ĠH owever
le ar
P L
ĠPro duct
Ġacc ompanying
andl ord
o per
Ġ [
Ġcomp rehensive
sid e
Ġc re
ĠOper ating
Ġcons tit
Ġexp ress
Ġadjust ments
Ġm emb
A C
Ġattrib utable
ĠP ar
ti ces
Ġfour th
ĠIn ternal
w h
IN G
Ġc orporation
Ġbeli e
x y
Ġimmedi ately
r s
se l
Ġpurch ased
A AP
Ġl ine
ĠO wn
ĠY ork
Ġtrad ing
ing ly
tic s
Ġactiv ity
l and
ĠRe venue
ĠIs su
Ġ key
ĠC al
Ġre st
Ġrespons ible
ĠEnter gy
or p
ĠĠĠĠĠĠĠĠ ĠĠčĊ
clud ed
Ġd il
Con tinued
I ES
Ġitem s
Ġoffer ing
Ġshe et
Ġcons ent
F IC
a ud
ĠR ule
ĠA SU
Ġd ollar
ĠD ocu
Ġt ake
Ġapplic ation
o ff
al ty
th ough
Ġwh ol
Ġt e
Ex hibit
t on
ĠGu arant
res ents
Ġco verage
ll ect
iz es
llect ual
Ġoper ate
p lo
Ġwe ighted
Ġm is
Ġcontract ual
Ġdepos its
eri a
Ġbeh alf
le y
Ġf inal
Ġman ner
Ġhere of
ar b
ĠW h
Ġcompe tit
Ġspec ial
Ġind emn
Ġ. (
Ġreg istered
Ġd ed
Ġ. .
er ing
Ġpl ace
Ġen ergy
ĠProper ty
ic s
Ġcomp et
Ġmatur ity
Ġsu per
ĠS ystem
Ġdec line
Ġprim ary
Ġrestric tions
Ġkn owledge
Ġadd ress
Ġassess ment
ĠServ ice
af ety
v ant
Ġsupp ly
Ġfl uct
g ing
Ġcons ult
Ġs w
l or
ĠLim ited
Ġche ck
b e
Ġperson nel
avor able
Ġli tigation
Ġp ast
Ġinc ur
or ies
Ġhere under
ĠY ear
ĠCan ad
oc us
Ġmain tenance
Ġcaus ed
ĠG rant
AR T
Ġoff ice
Ġd id
Ġy our
ĠSubsidi aries
Ġsever al
ĠS al
Ġwarrant s
Ġpro pos
O C
Ġeffort s
Ġborrow ings
Ġg iven
Ġsumm ar
F AS
Ġs mall
A B
ak en
incip al
rit eria
Ġcompon ents
ermin ation
ĠU S
Ġdirect or
Ġtreat ment
ĠInc entive
Ġun d
Ġ- ,
cr ip
Ġparti ally
an ch
Ġin f
Ġrece ip
ur suant
Ġvol ati
Ġrep l
ĠG overn
Ġrati o
ĠAmeric a
E P
Ġclass ified
ex p
ic ial
Ġperson s
Ġam end
Ġp red
ĠP eriod
U n
Ġthere to
Ġrep urchase
Ġdisc retion
ot al
T R
our ce
Ġc are
Ġcoven ants
ate gy
Ġs ecured
at her
ĠLe ase
lo ss
Ġadop tion
m itted
Ġdistrib utions
Ġcont ing
lo oking
a fter
r ing
ĠSe ll
Ġnet work
Ġin fr
Ġmajor ity
Ġdi ffic
ĠRestr icted
Ġunder lying
m it
ĠP ublic
ĠO b
Ġsub s
Ġan alysis
Ġtr ade
Ġkn own
Ġt arget
Ġco ur
ĠM e
Ġcompetit ors
H ER
Ġass ign
ot e
Ġapplic ations
ĠUn its
os s
Ġposition s
O n
Ġd own
Ġvest ing
Ġbelie ves
ĠEur ope
Ġdef in
ult s
Ġren ew
ir ing
ĠO ff
Ġinput s
ĠE ach
Ġen force
Ġp oint
or ld
at h
Ġocc urred
ut hor
ĠL andlord
ic ations
R S
Ġcontin ued
N G
Ġfil e
umul ated
ĠP ower
Ġposs ible
Ġm ax
Ġtax able
Ġcarr y
Ġconsum er
ĠC ertain
Ġmeet ing
ĠSu ch
ĠC oll
ĠN orth
Ġf uel
Ġdetermin ation
Ġl ast
Ġexpo sure
Ġadjust ed
ĠAss ets
Ġc ent
I TEM
U S
ĠTrust ee
G E
ĠRel ated
li min
ing le
Ġex ist
Ġf ocus
Ġmean ing
ĠLo ans
Ġdeli vered
Ġwh ile
ĠDisc lo
Ġdiscus sion
t d
Ġt en
ĠII I
c o
Ġpart nership
ru ct
is hed
velop ment
ĠD is
Ġac tive
Ġc riteria
Ġamortiz ed
Ġsell ing
Ġde v
ect s
os ed
Ġreimb urse
ĠA SC
V E
________ ________
ion s
Ġover all
Ġaccount ed
Ġagre ed
Ġother s
Ġclo sing
Ġpriv ate
Ġrespect s
C h
Ġe vid
app ro
ous e
ĠL td
Ġf irm
em ption
Ġb al
Ġbu ild
Ġle t
P A
Ġdifferen t
Ġis sue
Ġt echn
t ax
Ġpart ner
Ġmarg in
Ġcandid ates
Ġe ligible
Ġacqui re
Ġinstit utions
ĠPer formance
Ġcon cer
Ġcommit ments
ĠB r
Ġcoun ter
Ġcomb ination
iz ations
Ġachi eve
AN T
ĠD es
o ok
ĠB u
Ġexp and
Ġpat ents
ĠCon tract
ĠC ertif
Ġst ruct
Ġlimit ations
Ġapp ly
rec ogn
he re
m e
ĠAddition ally
Ġcomm ittee
Ġnat ure
Ġind irect
ĠC our
Ġpre paration
ex as
ĠR ate
ĠP a
er r
on us
b s
Ġvolum e
Ġmemb ers
Ġreal ized
ĠS ecurity
Ġinc entive
Ġs ingle
Ġcontinu ing
Ġcon version
Ġtim ing
Ġr ating
ren d
clus ive
Ġrecogn ition
ti cal
Ġout side
---- ----
Ġcomple te
stru ct
ĠInvest ment
al ized
Ġpro sp
ĠD ata
Ġfore c
Ġadjust ment
Ġresult ed
por ary
ĠL evel
ĠQ u
Ġfund ing
ĠC ost
Ġrel ative
y n
Ġrelationship s
if orn
iforn ia
ut es
Ġtime ly
Ġvi ol
Ġin ternational
Ġinte llectual
ĠIn ternational
Ġauthor ity
ĠSt andard
ver y
Ġjud gment
ĠP urchase
Ġsw ap
Ġvot ing
ro und
Ġhold ing
H IB
$ .
Ġco p
Ġad vis
Ġc ateg
it or
Ġprovid ing
he s
Ġs ources
ĠP urch
re ad
HIB IT
ight s
Ġanticip ated
Ġaff iliates
e p
tiv es
ĠN OTES
ID I
Ġr ange
Ġstr ategy
ĠS ec
ign ificant
Ġrep resents
ol ution
pri etary
Ġdel ay
t ary
w rit
ĠC urrent
Ġqu ot
ai red
Ġneed s
Ġm ember
ĠCour t
wh ich
Ġ ul
crip tion
at ure
Ġre d
ĠĠĠĠĠĠĠĠĠĠĠĠĠĠĠĠĠĠĠĠĠĠĠĠĠĠĠĠĠĠĠĠ ĠĠĠĠĠĠĠĠĠĠĠĠĠĠĠĠĠĠĠĠĠĠĠĠĠĠĠĠĠĠĠĠ
Ġpre vent
Ġb ond
Ġint end
an y
Ġwork ing
Ġ ge
Ġorig inal
tim e
ĠSU BS
Ġproject s
Ġse gments
Ġcomp r
D ecember
ĠCh ange
ent ures
Ġdiscus sed
ĠF air
ĠR est
ay ments
su red
reas ury
IDI AR
ĠT exas
Ġpur pose
Ġequival ents
Ġy ield
ĠVal ue
Ġinst all
Ġam endment
Ġpen alties
o ol
Ġserv ed
Ġfore going
Ġop en
verti sing
ĠW ith
ru pt
Ġreturn s
ĠU p
a z
ĠOb lig
O P
Ġdesign ated
em plo
Ġn ext
Ġman age
ĠSubsidi ary
Ġs ection
su b
ten tion
Ġtermin ated
Ġtechnolo gies
Ġen sure
Ġaut om
get her
ĠS FAS
Ġs ix
Ġeffect s
con t
Ġcountr ies
Ġt aken
ĠCal ifornia
Ġfil er
Ġl arg
Ġbal ances
serv able
in ary
Ġcon solid
ĠRegul ation
l ected
Ġregul ation
Ġen h
Ġn ame
ĠL aw
Ġearn ed
Ġrele vant
ĠG AAP
Ġde preciation
ĠIns urance
Ġun re
Ġare as
Ġind ebtedness
Ġfil ing
Ġperform ed
Ġcompon ent
m on
Ġres erve
Ġre struct
ĠSUBS IDIAR
Ġcalcul ated
Ġ.% ,
ĠRe p
Ġhigh ly
Ġ( "
Ġacc umulated
ĠS he
Ġtyp ically
Ġrecover y
Ġdet ail
ĠC orporate
Ġelect ric
Ġco ver
Ġag encies
Ġtermin ate
Ġg o
d ate
d ed
OR POR
Ġg lobal
ili ate
Ġar ising
Ġt rend
Ġob j
C H
end ar
Ġul tim
ĠAcc ord
ĠT ermination
Ġvolati lity
Ġe m
c are
le ase
Ġlong er
in ing
S E
Ġmed ical
o graph
ĠF irst
Ġproceed ings
k er
ill ing
recogn ized
Ġpre ced
Ġmax imum
Ġs afety
e ed
er red
B R
Ġint ended
uti cal
in vest
Ġmeasure ment
Ġgener ated
in terest
Ġexec uted
Ġadequ ate
Ġre tirement
ace utical
Ġsc hed
Ġbank ing
Ġal tern
Ġn am
Ġm aking
Ġreceip t
air man
Ġth ings
iv ing
l ass
Ġpati ents
w ay
Ġg r
ĠF urther
Ġmeas ured
an e
arm aceutical
Ġn or
Ġqual ified
Ġtrial s
ount s
Ġenti re
i pp
Ġref lected
** *
Ġelect ron
ĠĠĠĠĠĠĠĠ ĠĠĠĠ
roll ing
e ti
arg ed
ĠSupp lement
Ġconsist ent
Ġperm it
ir ation
omes tic
Ġacce lerated
Ġl and
Ġfair ly
Ġb est
ar ing
Ġdiffic ult
n s
th at
Ġt em
ĠE ffective
I R
av ing
Ġa ir
b ack
Ġs olutions
Ġlimit ation
Ġare a
Ġpl ant
Ġim port
qu al
ip el
Ġc all
Ġindic ated
eri al
Ġtest ing
Ġdocu ments
Ġdisclo sed
Ġre ferred
Ġcour t
Ġpro prietary
Ġdam ages
Ġinstit ution
Ġdiff er
Ġm il
Ġex ecu
with standing
Ġw orld
Ġbre ach
Ġ k
Ġrecogn ize
Ġvest ed
P ro
Ġcontrib utions
E O
Ġh arm
ĠN ational
ag er
Ġinvest ors
an es
ĠEmplo yer
) ()
Ġcompeti tion
Ġpro b
Ġdocu ment
f inancial
Ġsepar ate
Ġco urse
ĠInd emn
Ġtrans port
c ome
Ġcal endar
ĠB l
Ġprot ection
Ġopportun ities
ĠC ent
TE D
ut ory
he rent
ĉ ĉ
ĠMed ic
Ġdispos ition
Ġdetermin ing
av ings
TI NG
Ġl end
Ġro y
ĠSUBSIDIAR IES
os p
Ġhed ge
ĠDe bt
Ġel ection
ef ul
Ġle ad
or gan
Ġjurisdic tion
Ġmeas ures
part ment
Ġthere fore
ĠG ood
ec ause
Ġagre es
it es
Ġalloc ated
ĠAd ministr
h ic
Ġconduct ed
ĠInd enture
ĠPr ior
ac tions
Ġavail ability
ic k
o v
Ġprof ession
ĠT echnolo
r ation
Ġstat us
Ġimp aired
Ġpropos ed
Ġ$, .
p aid
ĠAc quisition
Ġmaintain ing
a graph
I P
ĠTax es
Ġassum ed
Ġparticular ly
Ġdevelop ed
as ter
Ġnot e
ĠHe alth
Ġincre asing
Ġbro ad
Ġ ve
r ap
ac tive
ĠG lobal
Ġm er
Ġcomp ut
Ġm y
a h
OU N
ĠA C
" )
m arket
E F
c omm
Ġperson al
Ġon going
an c
Ġcli ents
L O
Ġd en
ĠAl though
Ġus eful
Ġl abor
Ġequival ent
Ġconting ent
Ġauthor ities
Ġto gether
Ġpurch ases
ĠColl ateral
ĠAccord ingly
w ide
ins urance
ER S
Ġsuppli ers
Ġarrange ment
d r
an ti
ĠRes ults
or age
at form
Ġdisclo sures
ĠAm ended
Ġsign ed
Ġprac tices
en ces
ĠI t
Ġb ack
Ġf avorable
ĠCh anges
Ġidentif ied
ĠSell er
Ġconstit ute
Ġd ates
Ġrepl ace
Ġal le
Ġe limin
Ġrecord s
Ġab s
Ġpreced ing
ĠAs so
Ġemplo y
Ġin herent
an ced
Ġsuper vision
Ġwhol ly
Ġvari able
li ved
Ġp a
for ward
Ġfluct uations
Ġf urn
Ġag ent
ĠCon dition
Ġwe bs
Ġevid ence
ĠR ules
ĠPro gram
Ġbank s
own ed
c oll
ĠA G
TI ES
Ġcon ver
Ġre volving
Ġc ases
y l
ĠAr tic
Ġevalu ating
Ġcon vertible
ĠA CC
Ġenviron ment
Ġaud its
Ġre de
Ġdisc on
Ġcomple tion
Ġstrateg ic
Ġ ;
Ġwe ak
Ġres idential
ĠL ic
go ti
as er
E T
SI ON
Ġex ternal
ain ing
Ġinv es
Ġleg is
ĠIn ter
e ase
Ġun s
inc orporated
Ġde pendent
Ġhere to
ĠWh ile
ĠRE IT
ang ing
Ġrestruct uring
Ġpart ners
ĠCOM P
Ġapp lied
ĠPar ties
Ġl ater
Ġinter pre
Ġ Z
Ġn orm
Ġprofit ability
Ġph ys
ĠA R
Ġre ad
Ġform er
i e
L L
IT Y
le ments
ak es
ĠCh ina
ĠP ursuant
li er
Ġissu es
Ġm erger
P r
Ġobtain ed
ĠSal es
tr uct
C omm
Ġbr and
in k
Ġcapital ized
ens ive
Ġprot ect
umul ative
ĠRest ated
n ed
Ġch arged
su ch
ĠI mp
Ġan al
c ash
Ġl ines
Ġwrit ing
Ġad vertising
Ġa gree
B y
Ġmon itor
hib its
ĠInd ex
ĠDe velopment
Ġvari ety
Ġdifferen ces
Ġmonth ly
Ġreceiv ables
ĠP olic
Ġst ates
ĠSp ec
ind ing
Ġpres ents
o tion
Ġb ook
Ġcomb ined
ĠCanad a
Ġexp iration
Ġgovern mental
Ġdistrib ut
g ical
Ġeff ici
Ġren t
Ġreg ion
ĠE lect
am ily
Ġr a
ian a
Ġunder writ
Ġreg istration
Ġst ated
Ġh aving
urren ce
E M
lo sing
Ġcoll abor
Ġm ight
I G
ĠĠĠĠĠĠĠĠ ĠĠĠčĊ
Ġcompet e
Ġear ly
ĠAn alysis
Ġreview ed
Ġconsist s
Ġh ome
ific ations
ati c
ĠC ORPOR
el ve
Ġcomm od
Ġuncertain ties
Ġmulti ple
ĠStandard s
Ġcompar able
ang ed
g ress
Ġfor fe
Ġtim es
Ġhe r
Ġf ree
Ġimpact ed
c om
ĠP ayment
un ctions
Q U
Ġd uly
Ġamend ments
li es
ĠC ar
em ark
In d
Ġf inance
Ġ% ,
Ġin j
Ġperform ing
i qu
ĠĠĠĠĠĠĠĠ ĠĠĠĠĠĠĠ
ĠF OR
Ġunre alized
Ġexp ire
us sion
Ġb onus
Ġv ary
Ġprep ared
C O
iti cal
af t
S P
Ġnegative ly
ĠOblig ations
Ġren tal
ĠF act
ĠC ol
Ġend ing
Ġgener ate
b it
Ġprovid ers
Ġd omestic
Ġprocess ing
th an
ĠProduct s
Ġf re
ĠW arrant
Ġexam ple
ĠT otal
ĠPre m
ĠB alance
Ġrespons ibility
ĠR ef
u ction
ĠComm it
Ġun f
ĠSEC TION
Ġderiv atives
A M
iti z
Ġfr aud
ul ed
Ġp ending
ĠLend ers
Ġinstru ment
ew ork
I I
if ying
ĠA N
Ġan other
S ection
ove red
am ework
ill ed
Ġl isted
ĠE qui
g al
Ġve hic
in ations
resp ond
ĠC orp
ĠDocu ments
art ers
Ġimprove ments
ul ation
Ġred emption
Ġtyp es
Ġw ater
ord inated
Ġreimburse ment
Ġv enture
Ġbenef ici
her n
Ġtotal ed
ĠEmplo yment
Ġappro ach
Ġun recognized
ĠD i
ĠAmeric an
e u
ĠR ights
Ġquot ed
ĠIn te
ce ption
Ġst ores
Ġtw elve
ĠDef ault
) ;
EN D
a ur
all en
Ġmat ter
Ġus es
am p
ĠA S
Ġexperi enced
Ġevalu ate
ĠB ase
ĠPart ners
Ġmaintain ed
rupt cy
Ġsuccessful ly
Ġinter im
) (
ĠA M
ĠRe tirement
ic o
Ġb i
Ġjurisdic tions
ĠDef erred
Ġval id
Ġde ath
ĠO R
Ġmanufacture rs
truct ure
ĠO P
Ġinvol ve
ĠE ar
u ties
Ġmod ified
Ġn um
ĠS c
Ġweak ness
Ġord inary
ans ion
ing ton
P ART
Ġw a
Ġt re
ĠC ER
Ġeng ine
qu are
D IC
Ġst orage
ĠN e
TE N
TE R
B IT
Ġcomm ission
ĠL et
ĠQ ual
ĠIssu er
TI VE
Ġprocess es
g th
Ġpl atform
ĠE s
Ġtrend s
ĠP UR
........ ........
ĠB ecause
Ġli ves
Ġrem ed
qui red
S O
r y
) )
ĠACC OUN
ĠUp on
F or
ĠL ess
Ġalloc ation
ĠCon s
Ġli g
Ġgrant s
Ġfe et
ĠM ortgage
Ġmon ey
ĠS chedule
ĠI ND
it ative
Ġdam age
ĠDisc ussion
Ġne goti
os ition
Ġge ograph
Ġte le
g ated
ĠMat ters
ac ed
c urrent
Ġproject ed
e al
Ġshe ets
ĠDistr ib
ĠDistr ict
ĠT reasury
ĠA ud
ac hed
m at
Ġparticip ation
BR L
Ġsp ace
Ġtem porary
Ġs eries
ĠCh airman
enti ally
b r
olo gy
ai ver
ob ile
ĠReport ing
tern et
Ġoper ational
ot el
ĠSout h
i red
Ġord ers
Ġsatisf y
Ġcor respond
Ġex clusive
Ġpred ict
Ġlic enses
= =
Ġparticip ants
Ġf unction
ĠCORPOR ATION
Ġd uties
Ġc ard
ĠS w
Ġstat utory
Ġn ational
Ġnorm al
SU s
C o
Ġwho le
mon th
Ġanticip ate
Ġwebs ite
Ġno tif
Ġh older
op ic
Ġaltern ative
ĠRe volving
Ġc ance
S T
Ġs ite
ĠLL P
Ġsupp lement
ol es
ĠL ong
ĠPr ice
d ef
IB OR
ro du
Ġp ipel
A m
Ġgener ation
fr om
o h
Ġreli ability
en e
Ġbond s
Ġsal ary
Ġs erve
it ure
Ġe ven
tiv ity
Ġs ource
ĠG as
Ġhealth care
Ġeff ectively
a ight
ĠRes erve
in o
Ġch allen
ĠĠĠĠĠĠĠĠ ĠĠĠĠĠĠ
ĠI V
TI C
Ġc y
Ġf lo
Ġf unctions
A d
Ġaud ited
ĠW hen
Ġcomple x
roll ed
Ġs ets
as tructure
vest ed
Ġtransport ation
ĠR o
Ġatt orn
ĠD r
ollow ing
Ġloc ations
ĠUn it
Ġag ency
E L
is m
l ain
ĠFact ors
Ġtrans mission
re tirement
ĠReg istration
eti tion
Ġlig ht
is on
Ġcon form
Ġf ace
Ġann oun
Ġext ended
ĠO ver
um an
Ġs us
Ġprob able
Ġestablish ing
ar s
OL D
Ġacc ur
Ġv end
ĠC oun
il ed
Ġrele ase
ĠG r
Ġconf idential
h ouse
ĠE BIT
ĠC losing
Ġc umulative
ĠPl ans
TI FIC
Ġdo ub
Ġpremium s
O x
Ġsub mitted
ĠF iscal
ud e
Ġtyp e
ĠAl so
Ġachi e
qui re
Ġjud gments
ĠT R
Ġregul ar
Ġel ected
ĠB e
iv ed
Ġdefin ition
u is
on se
Ġfr anch
Ġcompr ised
ĠPart ner
con tinued
Ġindirect ly
arb anes
r ate
osp ital
is able
red its
ĠT H
Ġconsolid ation
Ġderi ved
ens ing
Ġde fer
U L
ye es
Ġwith hold
ES S
Ġrec lass
eri v
ĠP articip
mission s
ĠArtic le
iz ing
l u
Ġstock holder
$ ,
low s
por tion
Ġvot e
Ġdiscon tinued
Ġrepresent ed
Ġac kn
Ġinvol ves
ount y
re am
Ġthe rap
ATION S
Ġexerc ised
Ġun paid
y ond
Ġborrow ing
Ġbro ker
Ġf ound
st ock
Ġs chedule
Ġlim its
ĠC O
ĠSout hern
an nel
ĠPro xy
Ġchar act
ons or
M S
omp t
Ġproceed ing
Ġparticip ate
Ġhe ad
Ġstr aight
Ġprofession al
Ġcop y
ĠD IS
just ed
om in
Ġmethod s
ĠNot withstanding
ĠL IBOR
Ġtechn ical
ĠP at
Ġext end
Ġre fer
Ġp ass
Ġde gree
Ġclo se
Ġbe yond
d own
Ġpresent ation
ĠT itle
Ġstruct ure
ĠNo tice
ĠIn dustr
as ure
Ġear lier
Ġshare holder
Ġinfr ing
w w
az ard
Ġs ecur
ĠL oss
B ased
Ox ley
Ġfor ce
Ġoffer ings
e arch
AN CE
ĠF DIC
RE E
Ġadv ance
ĠB y
Ġinterpre t
ollar s
ĠO T
Ġann ually
Ġad ministr
state ments
ĠX BRL
ĠS arbanes
Ġsel ected
ĠFr om
ĠInvest ments
eren ces
Ġag ents
Ġpoint s
uc lear
ĠRes ources
le x
viron mental
e ff
Ġuns ecured
Ġperiod ic
en cing
ĠAud it
ĠProper ties
Ġcarry forward
Ġmatur ities
Ġenh ance
Ġdef ici
ĠEBIT DA
ĠPh ase
ĠOffic ers
. )
Ġn ow
T h
Ġoccur s
Ġdiscount ed
Ġext ension
pr ise
Ġde al
Ġdil uted
Ġgood s
Ġcontain s
ĠS te
Ġs quare
ven tion
Ġocc urrence
Ġcommod ity
Ġex cluding
Ġdef end
Ġpro xy
vers ight
ic ates
Ġrep urch
Ġthrough out
Ġsumm ary
ĠPr incipal
ĠG e
In c
et ro
is tics
Ġrequire ment
ĠC ustom
lic able
Ġtrans ferred
Ġwh at
N ote
ĠĠĠĠĠĠĠĠ ĠĠĠĠĠčĊ
M A
Ġdevelop ing
Ġass igned
Ġtrans ition
Ġsched uled
Ġcont em
Ġcoll ection
Ġguarant ee
Ġs avings
Ġserv icing
el ines
on t
v o
ili ated
Ġexerc isable
s on
Ġre ly
Ġoff ices
in ite
T r
ul ar
Ġinvol ved
ĠEX HIBIT
Ġcon cent
Ġdecision s
ub l
il le
Ġstrateg ies
Ġbec omes
Ġexp ansion
l an
Ġreflect s
Ġeng aged
Ġlet ters
Ġdiff erence
Ġle verage
ĠBenef it
Ġen act
ĠLo uis
Ġcontrib ution
Ġst ore
re en
Ġthere after
Ġlaw su
S ee
Ġl ending
Ġre vis
Ġstud ies
Ġcertif ying
ĠDocu ment
Ġtrad ed
ER C
Ġexceed s
Ġsole ly
re et
Ġexecu tion
ĠInc lud
ĠM ex
T A
m ore
ĠBl ack
Ġhed ging
Ġthere in
qual ified
F OR
Ġst aff
ĠCertif icate
im e
ĠL P
O W
I TIES
D irect
ĠStock holders
ĠW est
Ġexpect ations
Ġcertif icate
Ġnam ed
dr aw
ĠA uthor
Ġmarg ins
ĠI P
ĠM id
Ġvolum es
ĠY es
ĠS ignificant
Ġh ow
A n
ĠDe partment
Ġse ason
ĠTrans actions
ĠF irm
ĠM erger
ag n
ĠR ES
id a
ĠCost s
Ġwh ose
Ġidentif y
vision s
m illion
Ġbenef icial
Ġlarg est
N ot
Ġr ule
Ġ *
ig ital
ĠB anc
ĠAss et
C omp
ec tives
Ġsh ip
ĠRe al
Ġass ist
ĠE vent
y d
Ġtrad emark
Ġdr illing
or ation
ĠOr gan
ĠPro ceed
Ġsmall er
ĠF ore
on c
B L
Ġdr iven
Ġint rodu
ĠAddition al
ĠM ember
Ġlegis lation
Ġown er
Ġappro xim
o ot
Ġevalu ated
Ġpot entially
Ġborrow er
ĠIn stru
ur ring
con solidated
a uthor
Ġnum er
n ings
Ġaccept able
Ġc ell
Ġcons isted
at ures
ĠSEC UR
ĠC ounty
Ġp e
Ġinfr astructure
ven ues
ĠP en
ĠC ity
Ġdev ices
I E
Ġpr ompt
l p
ut ation
d ay
ĠLet ter
Ġdollar s
ĠPrem ises
Ġqual ify
ĠPa rent
er y
Ġsummar izes
SU ANT
ĠMan ager
Ġimport ant
Ġrem o
Ġwrit e
Ġrep air
Ġc redits
err or
ĠInd ependent
Ġapp ear
Ġrepresent ing
ĠAward s
Ġdetermin es
lor ida
o in
Ġsuccess or
ĠEx cept
Ġpar agraph
Ġcalcul ation
ĠAff iliates
ĠCl aim
Ġretain ed
Ġinvest ed
Ġtotal ing
Ġcoll ect
pl ace
Ġultim ate
ĠComm un
ĠSystem s
Ġbuild ing
anu fact
Ġliquid ation
I L
on es
c ompany
re tary
n et
Ġrequest ed
Ġrest aur
Ġdoub t
D ate
ĠA greements
ĠQu arter
e k
it able
ĠEurope an
ĠCon vertible
Ġroy alty
Ġelectron ic
ĠR et
ĠAd vis
T OR
Ġallow ances
Ġobtain ing
ti g
con tract
ĠF inance
Ġac ross
Ġout come
ĠO ptions
Ġcontem pl
A t
Ġle ased
g ener
m ical
Ġen gage
Ġat tract
Ġte am
Ġmer ch
Ġresp onse
Ġof ten
Ġconcer ning
ĠBu yer
Ġdis ru
am es
Ġman aged
Ġindustr ial
pro vid
ĠComm ercial
a verage
s ale
aw s
Ġt itle
Ġsh own
Ġob servable
Ġconf lic
Un ited
Ġdepend s
cont rolling
Ġpublic ly
ĠRec e
Ġissu er
ĠRE G
Ġm ix
ĠC ompanies
Ġspecific ally
ier arch
Ġe very
Ġcon cluded
ers igned
Ġtre ated
tiv ities
Ġfund ed
Ġw aiver
Ġown s
Ġc lear
Ġmil est
li ties
Ġadv ant
ĠAccount s
ĠUn ivers
Ġaffect ing
et ing
i ver
ul f
Ġindividual s
ĠPro ject
Ġr aw
if e
ĠEn g
ierarch y
re port
Ġlend ers
Ġdecl ared
Ġemploy ed
N ame
Ġp ool
le an
R es
Ġ z
ĠE l
Ġimplement ation
Ġcorrespond ing
et ermin
ĠPUR SUANT
lo sure
ĠC H
so ur
D uring
Ġlet ter
ĠPurch aser
Ġne ar
ĠM in
ĠOwn ership
m ark
ĠS um
ĠO ut
st ain
ĠA ir
Ġg ive
ĠW IT
Ġval ued
Ġindemn ification
tr ans
ition al
Ġimp osed
ĠCon f
Ġapproval s
M an
O ther
ĠCon trib
C A
Ġcertif y
ĠExp enses
o x
Ġst ep
Ġcr itical
Ġprincip ally
i res
Ġstud y
ut ing
Ġobj ectives
par ties
u ck
Ġhe lp
Ġorig in
Ġbec ame
N et
A X
Ġcommit ment
Ġres olution
Ġ i
ĠACCOUN TING
RE D
im p
Ġsh ow
F r
Ġal ong
ĠAdministr ator
Ġsever ance
Ġuncertain ty
ĠB as
ĠGuarant or
Ġperm its
Ġwarrant y
Ġdel ays
TIFIC ATION
Ġ. ,
Ġin sured
Ġiniti atives
ĠAsso ciation
P S
ĠLouis iana
Ġpro j
ĠF lorida
Ġexist s
Ġswap s
Ġstr ong
ee p
over y
ĠN AS
Ġdistribut ors
Ġlic ensed
Ġund ersigned
ti ff
Ġallow s
Ġs ens
ĠOn e
E n
Ġorgan ization
Ġ- -
j unction
Ġenforce ment
ĠN one
Ġrep ayment
a fe
Ġutiliz e
Ġcre ate
U C
ĠElect ric
Ġh and
ĠA D
pro duct
A GE
OC K
Ġw ay
Ġprodu ce
Ġco al
Ġco re
um p
Ġre insurance
ĠIn t
ĠEn ded
se qu
us e
ro p
Ġcarr ied
Ġassess ing
azard ous
Ġsu stain
ĠCOM M
w here
d isc
Ġph armaceutical
Ġloc ation
an ties
ĠP ension
Ġprof its
ĠM c
Ġ.% .
h ave
Ġcontin ues
iv il
ain tiff
Ġannoun ced
ce lerated
DA Q
ĠAff iliate
Ġpl ed
F O
ĠA ust
ain s
H L
ĠSt reet
Ġocc up
an cy
Ġm ut
ĠMedic are
Ġsc ope
Ġgeograph ic
Ġs ize
Ġst ren
Ġex per
sp ec
Ġcountr y
ĠTechnolo gy
ĠTh ird
Ġredu ctions
Ġwell s
Ġcateg ory
Ġrequ iring
Ġem erg
cr aft
con s
Ġh ierarchy
Ġy et
Ġs ites
m b
sh all
ab el
ĠReg istered
D elaware
Ġcarryforward s
P R
Ġcoun sel
ĠR ed
Ġexp lor
v an
Ġbank ruptcy
ot t
ĠMex ico
inc re
Ġinvest ing
Ġm iti
ĠTrans action
clud e
ĠAm ount
Ġrecent ly
Ġar bit
Ġat tem
ĠGood will
ĠF ERC
Ġch annel
Ġcont ent
Ġhed ges
m s
Ġexpect s
Ġopportun ity
ĠR SUs
om inated
ous ly
ĠS ecured
Ġp ack
ĠH older
Ġcomp lain
o pt
Ġrem edi
ĠInc orporated
ĠDisclo sure
Ġra ise
ĠV ir
Ġret ro
Ġwhol es
Ġp ubl
Ġcomm ence
ĠApp ro
Ġexec ute
Ġnumer ous
ĠPR O
ĠK ing
Ġdepend ing
Ġpati ent
ĠF ees
Ġsepar ately
Ġunderwrit ing
at t
Ġcomp uted
Ġass er
Ġrating s
Ġconsum m
Ġadv ances
ash ington
un tary
l ands
Ġwith draw
Ġutiliz ed
Ġmillion s
ef inite
Ġpos itive
ĠGrant ee
AN Y
Ġin ability
c apital
ĠOff ice
Ġdispos al
Ġcon junction
ĠBenef its
Ġs aid
Ġg iving
Ġgovern ing
ĠEn vironmental
Ġp articipant
Ġinf lu
Ġconver ted
ĠAG REE
al ity
vail able
Ġaccept ance
Ġworld wide
ĠSec retary
ĠCanad ian
Ġbe gan
ĠP ART
ĠInd icate
Re g
ĠEs tim
AS E
Ġoper ated
Ġen c
Ġown ers
ent ly
AB LE
c ost
Ġdistrib uted
Ġrep ay
ĠPolic ies
inc ome
ĠS AR
Ġexpress ly
ĠE PA
Ġviol ation
Ġst and
Ġguid elines
invest ment
Ġcontempl ated
um b
Ġconsult ing
Ġunder t
ill s
arr anties
Ġdet eri
Ġsp ending
h io
ĠB ro
ild ing
Ġm o
C ON
E mplo
A cc
Ġcli ent
e ys
ave l
Ġoff ered
Ġrel ate
id ge
con dition
N I
Ġ$,, ,
a u
et t
Ġcon sequ
an n
Ġind icate
Ġengine ering
ĠR ent
Ġl a
a ith
Ġreview s
Pr incipal
d es
b usiness
Ġrep utation
ĠUnivers ity
ĠN Y
Ġwithhold ing
Ġ( %
D I
Ġw ide
n ov
ĠE R
ĠIn ternet
ĠJ oh
Ġa ge
ch anges
ĠI TEM
ĠEqui pment
ort g
Ġanal y
Ġrec onc
ĠDe pos
I f
ĠS el
Ġsub mit
, "
Ġv ers
ĠCommit ments
ĠNAS DAQ
ĠGovern ance
Ġdefin itive
istr ib
Ġann um
ĠSec ond
L A
Ġpipel ine
ĠStock holder
peri od
ili ation
Ġs ti
per form
Ġcap abilities
iv es
m ary
Ġproj ections
ĠQuarter ly
Ġinfring e
ĠD u
ap id
Ġdi vid
oli tical
Ġb inding
is ter
D e
Ġh otel
Ġuti lity
ĠS ince
ĠRes earch
Ġsec ure
gr ated
Ġtest s
ad dition
Ġro le
ĠHold ing
ĠA T
Ġcent ers
v oc
EX HIBIT
S EC
ĠDi vidend
ĠM ich
val ue
ad a
Ġinvol ving
Ġpl ants
ĠFore ign
ĠDisclo sures
Ġdefici encies
Ġackn owled
Ġad opt
u tive
ĠM ar
re p
Ġt urn
an tit
Ġcr ude
quid ity
Ġcommun ications
Ġenact ed
m l
an che
Ġmin im
T itle
antit ative
Ġtechn iqu
ĠP ayments
Ġh ospital
ĠA P
state ment
Ġsett led
ĠDistrib ution
he ld
Ġguarant ees
- _
Ġreplace ment
ĠLic ense
Ġorgan izations
ĠD eriv
Ġcons isting
ĠC omb
Ġlic ensing
a ci
ĠInstru ments
ĠA b
Ġext ensive
Ġex hibit
ĠSupplement al
Ġsub ordinated
Ġexam ination
Ġe missions
I M
Ġinc orporation
V ER
Ġf aith
Ġrede em
ĠT AX
organ ization
Ġcontrib uted
clud es
ĠN ame
il it
Ġprovid er
Ġcy c
Ġo w
Ġweakness es
Ġpre f
Ġadministr ation
Ġrest ated
air ment
Ġman aging
Ġf ield
Ind icate
ol ved
Ġcance ll
ĠE N
Ġapp oint
d om
Ġregul ated
Ġimp ose
ĠAss ign
Ġrec omm
x ml
Ġen able
ĠSp onsor
Ġref und
or g
on str
ĠShe ets
Ġrecover able
ĠSub ject
Ġc ur
ĠD ue
ĠN O
Ġcon clus
ti ble
ĠSe gment
Ġindustr ies
or ter
ĠS ections
ĠST OCK
ĠAGREE MENT
Ġli able
Ġconsid ers
Ġqu anti
reg ul
e ffective
stru ction
th is
Ġst e
ount ed
ur ation
ĠAd v
Ġregion al
Ġcl ause
Ġcharact er
Ġfranch ise
ĠĠĠĠĠĠĠĠĠĠĠĠĠĠĠĠĠĠĠĠĠĠĠĠĠĠĠĠĠĠĠĠ ĠĠĠĠĠĠĠĠ
Ġcertif icates
ĠW ork
Ex ecutive
Ġpro ved
Man agement
ĠY ou
ph one
F orm
ĠH ome
Ġdel in
he ther
lo ck
FOR M
Ġc e
** **
ĠShare holders
n e
ĠM ark
Ġthous and
urren cy
Ġ ir
Ġoblig ated
St ock
Ġattem pt
ĠCent er
ĠW ashington
Ġthere under
ĠCOMP ANY
A greement
ĠO hio
ail y
ĠS an
Ġres id
S h
R A
re t
se e
Ġact u
Ġ ed
*** ]
Ġind efinite
ĠSpec ial
ĠSe ver
ĠP ay
cl inical
Ġdi vers
Ġassign ment
Ġsu ff
od y
ĠBanc orp
Ġrati os
ĠS tr
Ġlarg er
Ġup date
Ġautom atic
Ġdis p
al es
Ġcommercial ization
Ġseek ing
Ġprompt ly
Ġpro portion
ĠSECUR ITIES
ĠM on
Ġaff iliate
Ġrevis ed
ĠMe eting
ĠRece iv
T H
Ġcommission s
Ġf ood
Ġoper ates
Ġsh orter
Ġguarant eed
Ġthere by
Ġf oot
ech an
tain ing
ĠEn ti
Ġle ading
f ers
sum er
Ġdecre ases
T C
ic ated
Ġdis ch
is su
author ized
Ġs ent
er o
Ġpro hib
m ay
iv ision
Ġprosp ects
ĠVir gin
Ġid enti
ĠREG IS
Ġultim ately
Ġad min
ĠC om
Ġs k
Ġwholes ale
St ate
Ġh our
Ġ ]
ous ing
ĠS olutions
Ġm and
ĠAC T
f und
F inancial
N OTE
c ast
ĠDIS C
Ġimplement ed
Ġsus p
ĠThere fore
Ġar ise
Ġr apid
i ers
ĠRE L
ĠComp rehensive
ĠF ile
Ġborrow ers
Ġin sure
Ġaudit ors
Ġdem onstr
b enef
Ġprep ayment
u ctions
Ġh uman
ob servable
ĠT ier
Ġform s
Ġl ist
N OTES
Ġsur v
Ġpro ble
Ġm ail
Ġsubsequent ly
Ġmodel s
Ġdevelop ments
Ġwh om
Ġpost retirement
d ered
Ġwas te
Ġdev ice
Con solidated
Ġacce ler
ic ro
Ġv ir
Ġst art
Ġsubs tit
Ġsp read
Ġch anged
TIC LE
Ġimpro ved
it ee
th ics
Ġmonitor ing
Ġforec ast
Ġtrust ee
ING S
ac hes
Ġt aking
Ġc ivil
ans as
S ub
ĠAust ral
Ġconf irm
ĠP L
Ġins p
Ġvend ors
OC U
-------- --------
ĠMe asure
Ġon line
Ġel se
ĠC EO
Ġcontr ary
Ġadd ed
ĠO N
Ġcent er
Ġcateg ories
Ġexp ensed
Ġf avor
d ec
ĠV IE
appro ximately
Ġinves tig
quire ments
oun ce
le ading
ord s
Ġrenew al
ĠFund s
Ġgo als
Ġs y
ĠE ast
ĠT opic
Ġex cluded
ĠE ligible
acc ru
ĠInd ebtedness
ĠLe gal
Ġconform ity
Ġcurren cies
qu iring
Ġpa per
le um
ic on
r i
Ġm akes
Ġfurn ished
ĠM et
ĠKing dom
Ġn uclear
ĠFurther more
ĠPro t
ĠW HER
Ġwe ather
Ġexplor ation
TION S
w ater
re ciation
am ing
ĠDu ke
Ġconsum ers
Ġpl aced
ĠN or
Ġbe ar
Ġw ire
Ġann ivers
til ity
Ġv ac
ĠE QU
Ġmeasure ments
ĠA ut
ĠAs ia
ĠEmplo yees
Ġwe ek
Ġmod ification
Ġbet ter
ĠJ ap
Ġachie ved
Ġth reat
Ġplan ning
Ġsh ipp
Ġclo sed
b ank
Ġphys ici
h as
Ġperiod ically
Ġtrad itional
yl van
ar ial
ĠComp liance
Ġcomp ens
D S
Ġqu arters
Ġform ul
el ec
Ġrel ates
Ġc at
Ġpart s
ĠS ch
ĠCont in
Ġneed ed
Ġfocus ed
ĠEx t
ylvan ia
S A
Ġprodu c
Ġrepresent ations
ĠDes igned
f ollowing
Ġassess ments
" ),
est ing
he ad
N o
coll ectively
ol ar
ns ylvania
Ġbas ic
S ecurities
Ġch ief
Ġredu cing
ĠWe ll
pend ence
ĠS ER
ĠS ome
Ġsuppli es
Ġadvant age
ĠAd justed
Ġexp osed
v ille
ĠRegul atory
Ġd igital
us ed
ail ure
Ġch o
Ġfil ings
G L
Ġprac tice
Ġattorn eys
T erm
iss iss
Ġind ex
if ies
Ġde em
ĠS C
ol s
oper ations
Ġman ag
ĠGovern ment
op h
Ġelectric ity
Ġint ent
ch ing
oin ted
Ġperm an
ĠSc hed
er rit
Ġgener ating
ĠLi abilities
Direct or
ĠG ulf
if t
ĠLess ee
Ġp age
Ġphys ical
ĠN umber
ow ers
Ġvi ew
Ġfluct u
ĠE state
ississ ipp
Ġaward ed
od d
EC U
Ġdrug s
ci ated
ount ing
Ġconsult ants
Not es
Ġt end
Ġsecur itiz
Ġeconom y
Ġalle ged
Ġj o
Ġassess ed
org ia
ĠP erm
E AS
HL B
vo id
Ġbenefici ary
ĠĠĠĠĠĠĠĠĠĠĠĠĠĠĠĠ Ġ
etro leum
sh ares
Ġremedi ation
Ġcomplain t
Ġprodu ced
Ġcounter parties
es tim
ĠAm ounts
res hold
Ġpa rent
ĠB Y
Ġrecogn izes
Ġin tr
Ġtechniqu es
Ġp olitical
Ġelse where
fact ory
Ġ x
per formance
ississipp i
d i
ĠConf idential
Ġt enant
e ach
Ġcre ated
Ġcont rolled
Ġw arranties
ĠBenef icial
Ġinvest or
Ġtr aining
Ġvehic les
ĠPro cedures
en ed
sub ject
Ġdiscount s
sid er
Ġreclass ified
ĠIndemn itee
ĠSupplement ary
Ġas p
EN S
ĠCh ar
ĠTrans fer
Ġpl aintiff
Ġexpress ed
C P
Ġc ease
c row
ĠFr amework
Ġintegr ated
Ġcredit ed
Ġact s
. %
ĠSum mary
ĠG P
Ġenter prise
Ġup d
ĠD E
Ġch anging
ĠO versight
Ġm obile
en gth
Ġimp lied
Y S
kn own
Ġapp eal
Ġa void
ĠTechnolo gies
Ġplan ned
Ġreli ef
w hether
iv ate
emplo yee
Ġadv anced
Ġimprove ment
Ġc as
i able
Ġdistrib ute
Ġf ew
perform ing
n on
Ġnot ed
Ġse ven
Ġin nov
Ġs em
Ġmaintain s
Ġcover ing
M B
ĠC r
Ġcomput er
Ġv entures
Ġoff ers
Ġremain s
g er
ĠL ife
al id
Ġconstru ed
I A
Ġparticip ating
Ġdecl ines
Ġvehic le
Ġtrademark s
ad o
Ġh azardous
Ġas sure
AN GE
lo g
ib ilities
AR Y
ĠAc tivities
Ġsel f
ade qu
ĠRe venues
A l
ĠC he
Ġd aily
O S
N A
Ġpor tions
Ġconsequ ences
Ġr ather
ĠDes ign
Ġt ables
Ġth ir
Ġh ard
)() (
Ġhistor ically
ĠP U
ĠO f
ores ee
ĠD OCU
ĠBenef ici
Ġapp ointed
Ġdisclo se
ĠCER TIFICATION
AN S
ĠE ff
ib les
Ġpay ing
Ġannivers ary
ĠIn iti
f it
R C
Ġco de
Ġs it
Ġfact s
ĠMed ical
Ġrelative ly
Ġprosp ective
ot ing
ll ino
llino is
G AAP
f t
Ġinv alid
Ġr ad
Ch ief
Ġm ove
Ġpur sue
ĠF uture
ĠEar nings
Ġreason s
Ġreal ize
ĠB ond
i ber
ĠInc orporation
Ġclass ification
Ġintegr al
Fr ank
Ġbr ands
Ġal though
Ġcustom ary
Ġindivid ually
P art
ĠM ore
Ġsummar ized
x t
ĠM ac
Ġsatisf action
Ġrec overed
ĠF HLB
Ġapp ra
ĠPen nsylvania
D C
S ch
ĠF lows
Ġmulti p
ang ibles
- ,
u ity
ĠEX TEN
res sion
Ġm echan
l ing
en tion
ĠP ark
Ġreceiv ing
ĠInc re
b alance
Ġiniti ally
ĠM aster
ĠM ississippi
Ġfe atures
ĠC are
Ġmerch and
ĠA fter
ĠS ale
Ġm id
AGE MENT
Ġmis leading
in formation
ĠCar ol
Ġde b
ĠF inancing
e pendence
B A
Ġintegr ation
ĠEx hibits
ĠVirgin ia
Ġso on
Ġunder stand
ĠOwn er
th rough
Ġex ce
Ġair craft
low ance
ess el
Ġobj ective
h ood
Ġden ominated
POR T
ĠDepos it
Ġf amily
Ġpost ed
ĠD ec
Ġ% .
ful ly
cal e
M arch
P M
ĠAdministr ation
ĠE M
ĠSe paration
AN AGEMENT
back ed
ĠGe orgia
ĠMarket ing
Ġr anging
Ġun ith
Ġunder standing
ĠShe et
Ġcharacter istics
p ayment
Ġun vested
Ġinves tigation
Ġcommun ity
Ġ- )
ra z
ĠInte grated
ĠSt aff
Ġten ants
st ream
Ġreceiv es
ĠP PL
g u
S e
anufact uring
ĠH olders
ĠControl s
Ġfre quent
ortiz ation
Ġl ack
oresee able
ES T
arg o
om ing
Ġcounter party
d en
ĠApp licable
Ġremed ies
g en
us ion
Ġroy alties
on ounce
H AR
Ġresp ond
L evel
Ġallow ed
up on
ĠI RS
ĠAct ual
Ġs afe
Ġrestric t
st ance
I V
lig ht
Ġmut ual
Ġsatisf ied
Ġfr amework
Ġnam es
Ġrele ased
arg ets
ĠB AN
Ġatt ached
Ġunf avorable
o red
p ay
ĠOP ER
a greements
c redit
illi am
ect or
ĠD a
Ġprep aid
Ġcandid ate
ti se
Ġla un
Ġdis ease
Ġprom otion
ĠYear s
tic able
ĠAuthor ity
Ġdis m
ĠRe lease
ĠG ross
o pp
Ġinf lation
ĠS ett
ĠL ine
Ġdef ense
Ġdoubt ful
Ġreport able
Ġus ers
Ġaccord ing
Ġinter ru
Ġded uc
iti gation
Ġh alf
G Y
Ġ( $.
ve y
f ree
Ġachieve ment
Ġkn ow
Ġb id
ure r
Ġtr avel
Ġre vers
Ġd uration
P P
Th is
ĠU tility
rough t
Ġconcent r
a el
ECU TIVE
ĠMan y
em pt
Ġapp lies
Ġcommercial ly
ĠEXTEN SION
ĠC ause
Ġpre vail
Ġhist ory
es tern
erc ise
Ġcoll ectively
Ġf inan
Ġmed ia
agn os
as k
un ic
ĠD ay
Ġun authorized
ON OM
f ill
exp ense
Ġrepresent atives
Sch oles
d etermin
Ġf all
ĠA B
Ġpay roll
ĠWIT H
ĠG R
L o
ul ties
ĠB i
ĠP age
ĠD odd
ONOM Y
IS A
ĠTAX ONOMY
Ġin tern
du ction
ers ey
f ord
Ġsummar ize
Ġf if
Ġsti ll
Ġsatis factory
tr ue
ĠPl ant
ĠTh ose
b ear
ĠSched ules
o tive
andl ing
Ġhold s
Ġh yd
ĠNet work
Ġthir ty
ĠExp ense
Ġsupport ing
Ġf lex
Ġaccru al
ĠGener ally
D R
ĠP e
Ġclass es
Ġless er
E G
ĠEQU ITY
Ġed uc
Ġactu arial
H OLD
S R
Ġcomm enced
eri als
it ation
ĠI llinois
Ġat tr
Ġe lements
li ke
ĠPolic y
ĠProt ection
valu ation
oper ating
Ġeffici ency
Ġreconc iliation
d o
man agement
enti ves
ĠIn vent
Ġcor rect
ass ets
Ġinfringe ment
Ġlawsu its
Ġregul ators
ĠOrgan izations
Ġconclus ions
Ġ(% )
Ġl abel
serv ice
ĠPro vid
A D
pl us
Ġexecu tives
ĠSponsor ing
Ġth reshold
read way
Ġmanufacture r
ĠMat erial
Ġaccord ingly
Re port
Ġdr aw
it ing
unic ip
c ustom
Ġb l
- >
stan ti
am a
Ġexper tise
ĠO p
Ġun true
ĠCont ing
ĠO il
Ġo mitted
ĠUn ion
Ġg round
Ġb ud
Ġf ind
ĠPat ent
Ġcan cer
EP END
Ġch arter
accru al
Ġquanti ties
ĠL IN
off s
ĠT e
iss ory
Ġauthor ization
adequ ate
Ġdis ability
Ġrespons ibilities
f ic
Ġe t
Ġcoll ected
Ġsuppli er
Ġinvent ories
Ġmin ing
ĠJoh n
Ġcollabor ation
B ER
Ġcall ed
Ġpurch asing
resent ation
Ġcomm itted
Ġfail s
Ġprom ul
pos ition
ĠJ ersey
Ġabs ence
Ġrec urring
ĠBu ilding
Ġac quiring
Ġtele phone
R I
ĠS un
Ġaccur ately
Ġl ength
Ġmarket able
In terest
sequent ly
Ġf ines
Ġcomm encing
Ġw ww
Ġche mical
Ġinterpret ation
A G
m et
ĠAg ency
Ġnetwork s
Ġin ception
Ġelimin ated
Ġsched ules
op le
v ada
th ing
he st
ĠUS A
ĠRec ogn
Ġren dered
Ġmilest one
A ll
re ce
Ġthere on
Ġidenti cal
Ġfact or
c hed
Ġt argets
ĠCon sumer
ĠOF FIC
ut y
ĠMedic aid
c tive
ist or
Ġlarge ly
re ction
M P
Ġrepurch ased
Ġtechnolo gical
Ġserv es
eri z
Ġdis s
ĠT readway
" ).
it t
ent al
Ġre ti
Ġassump tion
ĠBorrow ers
aud ited
ĠJap an
Ġmiti gate
f ace
im inal
Ġprac ticable
Ġindemn ify
tem porary
Ġmin eral
Ġp op
ĠCustom er
Ġcoven ant
ĠOwn ers
ĠI T
ac celerated
qu ency
Ġfil es
Ġre in
per ty
Ġincre mental
ĠPh armaceutical
Ġqual itative
ic ed
ĠI S
ĠSupp ly
echnolo gy
as ers
ĠFund ing
L Y
Ġbu y
le t
Ġregard less
N ERS
Ġautomatic ally
Ġb rought
re me
Ġasp ects
Ġtrans fers
h ing
Ġlo se
ide o
Ġpro gress
Ġir re
ic er
sh ore
Ġpubl ished
CH ANGE
u ci
ĠPr ivate
ationship s
Ġanaly z
loc ation
ĠB raz
ĠContract s
ĠG erm
AR K
ĠCertif ication
ĠLi en
emplo yment
Ġestablis hes
Ġnon controlling
ĠOT HER
our se
R ec
L oss
Ġre organization
ap ter
Ġhead qu
Ġgroup s
ĠInterest s
sh are
ĠIND EPEND
product s
ĠParticip ants
Ġnecess arily
ortg ages
ĠC D
sel f
un ior
Ġrecomm end
Ġhed ged
im ilar
ĠInt angible
Ġt angible
Ġaff iliated
om a
ĠI d
Ġc lean
Ġse paration
t urn
s ec
quis ite
Ġcommercial ize
ur ity
ĠS ur
Ġm otion
ĠSu per
con n
iz on
Inc orporated
Ġacknowled ges
Ġsuff er
ĠInclud es
Ġintend s
Ġun observable
li hood
f iled
ot a
ĠREL ATED
ĠWell s
le vel
ĠJ oint
Ġplace ment
ac es
ĠSett lement
Ġp ut
ĠCons ult
u ch
Ġmethod ology
ĠM ary
s ignificant
Ġs ci
re m
ĠH ed
ro ve
ĠE d
ĠClaim s
Ġat tention
Ġde le
Ġexpand ed
Ġstren gth
unicip al
Ġdetail ed
Ġspecial ty
ĠAustral ia
U AL
Ġ[ ***]
er ce
Ġregular ly
ĠD el
om ic
cont rol
ist s
Ġo mit
Ġbro k
O X
Ġlend er
N on
ĠS up
Ġexp ires
Ġemplo yer
ĠW ater
Ġs low
ĠP N
en force
ĠEstim ates
Ġv essel
the re
ĠM od
Ġexpo sures
de velop
li f
F ebruary
w ood
R ES
ober t
l aws
ĠProceed ings
Ġconflic t
d is
Ġf in
Ġf oreseeable
ĠExt ension
In come
Ġsp l
Ġproble ms
ĠB onus
Ġ$,, .
Ġrestaur ants
Ġapproxim ate
ad es
Ġto p
UR ES
exp ected
c ise
Ġmon etary
Ġemerg ing
ĠWarrant s
Ġrel ation
ĠB E
Ġcr iminal
b u
Ġadvis ory
onounce ments
w est
Ġutiliz ation
Ġk eep
Ġretro sp
________________ ________________
Ġdes cription
ĠCommit ment
d irect
e ad
ĠEX ECUTIVE
ĠCoun sel
olo g
AN D
Ġmanag ers
con duct
Ġli en
Ġcomp ound
ĠAt t
C S
Ġadequ acy
Ġp owers
ol ute
O per
id uci
ĠDOCU MENT
ĠCarol ina
ĠLi ability
y alty
Ġremo val
Ġsu it
W S
Ġreceip ts
at ural
K B
ĠC F
Ġlike lihood
Ġrep aid
ĠPR C
ĠS afety
valu ated
Ġcertif ication
== ==
OR P
Ġt reasury
Ġdelay ed
to p
Ġcontrib ute
ĠDe preciation
Ġ ver
tr a
Ġmod ify
ĠIns tit
ent y
ĠS ci
ĠBenefici ary
Ġprohib ited
Ġprodu cing
Ġow ed
Ġapp reciation
p ec
Ġpromul gated
ĠT reas
T O
ĠEX CHANGE
Ġprior ity
a der
Ġrepresent ative
Ġdiffic ulties
Ġact ually
Ġmerchand ise
loss es
ĠS P
Ġinc entives
Ġact ing
Ġcon ven
isc ounted
V IC
Ġpartnership s
Ġsuccess ors
read y
anti cip
ĠC ap
rest ric
ad ed
Ġcontract ors
d le
C AL
Ġwhere by
Ġre tention
ual ty
as ted
Ġform ed
ĠĠĠĠĠĠĠĠĠĠĠĠĠĠĠĠĠĠĠĠĠĠĠĠĠĠĠĠĠĠĠĠ ĠĠĠĠĠĠĠĠĠĠĠĠĠĠĠĠ
Ġviol ations
li m
................ ................
Ġserv ing
ĠIniti al
am ortiz
Ġappra is
I F
B AN
ĠTh rough
B ank
ĠP ost
ĠInvest or
Ġtrans lation
T Y
ĠF ailure
Ġimpair ments
Ġpro hibit
Ġdetail s
Ġfac ilit
ĠOr der
Ġh andling
AR D
Ġr ise
ĠM ain
ĠER ISA
Ġinj ury
Ġcomp lies
Ġrede emed
report ing
iqu e
ĠK ey
ĠN OTE
ĠD o
ĠC or
Ġchallen ges
Ġc ol
ĠRegul ations
Ġunith olders
ĠMore over
cent age
le te
ĠCon struction
Ġcertif ied
Ġsustain ed
Ġle asing
Ġmanufact ured
ĠM er
ĠE m
m ing
ĠDis ability
Ġgo ing
BL IC
Ġded uctions
Ġassum e
Ġst age
re w
lic ation
Ġsel ect
Ġmat ure
ĠL itigation
o ice
Ġdi vision
Ġutiliz ing
b ut
Ġdisposition s
ĠOption ee
i ence
Ġidentif iable
Ġimpact s
ĠR iver
ĠM ANAGEMENT
KB ASE
ĠLIN KBASE
TEN TS
A F
ĠH OLD
ĠE thics
ĠNe vada
Ġ ***
ĠF ood
ĠEqui val
Ġelectron ically
A Y
spec ific
aci ties
Ġcap tion
ol ven
Ġcont rolling
Ġin adequate
ĠUn less
ĠOPER ATIONS
Ġm erg
Ġinflu ence
Ġex ception
f ield
Ġw are
re f
Ġstat ute
Ġop tim
T otal
Ġre verse
Ġexceed ed
Ġdeteri or
Ġreg ions
Ġex clus
ĠAN Y
ĠLi quidity
Ġfluctu ate
ĠE S
l ong
Ġexp ired
c ation
pr im
Ġarbit ration
Ġreflect ing
B C
Ġz ero
Ġvol untary
Ġcl ar
id ence
Ġt error
Ġwire less
Ġres ign
un ications
Ġmod ifications
Ġpres sure
an a
ĠAn d
ĠN E
c ure
ĠIP O
oun ter
ĠSever ance
Ġparti al
Ġh im
Ġth us
ĠContrib utions
Ġhig hest
Ġentire ty
Ġcop ies
ve re
on so
Ġconstit utes
est ed
ĠM is
ĠLaw s
ĠCON TENTS
LE Y
iduci ary
Ġrepurch ases
on y
Ġinstall ments
am ination
ĠLess or
Ġl ump
olven cy
onso red
air s
Ġestim ating
Ġappro ve
ĠJ r
ur b
Ġm ortgages
g as
Ġqual ifying
Ġapp lying
Ġh ousing
Ġtr ue
ĠFac ilities
ward s
Ġem b
Ġlimit ing
ex cept
Ġad j
Ġirre voc
Ġshow s
Ġre ach
Ġb ar
Ġreimb ur
ĠOr ig
C R
Ġexce ptions
o ly
D ef
Ġup gr
Ġnotif y
Ġattorn ey
ĠS m
bear ing
TA IN
Ġhour s
TE RED
ĠRe ason
Ġconcer n
re ts
Ġinter company
ĠAsso ci
Ġm ach
ate ll
Ġlawsu it
d il
entif ic
Ġal ready
ather ing
ĠW illiam
res ult
in ter
O E
Ġuti lities
C ash
Ġtr ig
FORM ATION
cu it
ĠDeriv ative
ign ature
ĠTH IS
al er
Ġtarget ed
P lan
Ġre quisite
ĠLoss es
ĠC ir
w as
ce ll
Ġassign s
ĠMary land
ĠRep resent
ĠI m
U M
in ery
Ġcapital ization
et ts
ĠAr range
P RE
Ġman ager
r ight
ĠCommun ications
Ġr at
Ġr ail
Ġcap acities
Ġin tention
Ġsupplement al
Ġcons ecutive
Ġpat tern
$, ,
u x
Ġchannel s
ex cluding
Ġdocument ation
Ġt elec
tion al
Ġenter ing
Ġvir t
A A
Ġbuild ings
ĠImp airment
Ġoper ators
N ew
The re
Ġimplement ing
ĠN GL
ach us
Ġw ind
o le
Ġgovern ed
Ġl ate
ĠM ass
erv es
Ġdelin quent
n es
os es
A c
Ġund iscounted
achus etts
Ġpres ence
Ġwith held
put es
olo gical
ack s
Ġyield s
Ġdil utive
icon duct
Ġdisch arge
ĠRecogn ition
ation ally
Ġbr anch
ĠS avings
Ġs yn
Ġrestaur ant
t a
ch anged
IN S
ĠA F
TOR S
amortiz ed
H IP
Ġv ideo
ĠT arget
Ġreserv ed
Ġbr ing
ĠM emb
ĠSub sequent
Ġli eu
Ġforec losure
Ġrequest s
Ġevalu ates
Ġperman ent
ĠM s
Ġdisp ute
Ġar r
Ġdecl ined
ĠR ati
Ġv is
Ġqu es
T opic
Ġgr ade
Ġcost ly
Ġs urren
Ġprevail ing
ĠD ivision
er n
Ġexist ence
Ġenh anced
Ġlegis l
ĠBorrow ing
a vailable
ĠD rug
ut ures
s ecurities
Ġstat utes
Ġoccup ancy
Emplo yee
Ġhard ware
Ġc ross
ĠA EP
D E
Ġnew ly
Ġsh aring
Ġin stances
vious ly
en n
OP ER
Ġn om
Ġr un
ĠEng ine
pr ice
Ġw ords
Ġdesign ation
Ġfurn ish
Ġforec asted
P ursuant
Ġproper ly
ĠAr k
Ġeff ic
ĠĠĠĠĠĠĠĠĠĠĠĠĠĠĠĠ ĠĠ
ĠPU BLIC
Ġsal aries
ĠF R
l f
Ġex port
Ġinstall ation
solid ation
Ġorgan ized
ĠPl ed
r isk
ĠPurch ases
cl aim
Ġded uction
Ġde plo
cl ass
ĠGuarant y
ĠF ee
Ġsett lements
Ġtele vision
EN CE
Ġactive ly
Ġfrequent ly
Ġdown turn
IR EC
Ġm unicipal
. ;
Ġattr active
Ġfunction al
ecess or
ĠD eb
In vest
ĠREGIS TERED
ac quisition
Ġ( $
ard s
Ġorig ination
Ġmain ly
Ġissu ances
Ġa round
Ġdefer ral
HE D
Ġconting encies
ĠRel ationships
Ġreal iz
K E
Ġk ind
u ish
ot ential
Ġfirm s
w o
Ġvend or
n o
ĠL and
ĠIN FORMATION
or ado
comm on
comp liance
Ġhere with
ĠF I
ĠDef in
tain ment
Ġadequ ately
ĠA L
G N
ĠBond s
we ll
un g
ĠPa ci
Ġs an
er ral
Ġforfe iture
re ason
Ġval uations
Ġwork ers
ĠAd verse
d a
Ġdefend ants
Ġmemb ership
Ġremain der
ĠIndustr ies
l ines
Ġeffic acy
Ġconver t
Ġdi agnos
Ġun ique
ur g
le et
Ġno tices
Ġint angibles
ĠCon n
Ġremain ed
Ġgrow ing
Ġimmedi ate
ro ad
Ġspl it
Ġon ce
ner gy
ĠMich ael
IS K
p oint
Ġassum ing
ĠSER VIC
Ġabs olute
Ġli ens
ot he
Ġconsider ing
Ġus age
lig ibility
D EF
ĠCustom ers
Ġpres cribed
ĠMat erials
sump tion
Ġdis t
Ġorigin ally
ĠFOR M
Ġnon e
Ġany thing
ĠF CC
Ġcommence ment
ĠAn n
Ġtrust s
ĠOff ering
Ġupd ated
IR M
out h
Ġpled ged
su fficient
Ġmeet ings
Ġsell s
Ġform a
lo sed
Ġplaintiff s
Ġissu able
Ġde pre
IS SION
Ġun consolidated
OM E
am ount
Ġb ill
Ġexp ensive
Ġconstru ct
Ġdeb entures
Ġborrow ed
G ener
Ġdiscretion ary
Ġtherap eu
Ġsubstan ces
ĠB o
ĠDa vid
Ġdisru ption
pr ises
P resident
Ġcommun ities
Ġs olic
r ue
Ġconcer ns
r is
Ġdet ect
Ġa ware
ĠRe form
g round
Ġremed y
Ġe ight
part s
ob lig
Ġinc l
Ġded uct
ĠEl ection
Ġs cale
itte es
Ġsecur ing
s es
ĠVal uation
ĠAcc ru
Ġco oper
Ġtherap y
ort s
Ġg aming
Ġtax ing
ĠEff ect
ĠH igh
Ġne ither
Ġ very
TE RS
issu ed
Ġun enforce
ĠArk ansas
N E
d ollars
ĠG old
f ac
Ġse vere
Ġmin or
ĠF argo
Ġacc rue
gre gate
ĠMass achusetts
ĠPaci fic
ER GY
errit ory
Ġflo ating
ĠIN TER
A ss
ĠSal ary
d istrib
Ġful fill
benef it
ĠCon version
Ġrepl aced
ĠAd just
Ġv ia
Ġvers us
Ġsecond ary
Ġb illed
e als
Ġvalid ity
ĠR en
Ġtw enty
ĠC R
Ġcarr iers
omm ission
om as
ist ent
P h
Ġcont act
Ġwhen ever
Ġno tional
ĠRe alty
Ġsec rets
Ġmechan ism
M C
ĠCol umb
ĠInd ependence
de li
Ġtr ack
loc ated
Ġforfe itures
Ġcent ral
C ertif
appro pri
Ġgovern ance
ĠG en
Ġcredit ors
ĠL A
A r
Ġphysici ans
Ġth ough
limin ary
od ies
ĠSw ing
ĠMed ia
A ct
Ġsens itive
AT A
Ġre b
ĠN DA
Ġb ound
Ġprofession als
ord ed
Ġcommun ication
m aking
ĠINDEPEND ENT
Ġtr uck
ĠRisk s
g the
Ġforfe ited
Ġf ix
Ġcomb inations
c ap
ĠNY SE
L e
Ġto ols
ĠTreas urer
Ġne ver
iconduct or
Ġpur su
is tic
Ġportfoli os
ce l
Ġcomp osition
li ability
resp ectively
Ġpro cure
Ġh omes
am ed
ĠAccount ants
su ccess
Ġ$. ,
und ed
Ġflex ibility
Ġconsumm ation
as tern
one y
provid ed
b or
A V
aus es
Ġde p
te en
Ġm edi
ĠB io
Ġcontain ing
Ġf iduciary
Ġidentif ication
e qui
Ġsett le
Ġex hibits
Ġdem ands
m n
roll er
ĠCon duct
ther n
Ġtermin ates
Ġdeduc tible
Ġindic ative
Ġwe b
all s
term edi
con tin
Ġsign ature
anticip ated
rec urring
Ġelimin ate
L AB
ĠGerm any
Ġdisru ptions
Ġper taining
Ġlo g
ĠC P
Ġaccru als
Ġcell s
gin ning
Q u
Ġal ter
ĠC urrency
Ġover head
ĠImp rove
Ġamount ed
LO SU
E nergy
ĠFor ward
th ird
Ġcollateral ized
cost s
SC H
w ays
ĠAm ortization
ic it
ig an
Ġformul a
Ġ error
t es
Ġadmin istered
P age
ĠF ixed
U LE
Ġac res
ĠWe b
ĠInvest ors
C ER
prim arily
im in
app licable
our age
Ġdivid ed
Ġst ream
ĠLe ases
ĠV esting
ĠF ollowing
Ġbenefici ally
i ally
Ġste el
Ġcalcul ate
sidi aries
ortfoli o
BAN ES
ĠAcquisition s
re quired
ĠPharmaceutical s
ĠĠĠĠĠĠĠĠĠĠĠĠĠĠĠĠ ĠĠĠĠĠĠĠĠ
down s
und red
Ġd one
ĠL abor
ron ic
R isk
Ġprem ises
ced ure
lo od
ĠReceiv ables
T ABLE
TI P
as is
Ġor al
ab ama
Ġback log
Ġp etroleum
Un der
ĠR ight
Ġsecuritiz ation
EO F
capital ized
ĠSTOCK HOLD
Ġsur plus
Ġretail ers
Ġtrans l
Ġinterpret ations
the se
ĠAssign ment
Ġre liance
pro cess
O Y
ention ed
j ective
Ġpriv acy
Ġinc ident
Ġbook s
ĠF IRM
ĠMeasure ments
Ġcontinu ous
Ġheadqu arters
f uture
Ġmet ric
Ġcon d
st one
ĠGovern mental
Ġs olution
ĠD et
Ġrapid ly
w orth
em and
Ġdis putes
Ġbe aring
ĠR ich
ĠT ime
Ġdetermin able
i tivity
Ġd uty
Ġauthor izations
ĠJ ames
out standing
ĠEN ERGY
r ical
lig ence
in sured
incip les
Ġhospital s
Ġbre aches
Ġiniti ated
Ġcompar ison
ĠC as
Ġvolati le
Ġdi rection
it z
b est
Ġpre clinical
li abilities
AS H
Ġent ry
Ġit self
ĠEx ercise
ĉĉ ĉĉ
Ġprocess ed
O s
c ceed
ĠR obert
ĠRef erence
Ġnegoti ated
L i
Ġmarket ed
Ġsubs cription
A pp
E AR
Ġbroker age
ard ing
ĠCons ent
ĠConting encies
at erial
OX LEY
Ġpref erences
T o
ed ded
ĠM AT
O F
gr ic
ĠBank ing
ĠD ATA
R el
C orporation
Ġcalcul ating
Ġpen alty
un t
ĠD ollars
ĠU se
Ġposs ession
Ġmand atory
L P
ĠInclud ed
ĠSel ected
Ġso cial
Ġgr aph
ĠV e
Ġr ig
ĠBraz il
serv ices
. "
Ġph ase
f amily
Ġconflic ts
it ors
omm unications
ĠIssu ing
Ġrec ru
ĠM anufacturing
Ġread ily
F ER
H I
ĠDef erral
gric ult
Ġmilest ones
Ġl isting
en ing
Ġbud get
Ġcyc le
J anuary
ommission ing
arb on
ĠG reen
ane ous
Ġconcent ration
N one
ĠSAR BANES
Ġenforce able
ĠP ipel
Ġpr int
ac ing
Ġfr action
Ġplatform s
Ġre cip
and on
Ġinstitution al
Ġcho ose
ecti ble
OU P
ĠM ARK
ĠContract or
ĠInd ia
addition al
Ġshipp ing
ĠLi ens
o or
ĠW orld
Ġconfidential ity
m a
Ġstep s
ĠTr ading
Ġst ations
Ġqu antitative
Ġin form
mat erial
Tr ust
ĠDISC LOSU
ĠRes p
Ġch ain
Ġval u
Ġfe ature
ul l
port s
a greement
Ġcancell ation
ins ic
Ġpre vention
ĠComp etition
Ġacc ident
ĠLe g
Ġwithdraw al
ĠO W
ĠArrange ments
Ġposs ibility
anche s
Ġdil ig
ĠEnti ty
Ġprim e
Ġpipel ines
ĠG o
Ġmarket place
ĠM a
N ESS
we re
ĠD IREC
Ġdisc overy
Ġs atell
ĠSt at
Ġoccur ring
EM BER
ĠU ti
am ounts
ĠAM END
M M
Ġassist ance
ĠS oftware
Ġs ector
Ġsu cceed
Ġrel ations
Ġdeterior ate
Ġgo al
ĠInd iana
ĠM ost
Ġrat ably
ul ing
Ġanal yst
ivid ual
ĠTR ANS
Ġmis statement
Ġmax im
c ance
, ,
pl an
Ġdis pose
ĠP resentation
est ablis
Con t
Ġann uity
Ġh yp
ĠPRO CE
ĠRet ail
Ġes crow
ĠS IG
Ġa uction
Ġdis pl
ĠB ar
Ġs olar
ĠSub s
ĠD EC
Ġdivid ing
il ing
al se
c ould
ĠP ortfolio
Ġleg ally
c omes
Ġprom issory
F I
M arket
Ġrad io
Ġl ap
Ġext ing
o y
Ġre form
ĠE r
like ly
comp ensation
IT AL
Ġb arg
Ġthreat ened
Ġachie ving
ĠA verage
ĠTerm s
Ġinsure rs
Ġcalcul ations
Ġlegisl ative
ĠN OL
Ġind enture
Ġo versight
E A
ĠPerm itted
en ch
Ġre ached
c an
Ġb ad
O G
O D
st ant
m ain
i ents
v in
Ġdeposit ory
ĠContrib ution
H N
ĠS G
p erson
ĠU K
ĠCON TR
ĠU N
__ _
ĠCent ral
fr ont
ĠGuarant ee
Ġb ody
Ġsent ence
Ġres ol
Ġmeas uring
Ġe mp
with in
ĠR ISK
Ġaff irm
ĠR em
Ġminim ize
or b
ter min
Ġcon str
in n
ot or
incre ase
Ġgrant ing
ĠCommun ity
H C
ĠE ven
ĠDe li
ant a
ĠOut standing
ĠN atural
ĠVal ley
Ġresid ual
Ġremo ved
res ults
ers ed
tain ed
Ġdirect ed
Ġ ess
Ġfail ures
Ġre invest
Ġjoint ly
ĠM W
ut s
ĠQual itative
orpor ations
stanti ally
ĠPar agraph
Ġex it
Ġus er
Ġob serv
her lands
Ġadvis ors
Ġsuper vis
ĠV ari
Ġreal ization
il es
ĠSub ordinated
Ġhere after
mb ol
Ġsec tions
Ġhyd ro
Ġref erences
row th
a ren
Ġtr a
p s
ĠPR OPER
we ighted
de velopment
j ud
Ġflo or
Ġg athering
Ġcoll ective
Ġpack aging
Ġthere with
Ġsub contract
ENS ATION
Ġrepresent ation
Ġindic ators
et er
f air
ĠC M
Ġ err
ĠAl abama
Ġconf idence
O T
Ch anges
arm a
ver t
qu arter
er t
se ll
ĠAR TICLE
Ġacceler ation
ĠA f
Ġdifferen ti
ĠL T
Ġinvestig ations
ĠBAN K
ĠC A
Ġen roll
res olved
Ġ) :
Ġp ers
at in
ad justed
Ġdet ection
d uring
Ġp oll
E quity
current ly
Ġconsult ant
Ġdefault s
ĠRE PORT
Ġindic ations
SI GN
ĠM icro
Ġun coll
ĠReport s
da q
US T
Ġlabor atory
z z
Ġconduct ing
F ile
Ġappear s
ĠT en
ĠEnti ties
Ġcl auses
best os
ition s
ĠH uman
Ġsu itable
determin ed
ĠINC OME
at ch
ĠLic ensed
Ġn ine
Ġseason al
ĠR us
ĠL I
al d
ĠEar ly
as daq
S erv
r ights
ass ess
Ġreturn ed
Ġen for
Ġrecover ies
Ġcomput ation
Ġasser ted
ef ore
Ġb ases
p ite
ĠUp date
ĠWHER EAS
p ublic
ĠH istor
form er
ĠV ol
Ġpled ge
t ail
Ġreli able
Ġfacilit ate
Ġwa ived
Ġrealiz able
Ġdo ing
ĠDisclo sed
ĠRestr ic
ĠH aw
Ġrepair s
c le
ĠC li
ĠDividend s
Ġissu ing
Ġalloc ations
conn ection
Ġdesign ate
te xt
Ex p
Ġrenew able
Ġf leet
Ġautom otive
Ġ- .
Ġnot withstanding
TI N
dec re
Ġs eri
Ġr ata
ĠH o
Ġvary ing
Ġexp ose
ĠRestr uct
B usiness
o ir
Ġoffset ting
O r
ATION AL
Ġmis statements
Ġres olved
O ff
Ġintr insic
ĠBank ruptcy
appro val
ĠCol orado
d ress
reg istrant
Ġincreasing ly
ĠRati o
Ġhe av
Ġun amortized
Ġaddition s
Ġout comes
M ed
ĠGR OUP
TI AL
Ġdistribut or
Ġfail ed
op tion
Ġcat ast
Ġdispos ed
U RE
Ġc om
AR TICLE
ĠMAT TERS
ĠCod ification
ĠColumb ia
Ġl ed
Ġm aster
ĠE valuated
ĠH otel
ĠO EM
ĠMich igan
ĠAl lowance
Ġw orth
ĠAppro ximately
Ġbec oming
rec tive
ĠL TIP
ĠGrant or
in cluded
Ġpre liminary
ur ric
ĠRe quired
Ġmat ching
ĠAssoci ates
aff iliated
urse ment
c ings
ĠF uel
Ġqu ick
Ġexp lo
ĠAccru ed
Ġad verti
Ġout sour
p ur
Ġcons erv
Ġeffici ent
Ġun used
Ġwe ight
UL TS
ĠC L
ĠCon gress
s ales
Ġtest ed
ĠH y
Ġl at
ari ff
Ġas sured
sour i
Ġres ource
Ġsy mbol
re quirements
D es
Tr ans
ĠD ays
gener ally
ĠD EF
b ers
Ġm ine
Ġa lig
Ġprogram ming
ĠIndustr ial
ĠMemb ers
Ġstren gthe
ĠReceiv able
k l
Ġpe ople
Ġrecord ing
T ax
aff iliates
Ġs m
Ġprofit able
od e
IN ESS
ĠArtic les
Ġcli m
Ġin ternet
Ġsu p
AN G
Ġseek s
Ġdeteri oration
il t
Y ear
ĠAut om
ĠSell ing
Ġorig inated
Ġe lement
ĠServ icing
ĠV i
Ġab andon
Ġarbit r
H G
Ġrestric tive
Ġsett ing
ĠRe quirements
Ġsel ection
Ġintegr ate
Ġunenforce able
Ġex emption
olo gies
ot ed
Ġsan ctions
Ġexpand ing
Ġconven ience
ES ENT
ĠEquival ents
Ġbonus es
Ġass emb
Ġdefinition s
appro ved
Ġship ment
al so
ĠMan aging
Ġsub jective
AL YS
m er
US INESS
Ġinsp ection
ag o
ĠPro f
ALYS IS
M D
ĠThe rap
Ġcharact eriz
Ġerr ors
ak er
ĠR ock
Ġimm aterial
ĠĠĠĠĠĠĠĠĠĠĠĠĠĠĠĠ ĠĠĠ
ĠG O
Ġo pp
Ġpresent ly
li mit
restric ted
G C
Ġlease hold
Ġex empt
Rel ated
ĠCOMM ISSION
ĠPro cess
Ġcompet ing
ĠRestruct uring
ĠO mn
ĠMark ets
Ġbrok ers
ut ine
y ers
ĠCOMP ENSATION
SEC TION
ons ors
ĠP SC
ĠC lean
Ġbroad cast
Ġprob ability
develop ed
OW ER
p ayments
________ ____
ench mark
Ġemb edded
Ġcas ualty
yp e
EC O
F S
Ġtherapeu tic
Ġrecover ability
Ġcon text
Ġpop ulation
sider ation
ĠRep resents
ur ate
to c
ĠHealth care
tr y
ĠE SP
Ġinst ead
year s
Ġappoint ment
ĠDEC EMBER
ĠFr ance
so ever
Ġrem ove
p lif
b ase
Ġb lock
ĠPipel ine
ĠK ong
Ġassum es
ĠĠĠĠĠĠĠĠĠĠĠĠĠĠĠĠ ĠĠĠĠĠĠĠ
ĠA LL
exp enses
ĠWHER EOF
Ġrenew ed
ĠN asdaq
ast ers
ĠE PS
Ġr ank
l in
Gener al
Ġm uch
Ġex clude
Ġb illing
ĠA re
Ġt akes
Ġaccur ate
C ertain
S u
el ect
uck y
Oper ating
ĠSu ccess
Ġtax ation
ĠAN ALYSIS
ĠInte llectual
Ġpattern s
ĠE du
ĠG S
acc ord
lo t
CI P
ĠDes cription
ĠF in
Ġ ill
Ġintern ally
eti tive
Ġconsolid ate
Ġin g
ĠS mall
Ġhyp othe
ĠEx cess
Ġcons ents
Ġundert ake
ugh t
sel ves
Ġr ated
ĠT HER
ĠOrig inal
ic he
econom ic
Ġackn owledge
Ġc able
pr incipal
Ġforecast s
Ġeduc ation
Ġref inance
o cc
itt le
d ue
ĠHOLD INGS
ĠEx isting
Ġinstall ment
l aw
ĠK ent
ĠE con
ĠRef er
P C
ĠW estern
ĠOver view
ĠM ount
US SION
Ġhotel s
acc ounting
Ġcont amination
def ined
ĠBas ic
ati ent
ond on
Ġgovern ments
Ġoper ator
Ġdiscon tin
Ġanalyst s
Ġsub mission
onom y
ah o
te l
Ġvessel s
Ġcomp lement
E E
ĠTr ade
ĠMis souri
pend ing
it ary
ĠPer centage
pec ially
Ġpriv ately
Ġsub stance
Ġconstr ain
uish ment
Ġjo ining
ish ing
B oard
ĠT im
Ġreti red
custom ers
Ġbre ak
Ġex cludes
ur ances
ĠP C
Ġalloc ate
ect r
unt arily
Comm ission
ad verse
Ġh ire
Ġdism iss
Ġmultip lied
ĠR M
Ġsusp ension
Ġutiliz es
v a
st er
ĠServ icer
qu ir
Ġinc orpor
Ġqual ification
ĠOrgan ization
Ġsens itivity
ĠS ing
Ġreimbur sed
lic ense
re ll
I AL
ĠInvent ory
ect us
Ġfin ished
ĠM D
ab ric
Ġrele ases
Ġidentif ying
Ġweek s
ĠB EN
ĠWIT NESS
Ġwill ing
Ġlo st
Ġreserv oir
ap ore
Ġmil es
Ġpay ors
II I
oun g
ab il
Ġclose ly
Ġdr ive
Ġf utures
Ġsupport ed
Ġpropos als
Ġd ies
ĠEnter prise
f iscal
sum ing
ĠRet urn
p et
with out
Ġpe er
ĠS yn
ĠUti lities
ĠW il
Re venue
s im
Ġc ure
Ġware house
ĠDeriv atives
Ġclim ate
ĠAb out
che s
Ġin sufficient
Comp ensation
Ġcon stant
ĠF er
id es
Comm on
Ġde partment
Ġcour ts
ĠPL AN
lo ok
ah oma
DI TION
Ġme ets
l able
PL OY
Ġjud icial
En ter
Ġmethod ologies
Ġren der
ĠDISC USSION
ĠP P
ĠS pr
ĠC iti
ot echnology
ear ning
ĠPerson s
Ġfre quency
ĠCir cuit
Ġst orm
os ite
Ġen ables
Ġjo ined
ĠCER TAIN
Ġdec ommissioning
Ġdeem s
ĠRep ublic
Ġexam ining
ĠSERVIC ES
. *
it an
un to
Ġspecific ations
kl ahoma
Ġs ch
ĠP AR
ĠNor thern
Ġassoci ation
Ġlow est
Ġstr ing
t ure
ĠE vents
The se
ĠQu antitative
Ġfe ed
Ġsup ersed
ĠK n
_ .
Ġle ave
Ġe ligibility
ang u
ĠD il
ĠTr ad
ĠOW NERS
ĠRes erves
Ġship ments
ecu tion
Ġapproxim ates
W h
Ġc amp
i k
Ġw ar
ĠOFFIC ER
Ġpromotion al
Ġcard s
NI TED
ven tions
Ġun related
ĠD en
Ġb lood
ĠH ER
al one
Ġc orporations
Ġcontract or
Ġintrodu ced
ertain ment
ffic er
sump tions
Ġsp ent
ĠGuarant ors
ĠNet herlands
ĠF our
ĠCondition s
ĠC overed
Ġdes crib
Ġunf unded
ĠL a
Ġdifficult y
b o
Ġtra ffic
Ġcontin uation
Ġresign ation
Ġun known
g overn
Ġdecl are
gre es
mb H
le tion
ib us
n y
Ġextension s
ĠRo ad
Ġretrosp ective
ĠC AP
ĠTh omas
Se ptember
ĠA vailable
ĠM S
Ġpres sures
ĠIs lands
Ġharm ed
ĠHed ging
Ġbar rel
Ġappear ing
ĠM ulti
ar ges
Ġshe ll
est s
Ġdeal ers
ĠIndemn ified
Ġprep ayments
Ġinterru ption
OR E
ord in
Ġes pecially
ĠSpec ific
Ġde part
ĠTax onomy
ĠS HAR
Ġsubs ection
P er
Ġro utine
ĠF inal
P re
ĠM organ
ĠN uclear
ood y
St ar
Ġins olvency
C OM
id ents
end ix
du ce
ĠS imilar
g ent
reg istered
Ġmean ings
pr icing
M r
Ġind ication
ĠF lo
ĠF l
ĠC y
ĠIndustr y
Ġso ught
Ġstruct ured
ĠDis agreements
Ġdil ution
Ġrese ll
Ġissu ers
ines e
ĠAcc umulated
an cing
Ġwork force
P PL
F C
Ġsever ity
C redit
ĠL ink
Ġref inancing
b and
emplo yees
um n
U T
ĠBank s
dil utive
ĠF arm
Ġindic ates
nes ota
Ġdivers ified
ĠBro ad
vail ability
so lete
ari o
Acc ounting
Ġimp osition
ĠG mbH
O B
Ġaffect s
AT URES
ĠW ind
b ility
Ġcompet ent
Ġwhat soever
Ġper ce
Ġcomput ing
ed er
og en
Ġsurv iving
em ptions
Ġclo sure
Ġearn ing
Ġ( .%
ood will
Ġcollect ability
Ġmeaning ful
Ġpurch asers
Ġdi ves
B alance
ĠM ine
Ġsp onsor
M I
Ġdives tit
ĠQual ified
on ents
ĠF SP
ĠV enture
Ġaddress ed
E ffective
Ġas bestos
a mental
Ġstring ent
ĠD ollar
p ursuant
ĠB ay
alys es
Ġinc orporate
h a
Ġprom ote
Ġf ire
ectr um
Ġmis conduct
ĠTh at
ĠB USINESS
iti sh
Ġro om
a ii
ĠPN M
fe ree
l as
ĠC FO
ĠSu ite
Ġadv ice
F air
o id
Ġlaun ch
f lows
P articipant
cul ation
Ġconcentr ations
Ġexerc ises
end ments
H A
iss ue
ĠIN V
Ġprep are
ĠH ong
Reg istrant
ĠMARK ET
Ġdiscussion s
Ġfre ight
Ġbarg aining
ĠRES ULTS
ĠAl tern
Ġcontin ually
ĠShare holder
Ġimpro ving
Ġc ar
end er
Ġt ariff
Ġg reen
former ly
rep resent
ĠP OL
Ġgener ic
arr y
Ġtermin al
comm ercial
Ġh ost
Ġsusp ended
be li
ĠB oth
Ġtelec ommunications
Ġre visions
Ġallow ing
Ġaltern atives
ĠProceed s
Ġform ation
ĠA p
ĠCom ments
Ġoffic ial
am m
Ġent ertainment
Ġredeem able
iz ational
Ġsci entific
Ġeff ected
Ġmil itary
ĠAf ric
T HE
ĠA ction
ect ors
ĠPl ace
ĠSte p
Ġdiss olution
omin ating
lic ations
Ġcon vey
ud a
Ġpro cedure
ĠEdu cation
ress ed
v ii
b oard
Ġcertain ty
ator ies
ĠD C
Ġstruct ures
Ġd imin
ĠGener ation
Ġcommod ities
ĠComb ination
ĠPr onouncements
ĠL ondon
ĠI R
Ġst ay
provid e
Ġing red
ĠO klahoma
Ġre tire
r ates
ĠAdv ance
F ID
gr ade
ĠRep urchase
Pro perty
Ad dition
IG H
Ġden ied
ĠIssu ance
B B
ffic i
Ġsatell ite
port ation
Ġsur face
Ġindemn ity
ĠCon sequently
EN TIAL
ĠH ospital
U p
v ari
ĠIs ra
qual ity
ust od
Ġestablish ment
An y
ĠPro duction
Ġtend er
lim ited
Ġprosp ectively
Ġdebt s
ĠKent ucky
ist ant
Ġdecl ar
ĠC ard
Ġacceler ate
ĠDeb entures
ĠCh inese
ĠCON S
Ġexting uishment
Ġdis b
al ers
ĠAn ti
ĠAtt orn
Ġac re
incre ased
iv ity
est ation
at ri
Ġm icro
Ġuncoll ectible
Direct ors
Ġob solete
ay man
Ġnotif ication
b urg
Ġan alyses
um e
ĠA venue
ĠP oint
Ġproduc ers
sim ile
Ġcon cess
Ġpercent ages
if orm
Ġwill ful
Ġper tain
Ġcollabor ators
ĠWith out
ĠS em
ĠF low
Ġun anticipated
ĠComm od
Ġsupplement ed
ĠS o
IN I
ĠC S
Ġj unior
Ġsurren der
en g
gricult ural
Ġcompar ing
ĠParticip ating
ĠOT C
Ġincl usion
Ġdeal er
av ior
Ġinherent ly
Ġpurch aser
F irst
ul ative
ĠSell ers
Ġexam inations
ĠSm ith
Ġdis e
u er
condition s
re te
Ġdetermin ations
ĠĠĠĠĠĠĠĠĠĠĠĠĠĠĠĠĠĠĠĠĠĠĠĠĠĠĠĠĠĠĠĠĠĠĠĠĠĠĠĠĠĠĠĠĠĠĠĠĠĠĠĠĠĠĠĠĠĠĠĠĠĠĠĠ ĠĠĠĠĠĠĠĠĠĠĠĠĠĠĠĠĠĠĠĠĠĠĠĠĠĠĠĠĠĠĠĠ
D isc
Ġaff airs
Ġpay out
Ġattrib uted
ĠPurch ased
Ġstud ent
Ġindependent ly
s ite
Ġpro ve
Ġquick ly
ĠCl inical
tim es
ĠP ER
Ġle ver
ĠComp ared
arg in
Ġfew er
Ġt ank
ĠItem s
Ġg ives
regul atory
im al
ĠT RS
LE MENT
Ġmaxim ize
Ġcateg or
Ġexceed ing
Ġpref erence
Ġcancell ed
ĠREGIS TR
Ġg old
U ED
ĠP osition
U N
f our
ĠRich ard
ĠW al
Ġra ised
cons in
is consin
Ġnon interest
istr y
os ing
Ġ ille
Ġsch ool
ĠF iled
ĠY oung
Ġrep ayments
Ġe mission
ĠEur o
m al
Ġpriv ile
ateg ic
ĠReg ion
S ignature
ĠL og
t ures
Ġalle ging
Ġsh ift
Ġspread s
Ġres ale
ĠBl ue
arb or
Ġdilig ence
an el
opp ing
ex clusive
Ġvalu able
ĠVIE s
Ġdepre ciated
I s
oblig ations
Ġp etition
y ed
ĠInter active
ĠCh arter
n a
ĠQual ity
re y
pre t
ĠL C
Ex change
ĠSTATE MENT
ost on
ĠBas is
ĠSC HED
Ġwebs ites
Ġs cr
IT F
Ġanticip ates
Ġus ually
ĠC ASH
g rant
Ġdis asters
us es
Ġh undred
Ġfl u
Ġpl ay
Ġdesign s
Ġfinan cings
ĠPr ac
In formation
Ġadmin ister
ĠB ook
hen tic
ĠM o
rel and
Ġphysici an
cance lable
* ]
Ġent ers
ĠNe ither
Ġdise ases
de pendent
Ġresol ve
Ġthere for
Ġinnov ative
Ġtransl ated
C apital
m ost
od ollar
Ġdeliver ing
ĠHistor ically
Ġpay s
Ġb enchmark
ĠCh ase
Ġb o
accord ance
g g
H e
Ġj ob
Ġcon clusive
LE D
ĠIn f
Ġeffici encies
Ġdemonstr ate
Ġcur tail
Ġinc ons
ir able
ĠSh ould
Ġsh ared
Ġdec ide
st ep
Ġsp eed
Ġst ation
Ġfe as
ĠV oting
le ans
Ġcounter parts
Ġinterpre ted
ĠSing apore
abl ed
Ġreg ister
ĠPOL IC
Ġst atis
ĠHaw aii
Ġsp ouse
Ġg ene
Ġs light
at s
b i
ĠBr itish
ĠH ar
on ald
Ġimpro per
erm uda
Ġcaus es
ĠP ort
ĠINC ORPOR
Ġour s
a ution
t otal
p red
id er
ron ics
G u
ro ub
Ġbelie ved
izon a
s ecured
Ġsem iconductor
Ġsuper ior
ul k
Ġproduc tivity
Ġ #
Ġph arm
U E
ĠGr and
ĠRo yalty
et h
Ġsubstit ute
B M
Ġcoll ections
x ic
pr ior
Am eric
ĠEng land
Ġb ur
D ollars
B I
Ġlabel ing
l ined
Ġw ays
as so
Ġlo ad
ĠM oody
ĠC MS
Ġint ense
Ġchallen ge
Ġpr ud
Ġvac ation
Ġcur ve
OP TED
ĠM ax
Ġp resident
Ġnegoti ations
Ġcontract ed
A TIVE
Ġcarr ier
ĠF if
Ġp ain
ĠC ell
ĠCurrent ly
ec tic
Ġretain ing
ograph ic
ust on
Ġnotif ied
the ir
pend itures
Ġmet al
Ġinstall ed
Ġfor ced
Ġpur port
Ġsim plif
ig her
ĠV er
Ġstud ents
s w
ĠParticip ation
Ġexp iring
ĠAm eren
in ternal
pos al
h am
ĠCon solidation
ĠC V
P T
or der
omm od
Ġass urances
Ġoff shore
ĠM ess
ĠBase l
vention al
re alized
ĠD an
Ġdiagnos tic
ĠN amed
Ġdepos ited
hold ing
ww w
ĠSel ect
ĠĠĠĠĠĠĠĠĠĠĠĠĠĠĠĠĠĠĠĠĠĠĠĠĠĠĠĠĠĠĠĠĠĠĠĠĠĠĠĠĠĠĠĠĠĠĠĠĠĠĠĠĠĠĠĠĠĠĠĠĠĠĠĠ ĠĠĠĠĠĠĠĠĠĠĠĠĠĠĠĠĠĠĠĠĠĠĠĠĠĠĠĠĠĠĠĠĠĠĠĠĠĠĠĠĠĠĠĠĠĠĠĠĠĠĠĠĠĠĠĠĠĠĠĠĠĠĠĠ
Ġemp has
ĠĠĠĠĠĠĠĠĠĠĠĠĠĠĠĠ ĠĠĠĠĠ
Ġ- -.
Ġintrodu ction
E d
Ġstr ict
Ġorgan ic
ĠDeli very
li ances
urisdic tion
ul ated
Ġrec ourse
as ive
Ġrein sure
Ġille gal
Ġt it
Ġsp onsored
ĠĠĠĠĠĠĠĠĠĠĠĠĠĠĠĠ ĠĠĠĠ
Ġclo ud
ĠB el
m ade
Ġaccur acy
AN TS
ol ly
Ġinsure r
tr ust
ĠSt ud
ĠJ eff
e quity
Ġcaus ing
p urchase
de aler
ĠOff er
Ġst able
ĠMa e
Ġenhance ments
Ġregul ate
Ġin termedi
Ġex changed
Ġt ons
Ġautom obile
Ġwa ive
ĠOmn ibus
id s
ĠM A
pro fit
b l
ĠChar ges
an nual
Ġelect s
Ġin hibit
ĠMeasure ment
Ġsubs crib
Ġmerg ers
ĠBorrow ings
G R
Ġex changes
le v
Ġmat ch
N Y
Ġevid enced
Ġpl as
ĠP S
Ġto ward
I LL
Ġprocure ment
S enior
Ġcontract ually
lo ans
stand ard
m od
b asis
or se
Ġsubject s
Ġprof ile
ĠN U
ĠAm ong
ĠImprove ments
Ġmove ments
Ġnon accrual
Ġopen ing
iz er
Ġpass ed
ĠEcon omic
Ġbeli ef
lan tic
O UR
Ġren ts
Ġanti b
Ġseason ed
Ġf alse
Ġform al
G P
Ġstand ing
ĠY EAR
at ab
disc losure
ic ago
Ġs our
ĠOr leans
ness ee
Ġpro p
Ġso lid
Ġsix ty
eff ect
ĠRec ent
ĠS il
ĠEngine ering
I mp
ĠAppro val
Ġex cise
ord inary
a rent
Ġhold ings
s ystem
Ġminor ity
ession al
Ġfinan ced
and ed
ĠI tal
ĠE U
Ġfr act
angu age
d ing
C M
Ġbe ars
isc o
Ġ. )
li ant
ĠAcc ess
al le
ĠF il
Ġreimburse ments
Ġpropos al
Ġse arch
Ġm ol
CON SOLIDATED
PP LEMENT
Ġfurn iture
AR E
Ġf abric
Ġ$. .
ĠAdv ances
Ġvol untarily
ĠSup port
Ġestim ation
por arily
Ġclear ing
em or
Ġlead ership
ous ands
Ġnegoti ate
Ġseri ous
ĠPro fit
fe re
ĠE ND
ĠAre a
ar a
ĠR SU
ĠMin nesota
L ink
ĠH E
Ġs ide
Ġrati f
ĠF LO
Ġdefici ency
ĠG reat
ac he
resp ect
Ġl ittle
Ġc ed
yl aws
Ġshipp ed
eff ectiveness
Ġeng aging
EC T
ĠRec overy
NI FIC
Ġconsider ations
ĠCr itical
ĠD igital
ĠPro visions
ĠBe ginning
ĠR EC
Ġevalu ations
ĠEs crow
ĠS k
Ġlicense es
ĠAD OPTED
pos s
Ġspecial ized
Ġrevers al
g or
ĠId entif
ĠG ains
Cont rol
ĠPOLIC IES
Ġp ark
e en
ĠPr om
Ġsp onsors
pos ed
re venue
Ġcomp lying
Ġauthor itative
ĠSTATE S
ectic ut
istrib uted
Ġperform s
Ġbr anches
Ġretro active
c ount
rec orded
Ġrecommend ations
ĠP res
ĠEm erg
Ġannoun ce
Ġtherap ies
C ORP
CER TIFICATION
ĠK ore
Ġes cal
Ġl ink
Ġthere unto
Ġm ar
Ġatt acks
ĠM ont
t xt
Ġe volving
to gether
Ġcompens atory
Ġelect rical
Ġsit uations
n ecess
H S
ĠAd vertising
ĠEur odollar
ĠF E
st e
ĠR ad
ĠTrust ees
Ġfil ers
ĠLi ber
ĠP A
Ġcommon ly
ĠCON DITION
Ġherein after
Ġcharacteriz ed
tit ution
Ġby laws
FID ENTIAL
Ġdecl ining
Ġcompound s
OU T
Ġdef icit
l ish
vant age
C ost
pro perty
ĠApp endix
Ġeconom ically
be en
ĠLink base
roub led
ant om
ĠSTOCKHOLD ER
Ġun expected
ĠAr izona
Ġlo ck
it ro
ĠOn ce
ĠW isconsin
worth iness
Ġun qualified
oles ale
ĠS E
Ġpro toc
Ġext reme
Ġbrand ed
place ment
o lid
reat ment
or izon
ER AL
/ /
IS I
Ġsk illed
f ive
ĠP or
Ġrestric tion
r als
ĠAttorn ey
Ġlaw ful
ĠF red
Ġexclusive ly
Ġneg ligence
Ġco vers
Ġintegr ity
C ES
ĠBas in
C ons
ĠDe v
O K
Ġadvant ages
ĠG HG
Ġpre par
ĠTRANS AC
st ar
Ġviol ate
put s
Ġaffirm ative
ĠWith in
row n
ĠLet ters
yn am
Ġexpend iture
d ivision
State ments
Ġcre ation
J une
Ġd d
Ġdispl ay
at ter
Ġques tion
ĠDil uted
ĠINTER N
p resent
Ġper f
mat urity
Ġs ound
ĠAfric a
Ġsu re
Ch airman
ord able
ĠTrans mission
Ġco up
Ġposs ess
Ġrem ote
et ers
Ġsem i
S S
Ġbu ilt
Ġvirt ue
ĠJ ose
ĠJ PM
pet ual
ĠAdvis ors
Ġref ers
g ations
ĠMid dle
ĠProvid er
Ġh y
Ġpro te
Ġp ort
et ween
B orrow
it ch
c ounter
ber g
Ġauthor ize
Ġenroll ment
so ft
Ġguarant y
Certif ication
Ġfunction ality
ence ment
Ġaddress es
Ġsell er
ĠSh ort
ĠCo ven
eu tics
Ġd est
p e
h ow
ĠB oston
op y
ĠL O
ĠRe view
sidi ary
ĠD om
crip tions
Ġintern ationally
ĠConsult ing
Ġpermit ting
lo ad
br idge
ĠF ort
Ġreinvest ed
u ing
ex isting
Ġinv o
ord ination
Ġun condition
Ġterror ism
Ġp oly
equi val
Ġadvis or
n ey
ĠMat urity
in stru
ĠO ld
ST ATE
ĠR ating
sub sidiaries
Ġsimilar ly
m edi
ND ER
ĠTe le
Ġabs orb
Ġdis rupt
reason able
Ġrep atri
ĠINCORPOR ATED
ĠFR B
ĠK ansas
ĠJ ud
ul ner
ĠLend ing
Ġrest oration
ĠP etroleum
ĠESP P
ĠS HE
Ġcomplex ity
Ġmetric s
ĠG iven
Ġreg istr
ĠES OP
ock et
Ġhe aring
Ġexclus ivity
iv al
ĠPR ESENT
p at
Ġdi verse
con trib
ill ary
um in
ĠEM PLOY
Ġcre ating
uer to
Ġdraw n
ĠPr im
O CI
ĠApp eals
Enter gy
ĠRec ip
ort ality
ch it
ĠH el
Ġbi otechnology
Ġaggre gated
fund ed
Ġcomp ares
Ġund istributed
Ġun audited
Ġbu yer
ĠW ood
Ġacc ommod
c ertif
ĠEx cluding
ĠSECUR ITY
ĠDe velop
Ġredu ces
Ġirrevoc ably
Ġp ound
ap s
Ġlap se
Ġmed ic
ĠĠĠĠĠĠĠĠĠĠĠĠĠĠĠĠĠĠĠĠĠĠĠĠĠĠĠĠĠĠĠĠ ĠĠĠĠĠ
ĠJoh ns
Ġexec uting
ĠS H
Ġhypothe tical
ĠCh apter
Ġrecru it
ĠPUR CH
Ġear th
Ġreview ing
as ured
Ġbeh avior
ĠChe mical
ĠAmeric as
estim ated
Ġsur round
ph an
ĠApp lication
Ġs il
Ġvari ations
ĠInvent ories
Ġdef ects
Ġpre tax
ex erc
ĠThe y
ĠM ill
Ġsp in
c or
s he
Ġproportion ate
Ġdemonstr ated
AL ANCE
invest ments
set t
Ġfif ty
Ġpursu ing
m ed
ĠMon th
ain ed
ĠB ylaws
Ġadd ing
N OW
amp les
ĠCAP ITAL
Ġmedi um
ĠB ul
Ġhe ading
ĠLe ased
in to
IN E
y le
ĠT ER
Ġcall s
ĠK e
Ġatt estation
ĠMess rs
Ġorgan izational
Ġdo se
ĠO M
Ġcy ber
ĠSt ar
IN D
Ġin quir
Ġenforce ability
Ġar tic
Ġpro hibits
ĠCoun ter
ut ual
ree k
ĠE ITF
ĠL ake
Comm ittee
ĠB R
Ġch apter
V A
M ark
ĠAdvis ory
Ġin duce
ĠI r
ĠR ico
ĠDesign ated
ĠACCOUN T
ĠAm endments
ĠĠĠĠĠĠĠĠĠĠĠĠĠĠĠĠĠĠĠĠĠĠĠĠĠĠĠĠĠĠĠĠ ĠĠĠĠ
ĠLiber ty
ĠP al
ĠTrad emark
Ġunre ason
IN CIP
VER N
des ign
Ġob s
ra ul
trans actions
ĠL IM
Ġsc en
qu est
success ful
ĠTen nessee
over age
ĠOwn ed
Ġr uling
Ġpat h
ĠCOMM ON
G en
ĠCONTR OL
Ġw ages
ane ously
Ġv ulner
INCIP AL
ĠW aiver
vol ver
Ġded icated
ĠExp ress
m o
go v
U NITED
ut or
ĠUn resolved
Ġhead count
i ke
ĠSHAR E
ĠQ U
Ġow ing
Ġcon sumption
Ġopen ed
g roup
Ġe as
ĠC lear
Ġre investment
ĠSup reme
ĠGu id
ĠAuthor ized
osp ace
ĠComb ined
ĠEND ED
ĠEstim ated
cum br
Ġst ability
V I
Ġdec id
I EF
ĠSU PPLEMENT
st at
ĠInstit ute
Ġacc redit
Ġstock s
Ġprep ay
ĠS A
Ġclear ance
AL L
ol a
Ġcommun icated
ĠConn ecticut
Ġ **
Ġcor rective
Ġcomple ting
ĠT DR
pret ation
ĠSte el
a ign
per ties
orm al
i ff
ĠG l
ent h
Ġcyc les
ĠId aho
Ġcap ability
orn e
Ġdism is
Ġgreen house
ĠHy att
ĠI reland
Ġess ential
ĠM IS
ĠC ORP
Ġchallen ging
di vidend
n st
ĠHo uston
ĠInd ividual
ĠSt an
Ġequ itable
asure ment
Ġman ages
ĠB re
ĠPr inciples
ac tivities
Ġc arbon
Ġinstru ctions
ĠCh icago
c illary
ĠB ermuda
asso ciated
ĠCont roller
ĠRes idential
ĠFr ank
m entioned
Ġcomm ittees
Ġentire ly
MM ARY
ĠContin ued
are l
ĠS M
C l
Ġirrevoc able
Ġcon cept
Ġt um
su pp
Ġcol umn
Ġex tra
pro duction
ent er
ĠMet hod
Ġchemical s
ĠAdvis or
Ġreclass ification
spec ified
ear ned
Ġfl at
red ecessor
Ġpres crib
w ould
Ġprepar ing
than ol
ĠREGISTR ANT
Ġguarant or
E B
Ġ- ).
ĠLim it
Ġn in
Ġde ple
Ġun ion
ĠAccount ant
ĠP B
Ġspec ify
Ġ/ /
ĠF ield
ANG ES
ĠĠĠĠĠĠĠĠ ĠĠĠĠĠĠčĊ
ĠG E
Ġ( ,
cell aneous
er ospace
ĠT wo
imp act
Ġinvolve ment
un ity
aff ect
Ġce ases
ĠC ore
Ġrevis e
Ġa gricultural
Ġsurround ing
Ġexp ression
ro ph
Ġrec ession
le tin
P l
ol f
r ated
ĠV I
Ġconstrain ts
P SC
her s
ĠJ unior
L ived
market ing
ĠMid stream
C al
S p
d et
ĠAc quired
Ġdis tr
ar tered
vi ation
ĠM B
Ġflo od
B ecause
ĠB lock
ĠIndemn ification
w an
an ine
Ġenc ourage
ĠP uerto
. (
ĠCli ent
Ġpres cription
Ġrevers ed
N B
ap e
Ġf arm
we ar
op ted
Ġde grees
W ARD
Ġ =
regul ations
Ġdes irable
ĠMain tenance
et e
pr int
ĠTRANSAC TIONS
Ġm agn
ĠS ign
ol lo
ĠM or
Ġmat ures
Ġalle gations
Ġ rol
Ġauthor izes
Ġar re
ra du
ĠBr ands
ĠF ound
res h
Ġin acc
Ġst ages
Ġto xic
Ġp ages
U D
Ġv aries
establis hed
itz er
In te
ĠLe ad
ĠReg istr
ĠDistrib utions
Ġd atab
ĠCapital ized
ĠV AL
Ġm ul
Ġsh ut
Ġmon itors
Ġh olid
Ġbenefici aries
Ġcompr om
ĠRed emption
ĠPr ime
Ġannual ized
L C
Ġtrad es
in clude
Ġiniti ate
Ġ$ (
gener al
ĠO cc
claim s
Ġlog istics
ĠV entures
Ġfranchise es
ĠR ail
ffici ency
ti s
M O
ĠFif th
S FAS
pro visions
Ġcl in
Ġmerch ant
ĠPre viously
ĠB ack
ĠW all
Ġce ased
on ic
Ġdis tin
ĠF re
Ġrenew als
Ġarbitr ator
n ew
Ġmat uring
ut er
Ġpres erve
ĠLi quid
ĠDet ermination
ig or
ĠN A
Ġsurv ive
ĠTR UST
our n
b re
ĠT ermin
Ġd om
s hip
Ġinflu enced
ĠS W
al low
ĠM art
o en
ĠW here
Def erred
Ġv oid
lo an
Ġsp ot
Ġconcentr ated
Ġaut o
AC T
Ġpoll ution
NIFIC ANT
Ġf er
ut ors
ĠB P
ĠV is
ĠC LO
Ġdeliver ables
ang er
pred ict
Ġperman ently
c il
z a
T P
ĠFLO WS
ĠC umulative
Ġvers ion
f erence
urse ments
ĠDISCLOSU RES
Ġaut hentic
chit ect
s en
ĠColl abor
Ex act
zz anine
Res tr
ib ly
ĠM al
ĠQ UAL
un ctive
mark ets
ĠH er
ĠC ayman
Ġfollow ed
Ġprot ected
ĠEnter prises
ĠRegistrant s
term s
ĠI C
on ly
ĠNot hing
Ġa w
ĠF C
Ġimp oses
imb ursement
Ġamend s
E s
Ġcollabor ative
Ġref eren
SIGN ATURES
raul ic
ĠTr anche
v w
Ġfund amental
N umber
Ġrem e
ĠTH AT
bu ilding
C he
c ompanies
F A
pro gram
echn ical
Ġrecip ient
Ġde ed
Ġsh opping
G I
ĠWh ite
ĠM il
ĠM ajor
Sh are
Ġ( $,
ĠRepresent ative
Ġacre age
eriv ative
Ġun developed
Ġlaun ched
Ġsub lease
re al
Ġderi ve
Ġt errit
gress ive
Ġnum bers
Ġperson ally
ER IC
Ġapprais al
Pro duct
Ġalig n
ĠW ar
Ġterror ist
ĠLicense e
Ġcap able
Ġminim al
P B
ĠTrans portation
---------------- ----------------
Ġ ________________
Ġup front
ĠPROPER TIES
ann ie
Ġfix tures
Ġreb ates
Ġwork ed
Ġinterru ptions
Ġ +
Ġstaff ing
ĠS B
al located
ut r
c ore
ĠCH IEF
O ver
ĠGO VERN
p atient
Ġref r
Ġdisc over
ĠSpecial ty
Ġref ined
ĠC reek
On e
EF ORE
Ġout look
Ġattrib utes
iss ible
Ġthen ce
necess ary
Ġelimin ation
ĠJohns on
N ove
ac quired
t t
ĠNo v
ĠQual ifying
Ġdd ex
ĠComb inations
ĠRecip ient
Ġintrodu ce
as ion
Ġfac simile
ar ied
Ġacc omp
Ġf inding
Ġwas tes
S chedule
Ġown ing
h alf
Ġli ving
ĠPh il
Ġunder st
ĠSpecific ally
Ġe thics
ask a
Ġunderwrit ers
Ġformer ly
ĠH ill
ĠE V
ild ren
Ġeconom ies
Ġincons istent
Ġasser t
b orrow
Ġdef ines
Ġorder ly
in dustr
AS C
Ġstand by
ĠĠĠĠĠĠĠĠĠĠĠĠĠĠĠĠ ĠĠĠĠĠĠ
di ff
Ġatt end
ĠE astern
ĠP ass
TIN UED
imp airment
ĠP lease
D o
ĠP ack
Ġconsumm ated
Ġinnov ation
Am endment
ĠRus s
n ight
Ġguarant ors
Ġinterest ed
f izer
Nove mber
ĠSpec ified
Ġpr onouncements
ĠBr anch
ric k
Ġaccount ants
Ġconstit uting
ĠRen ew
ĠPROCE ED
Ġindemn ified
z en
Ġopinion s
Ġdev ote
ĠM BS
Ġstart ing
Ġdi vert
v oting
Ġrecogn izing
Ġsubstan tive
ĠStr ategy
ĠAdjust ment
ĠOblig ation
pro ceed
Ġrad i
olog ic
Ġsign ing
Ġf iber
p arti
ĠD omestic
O ctober
ĠAc celerated
I TED
ĠT erritory
Ġen j
Ġun ivers
ĠPa ul
Ġm ortality
ĠSIG NIFICANT
direct ors
Ġn omin
ci r
op tions
ĠSAR s
other wise
CO SO
tic ally
Ġslight ly
ĠM ortg
ĠRes ource
le ased
ĠPART NERS
Ġ ur
TR IC
omin ant
V ED
R G
ec tivity
re quire
ĠDefault ing
ĠG rowth
ĠN RC
ac ent
appropri ate
Ġcop per
Ġsus pend
p tible
Ġdes ired
ĠIS SU
ordin ate
ĠP ool
Ġun employment
ĠAr bit
Ġwide ly
b ec
am il
ĠTherap eutics
ĠCo ast
V ice
ĠE L
ĠCl ause
N UAL
Ġarre ars
Ġcredit worthiness
B r
ĠP V
deli vered
anufact ure
ĠL atin
Ġdef ending
other ap
ĠT EC
ĠMount ain
ĠLT D
Ġcomp lied
Ġwa ivers
ure au
ĠJPM organ
emplo yer
Ġres c
Ġal ways
abl ing
ĠL ight
ĠC am
ĠDEF INI
ĠEr nst
pl oration
Ġassess es
ĠU NDER
Ġv igor
p articip
Ġimpact ing
estim ates
ĠE D
Ġmin us
ĠKore a
**** ****
Ġc ome
ĠEd ison
ip e
S ales
Ġt issue
Ġtrans feree
Ġtreat ments
Ġvari ability
a a
Ġmanufact ures
ĠPR INCIPAL
Ġcontinu ously
ĠPro sp
Ġcance l
regul ated
Ġqual ifications
s ers
ĠP otential
ĠAut o
Ġeng agement
Am ended
h ab
ĠB ur
Ġnon performing
ĠEnter tainment
tr aded
Ġsubstit ution
ĠF annie
red u
o sure
EC TED
Ġsome times
p ower
c arr
Ġdef ine
Ġretrosp ectively
Ġacc retion
itiz ens
Ġl ay
ĠI SO
Ġques tions
in ator
ĠHe ad
Ġmechanism s
Ġst abil
ĠSch ool
Ġover r
Ġcatast rop
Ġcare fully
ĠOr d
re venues
ĠJ V
ol ing
ĠComm encement
ĠConsult ant
em ic
Ġperce ived
ĠIssu ed
n umber
Ġpr iced
ĠWh olesale
Ġ[ *]
Ġun affiliated
Ġnorm ally
ĠPrem ium
M IC
ĠRE QU
Ġfract uring
Ġaccru ing
Ġaudit or
Ġb odies
Ġb ulk
un less
Ġnin ety
Ġproble m
cr iber
am s
G oodwill
f low
ĠFr anc
eep ing
Ġcompar ative
ĠI D
ĠCon d
Ġquanti ty
ĠAltern ative
C an
g ating
Ġo vers
ĠSub stantially
ĠF AC
Ġenact ment
ĠIsra el
OR K
at ers
Ġext ending
Ġind ependence
T ON
Ġsk ills
Ġappropri ately
ĠUn certain
ĠPl atform
Ġst op
Invest ment
resp ective
Ġrequest ing
Ġdismis sed
B e
F ore
E TS
Ġharm less
Ġundert aken
N H
L ong
ĠRe insurance
ti liz
iche ver
Ġpred ecessor
D i
V al
Ġg radu
ĠL ux
ĠC C
ĠSimilar ly
Ġpool s
Ġrec y
ĠContract ual
ex empt
Ġpl c
ĠOFFIC ERS
Ġm en
ĠA ge
Ġsp end
ĠP fizer
F IN
Ġpre jud
en ess
le ge
ear nings
voc ation
ce pted
ĠSU MMARY
ĠInd ian
c ar
Ġg lob
AS U
ĠNE W
Ġsh ortf
ĠG ain
Ġt al
Ġm otor
r ay
ĠRo y
Ġc ult
ĠW ire
Ġe ase
ĠAl liance
Ġche m
r ix
ol ine
ĠO CC
termin ation
ĠO pport
Ġdes ire
ĠMin imum
Ġt erritory
Ġv ice
custom er
A pril
f ired
Ġconduct s
AC H
ĠSp ace
Ġsti p
ĠFer rell
ul ent
Ġprop ane
ĠCH ANGES
ĠS and
benef its
al y
Ġsec ret
O wn
ĠA BL
Ġsc reen
Ġh ouse
ecur itiz
ĠAMEND MENT
al t
ĠRestric tions
lo sures
ustod ian
Ġto wards
O fficer
Ġden ial
Ġmut ually
ur sing
Ġcompr ising
B l
ach ment
ĠRel ations
Ġclaim ed
ĠRE AL
Ġcategor ized
Ġpen et
ĠNo tices
de bt
st all
Ġbro ader
Ġassign ee
comp etition
decre ase
Ġr anges
ĠO ak
umin um
Ġp ump
M IN
Ġin ventions
s er
ĠPa per
pro du
F ederal
Ġsubscrib ers
Ġcompens ated
Ġassoci ates
Ġconsistent ly
ic an
ĠS BA
ĠDe ed
comp ared
Ġe thanol
Ġbe verage
ĠM utual
ren ce
ĠC arr
ĠBul letin
ĠSur v
Ġmet als
ĠAn ge
Ġunderst ood
Ġadopt ing
Ġfinal ized
ĠChar les
Ġan imal
Ġl ands
Ġt on
v iii
Ġconclus ion
PM G
Ġenfor ced
Ġ( .
G S
ac le
D ated
Ġeffici ently
UC T
Ġenviron ments
ĠCo al
Ġo mission
b ro
ous es
ĠEn d
or al
ĠM SR
Ġd ental
u ated
In s
ĠC AL
ĠCh ris
.. .
C orporate
acc o
f l
Con tract
ĠCO SO
Ġr ising
Ġinvol untary
Ġal one
ĠD emand
ag le
ĠR IC
UL ES
ĠD U
Ġaccess ories
Ġless ee
n ow
own ers
distrib ution
Ind ex
Ġavoid ance
Ġcompet es
Ġpack age
Ġteam s
B T
Ġappro ving
peri ence
Comp etition
Ġsell ers
ĠLo cal
al og
mon t
beli eve
ĠAss istant
m its
ĠF ive
ĠB efore
ĠP oor
ĠT own
d ie
def erred
ĠD OE
" ,
ĠC ase
ores een
ĠFor ce
Ġdist ance
Ġ '
ĠCo oper
ĠSER P
Ġadvis ed
Ġv acc
ĠRo om
uct uations
Ġcooper ate
E ach
Ġe ver
re x
ĠB ALANCE
Ġw r
B enef
ĠRent al
ĠM argin
==== ====
ĠP redecessor
Ġlat est
ĠT el
am ation
e ither
an o
li est
Ġm us
N S
Ġinj unctive
stanti al
ON S
Ġobserv ed
ow a
p olic
Ġheav ily
ten ant
ĠN u
Ġdeclar ation
c ase
Ġprivile ges
ĠProceed ing
ĉĉ ĉ
Ġvigor ously
itzer land
ĠPat ents
ĠT ai
fore mentioned
Ġprosp ectus
Ġpublic ity
ĠH I
Ġdies el
ĠOT TI
Ġinform ed
Q ual
de pos
Ġsub division
Ġprincip le
Ġre act
contin ue
Ġmerg ed
Ġet c
ĠNGL s
P D
met hod
Ġhyd raulic
ĠA v
Ġconn ected
er a
ĠS ite
ĠF L
Ġdom ain
ĠCon cent
Ġs ectors
p otential
Ġre lied
ĠPl aintiff
am in
Ġexpect ation
ass et
ĠC E
le g
Ġenc ounter
ĠAb b
g ative
Ġrec on
c omb
Ġanal og
urric ane
Ġv oice
Ġleg acy
Ġanalyz e
Ġbegin s
Ġp anel
Ġshe lf
ĠW A
Ġch airman
f irst
ĠLIM ITED
cum stances
us al
ĠA OCI
rec ourse
y m
S B
ĠR O
. :
Ġacknowled ged
Ġquot es
ĠINV EST
Ġsubcontract ors
our g
W HER
as te
ĠFlo or
ĠSwing line
Ġcapital ize
Ġpay ables
ign ment
pre viously
ur o
W ith
ĠT M
ĠS olar
Ġinc urrence
ate ment
not es
ĠTEC HN
Ġunder capitalized
er ation
ĠDef ined
Ġn ation
Ġinter state
Ġenter prises
Ġupgr ades
Ġemerg ency
ir s
Ġliquid s
T V
it ness
Ġearth qu
Ġpurport ed
Ġre location
not e
ĠCertif icates
fac ility
Ġlist s
Ġsur ve
ĠI L
pur poses
Ġelectron ics
Ġconting ency
c f
ĠDis continued
ĠN OW
ĠAir craft
ĠG EN
Ġsupervis ory
at he
Ġtrans act
G r
Ġmar ine
ĠG M
ĠRM BS
Ġmin utes
ĠB al
An nual
av ig
Ġdivers ification
UL ATION
Ġingred ients
Ġindefinite ly
Ġdet ected
ĠF FO
Ġcompens ate
ĠREIT s
Ġassemb ly
ĠAutom otive
Ġm ac
Ġapprais als
ĠDr ive
Ġwa ives
ee red
Ġengine ers
ĠAdjust ments
ss ue
ĠT er
C r
Ġdeduc ti
Ġcor ro
B u
Ġconsumm ate
Ġt ext
ĠDIREC TORS
Ġupd ates
ĠTHER EFORE
Ġrefund s
anes e
p urch
ell on
l a
Ġadj acent
e em
ash ion
ul ations
ĠSc ott
Ġcont est
ĠTrans ition
Ġback ed
vis ed
Ġpen ny
Ġsy ner
Ġunderstand s
Ġm g
ĠT w
ĠL EG
ĠExp ected
cept ance
Ġautom ated
as cular
Ġg ames
Ġmer its
Ġdr ivers
ĠItal y
ref erence
ĠN ominating
Ġc aution
y me
Res earch
ĠIND EX
ĠP ur
ol itan
Ġsupp lied
as ures
ĠInter pretation
Ġto w
ĠSmall er
ĠF ord
S ell
Ġde x
RE PORT
Ġincorpor ates
ĠPrac tices
emb ourg
Ġterrit ories
Ġwh ichever
Ġcopy right
Ġsus ce
ĠAdvis er
Ġdiscontin ue
gre gated
Ġclaim ant
Ġnon qualified
Ġtem per
Ġreferen ced
FAS B
ad just
Ġra ising
ĠNO T
ub s
Ġequ ally
ĠVe hic
Ġcap tions
ĠCONS ENT
RED IT
Ġposs ibly
ic a
Ġmark ed
Ġnear ly
Ġmo tiv
Sh ares
ĠAs h
Ġequ als
Ġorigin ate
Ġl andlord
Ġform at
Ġs am
ĠINTERN ATIONAL
Ġinter fere
Ġform ulation
Lo an
ĠProf essional
ĠS im
Ġcompetit or
ĠG aming
Ġbuy ers
Ġad ap
Ġa forementioned
Ġtrust ees
Ġcollabor ations
ene z
Ġp un
Ġclar ifies
id entif
Ġex isted
Ġpar cel
Ġvot es
Ġadvis able
Ġdr illed
Ġin ure
os en
k eeping
ge red
Ġear liest
S ource
Ġfif teen
S outh
J M
x i
Ġover night
ĠAg gregate
Ġl anguage
V EN
ĠFirst Energy
vi a
Ġfraud ulent
oc he
Ġa ver
Ġdesign ing
Ġsupp lements
Restr icted
on a
Lo oking
Ġg en
ĠRE FER
Ġexerc ising
Ġhydro c
ĠOblig or
Ġshort ages
Ġb atter
Ġin effective
ĠTECHN OL
WHER EAS
ĠN C
gu arant
ĠComm erce
Ġprac tical
Ġappro aches
H EN
P U
State ment
Ġb arr
ĠC B
f ollow
AG REE
S ec
ĠPen n
Ġunreason ably
resp ons
pro cedures
Ġli f
us ing
Ġspec ulative
writ ing
ĠProgram s
Ġrec all
Ġse qu
Ġcomplain ts
De preciation
if ts
ex ecutive
op ers
k i
Ġs urch
ĠStr ategic
ĠJ ack
ru ption
Ġtrans p
W est
I X
AR P
Ġdiscus s
Ġcamp aign
Ġas k
ĠResp ons
g ery
sh ire
c urrency
Ġchallen ged
Ġdefer rals
AB IL
ĠP OWER
IC O
Ġconserv ation
D is
Ġcor rel
h igh
Ġalloc able
l aim
Ġst ress
Ġconfirm ed
ĠPro gress
enez uel
Ġun successful
ens or
acc ounts
us h
P E
ĠFour th
ĠT ou
Ġdeliver ies
: //
aren ess
Ġh iring
Ġeduc ational
ect ing
is is
e valu
ĠAdv anced
ĠComp ar
Ġevid encing
Ad dress
ĠNetwork s
ĠN EO
l ab
al lowance
ĠV II
F R
ro s
ĠOp inion
ĠPro vision
Ġliquid ated
Ġle ar
Ġno vel
the tic
Ġtrig g
in iti
reg ard
e tit
ain st
ĠE agle
le ted
Ġincur ring
itro gen
Ġcredit or
ĠT est
ĠCoun cil
M at
ail s
Ġsub sid
ĠM ellon
ch arge
ĠSHE ETS
Ġt roubled
Ġsucceed ing
ĠAustral ian
hab ilit
Ġinj ection
ĠC at
ĠAg ents
[ ***]
k a
ĠF amily
Ġper petual
qu encies
ĠH arr
Ġsim ult
ĠD R
ĠP ep
Ġcon ventional
O ut
Ġintegr ating
contract s
AR R
m ar
ut in
ĠDes pite
ĠNOL s
Ġbud g
gin eered
in te
Ġa id
ĠF A
J oh
ĠIn fr
ĠDefin itions
ĠLEG AL
Ġpre c
Ġcomplement ary
C are
Ġexperi ences
I Z
Ġprevent ed
est one
ĠK r
end s
ĠO UR
Ġcomp osed
Am ounts
Ġnet ting
Ġm ig
Ġprud ent
h ai
ipp ing
ĠVari able
Ġh ar
ST AR
Ġtem porarily
SO E
arti s
Ġiniti ative
Ġoblig or
Ġupgr ade
du m
ee k
ĠTh ree
trans action
Ġattempt s
ar row
Ġo verse
Ġd up
E FIC
ĠL NG
ĠW y
Ġacqui res
c ence
L arge
ĠAm b
ĠK PMG
b illed
Co opers
ĠS EL
ĠStan ley
Ġref inery
par agraph
sp onsored
qu e
des cribed
Ġsusce ptible
Ġwork s
ĠPerson al
ĠPURCH AS
ad ded
house Coopers
Ġbroad band
ĠH A
l anta
ĠAN NUAL
is hes
Res ults
ĠRe volver
In vent
th ose
Ġpe ak
out hern
Ġprovision al
Ġg all
ĠAccord ing
ĠM ining
trans fer
Ġconstruct ed
S te
Ġextra ordinary
Ġdefend ant
pre ad
-- -
ĠĠĠĠĠĠĠĠĠĠĠĠĠĠĠĠĠĠĠĠĠĠĠĠĠĠĠĠĠĠĠĠ ĠĠĠ
Ġe th
ATE S
ĠFood s
ĠTh us
ow s
Ġdeduct ing
Ġfuel s
Fore ign
ĠCent ers
acc ount
ĠElect ronics
Ġfraction al
it ude
u ities
ĠP SUs
rece ived
erv ed
ĠB ureau
Ġthreshold s
Ġinj unction
ĠT em
Lo ans
water houseCoopers
ĠCON FIDENTIAL
ĠL E
ĠFred die
ĠMart in
be low
ud get
ĠI ts
Ġw age
ĠP arti
ĠOWNERS HIP
Ġdown ward
Ġdivestit ure
ag gregate
Ġfil m
Ġincident al
aud it
ĠRegion al
b etween
Ġun predict
Li quidity
Ġrep eal
tif amily
P oint
ĠPN C
G overn
w hen
arr ange
ĠSU CH
ĠĠĠĠĠĠĠĠ ĠĠĠĠĠĠĠčĊ
o e
ĠBr idge
Ġrece iver
ĠEXHIBIT S
Ġ. ..
ĠL os
all as
b ered
ĠN J
Ġhead ings
adverse ly
we alth
Ġsp ectrum
ĠL G
Ġtr ail
F F
Ġdevelop s
lo se
Ġacquire r
ent ed
ĠAS SE
Ġpro s
L ife
Ġartic les
ĠSp in
Ġde bit
br id
ĠP ty
Ġadministr ator
ĠM M
ĠĠĠĠĠĠĠĠĠĠĠĠĠĠĠĠ ĠĠĠĠĠĠĠĠĠĠ
BR A
AL S
Or ig
Ġan cillary
el on
Ġreli es
Ġglob ally
Ġmer it
Ġto ok
Ġmark s
o up
lo itte
ĠT ru
ĠSci ence
Ġinacc urate
Ġdis cip
ĠCal culation
ĠGovern ing
ĠI B
Ġtr act
cir cumstances
Ġ roll
roph ic
ĠH azardous
ON E
Ġmis appropri
om en
Ġsyner gies
Ġquot ations
Su pp
Ġexclus ion
ĠSte ven
Ġsolic it
in der
ĠP D
Ġre vocation
rel ating
comm erce
Ġinsp ections
ĠInte gr
Ġse al
fac ilities
lig h
Ġdevelop ers
er ate
ĠTai wan
Ġcompr ise
Ġdelin quency
Ġdecid ed
W E
Ġemploy ers
ĠFerrell gas
P I
S ecurity
ob s
Ġclass ify
IT S
re fund
ĠG re
Ġrecomm ended
ĠS ix
Ġp lease
Ġmol ec
Ġfulfill ment
Ġend point
Ġaw areness
ĠR MB
instru ments
medi ately
vent h
Ġfield s
ĠI ssue
ĠD S
reg on
ĠBo e
ĠB B
ĠJose ph
Ġcho ice
Ġdr y
ĠV enezuel
ĠComp onents
Ġaltern ate
Ġdeliver able
OR D
ĠREFER ENCE
Al though
z e
ĠFr anch
do or
ĠDis position
Ġsu gg
reg arding
Ġocc asion
re view
in ity
L ease
ĠL AB
Ġrec apital
ĠReg arding
atis f
Ġapplic ant
Ġsure ty
ann ually
ĠRe organization
f idential
ĠCollabor ation
Ġviol ated
err y
ĠFAC TORS
ĠC ross
us ive
ĠFin ally
Ġdeplo yment
ĠSt ation
ĠBEN EFIC
Ġcontrib uting
ste in
A g
Ġcr isis
con suming
Ġremed ial
Ġend s
Ġmach inery
ĠT V
t wo
ĠApp reciation
ĠSuper ior
ĠElect ronic
oli o
D a
Ġaccept ing
lic k
ĠMax imum
Ġunder ground
def ault
u an
s d
ĠR A
Ġrig s
ĠAss ess
ĠWork ing
Ġm entioned
ĠM AY
Ġren ov
Ġrestruct ured
th ree
ĠAT M
Ġinst ability
ism ic
ĠPost retirement
ĠIdentif ication
t ario
period s
Ġmer ge
Ġbarrel s
Ġre vision
Ġg ift
Ġperm issible
Ġprejud ice
ompan ied
Ġpl aces
ĠO CI
Ġo re
Ġqual ifies
Ġrental s
Ġabs ent
Ġar chitect
f ederal
A ud
Ġfocus es
R ef
ip s
oph istic
ĠPROCE D
w arrant
ĠL as
Ġc ut
ĠE valuation
Ġp ace
Ġpro ven
ap ers
pro ject
ĠLog istics
ĠMin eral
P O
t echnology
ine es
ĠL yn
C ode
Ġware h
Ġinst ance
d emand
is ons
Ġfull est
Ġpark ing
Ġdistin ct
Ġour selves
Ġind ices
for fe
ĠP CA
Ġmanag erial
Ġout put
Ġtax ed
M ich
Ġtyp ical
S pec
ĠSe gments
ur ies
ĠWorld wide
ĠSh aring
ĠAr m
ĠSw itzerland
Ġacc umul
Ġidenti ty
ĠPe ople
Ġsu its
Ġag gressive
yn e
Ġreinsure rs
ĠC all
ĠSw ap
ex change
Ġ iron
it a
ĠU sed
ĠPRESENT ATION
Ġdam aged
ĠMer ck
Ġbill ings
Ġe vol
Ġpred ominant
ĠPay able
Ġscr utin
ĠSupp lier
S eries
Ġadjust able
ĠR IGH
li fe
Ġen abling
Ġsour cing
Ġsever ally
AR N
ĠCORPOR ATE
ĠC REDIT
Ġsp e
ord ers
vest ing
op s
ĠDom inion
Per formance
ari os
ĠDU KE
ĠCommod ity
ol vent
cl ing
ĠT C
Ġcoup led
Ġcre ates
ateg ory
Pr ior
port f
Ġcap s
Ġper ception
Ġlo ok
coll ateral
Ġnegoti ation
Serv ice
Ġdecre e
ĠI owa
Ġeng ines
Ġs ophistic
Ġexper t
ffic ers
here in
Ġbu ying
ĠDISCLOSU RE
eder ally
RS T
an tif
m art
Ġord ered
ĠM ad
ĠĠĠĠĠĠĠĠĠĠĠĠĠĠĠĠĠĠĠĠĠĠĠĠĠĠĠĠĠĠĠĠ Ġ
stock holders
Ġdi version
Ġle v
Ġapp arel
ĠMat ching
ĠPlace ment
or rect
eem able
pro f
ing e
ĠComm ittees
equival ent
Ġlicense e
ĠSp ain
ĠAssign ee
ĠPl ains
gener ation
fact ors
Ġpar am
Ar tic
Ġn ationally
ĠFE ES
Ġgas oline
ick back
ĠSuccess or
Ġen cumbr
Gu arant
ĠAMEND ED
Ġsim ulation
as sumptions
Ġforward s
the ast
ce an
Ġsub license
** ]
G roup
Ġcance led
Ġregistr ations
Ġm ass
Ġde ep
Ġo missions
pro vision
Ġw inding
SI VE
Ġst opp
ĠUn til
Ġexp ands
p tive
L D
ĠGuarant eed
Borrow er
ĠPurch asers
is lation
Ġpred ic
Ġph antom
ĠDan iel
Ġdisc ourage
Ġretain s
Ġheav y
Ġdepart ments
pay able
Ġsm art
im pro
b ook
Comm ercial
ĠFound ation
Ġfavor ably
ĠJ urisdiction
ĠAnge les
ĠC overage
Ġun iform
Ġunf oreseen
Ġf ashion
ĠPled ge
ol ation
ĠBAN CORP
Emplo yment
u ous
M ay
Ġinv oice
ĠP RE
ĠJ ones
velo per
ĠPh arma
Ġdecre asing
ĠIn puts
tiliz er
ist ance
om et
b a
follow s
arr i
Ġoutsour cing
ĠAc tivity
ĠDebt or
c ology
ĠT N
ĠAff iliated
Ġhe ating
ĠH un
ĠCon sideration
Ġh azard
U TIC
ĠUn secured
Part y
ĠHel d
he ast
ĠPART Y
inan ced
ĠS ignature
Ġun us
b les
i j
Ġar ises
Ġsit uated
ĠV ested
ĠT or
cul ated
Ġres et
ab ove
Ġro ad
ĠV SOE
Ġst em
it ments
ĠPh arm
ĠExp iration
ĠInt angibles
habilit ation
ĠK en
or ing
ĠP JM
ĠCER TIFIC
ĠDIREC TOR
ĠCh annel
or um
ĠSUPPLEMENT ARY
Ġfeas ibility
ĠC ivil
ul a
Ġexperi encing
Joh n
A TING
Ġserv icer
ĠSUBSIDIAR Y
Ġdeple tion
ĠPrior ity
ili an
Ġ() ,
p ocket
ĠA RS
Ġconsult ation
Ġmac ro
ĠPROCED URES
Ġe igh
ĠA U
Ġ- --------
Ġbl ank
ĠM obile
ĠArbit ration
Inc re
Ġsur gical
A ugust
Ġli ve
b al
m ail
ĠO regon
ro zen
ĠCont rolled
Ġconsider able
ĠBE EN
ĠProm issory
Ġindic ator
Ġliquid ate
AN TI
Ġacc ompanied
ĠCoven ants
it er
Ġex tr
Ġc ount
ĠDe uts
ĠW H
ĠT elec
Ġimm un
Ġun ions
ĠPh ys
c oun
ĠSt orage
ĠInstit ution
C urrent
Ġdeli vers
NE Y
it ored
ĠWire less
Ġor phan
Ġcomp are
Sub sidiaries
Ġat tainment
ak ota
b ury
Ġbi ological
ĠIs land
ex ercise
emor an
ĠC amp
ĠS AF
Ġal uminum
Risk s
ĠO RE
Ġbr ief
equi pment
D ocu
ĠFranc isco
ĠMer ch
ĠC T
le ases
x sd
Ġle ader
Ġre statement
ĠVe gas
/ (
exerc ised
Ġalle ges
Ġapp eals
Ġim aging
K R
athe red
OS S
Ġm al
ĠConting ent
ĠCOMM IT
ĠC el
ĠB est
b oth
lic al
Ġdr ill
Ġab use
He alth
ĠCol lege
Ġconcess ions
CON TINUED
ĠEx ploration
t ake
m ake
ink ing
Ch ange
Ġcatastrop he
ĠAs sumption
Ġamortiz e
PA A
Ġtermin als
St ates
st ore
fore ign
Ġunderwrit ten
S um
Ġthem selves
W C
OL VED
ver ted
ĠCommon wealth
ĠStep hen
Ġh tt
ĠI PL
emoran dum
Ġste ad
an cies
Ġmultip les
ĠIncre ased
Ġcas ino
m ond
Ġdes pite
yd ro
Ġclaim ing
t ah
Ġestim able
os ci
G ross
Ġpro long
G A
Ġb ox
ro y
Ġoptim ize
Ġwe aken
Ġsit uation
Cons ent
Ġcomplete ly
IN C
Ġsuff ered
Ġclean up
t w
ang hai
al k
Ġpre clude
Ġobtain s
ut h
Ġn arrow
ĠC AR
Ġdatab ase
Ġvari ables
ĠDesign ation
ATIONS HIP
ĠLux embourg
Ġdisc rete
Ġb ott
rece iv
Ġfind ings
otherap y
ĠJ O
J uly
k in
Ġexpression s
ĠSEL ECTED
con struction
Ġvulner able
ĠS EP
oph armaceutical
ĠGr aph
Ġdis aster
ĠS y
Ġtruck s
Ġtr ain
Ġflex ible
ĠMex ican
N R
Ġlever aged
ist a
ĠAt lanta
at ric
ff er
ĠBlack stone
ĠBENEFIC IAL
inc urred
Ac quisition
ad vantage
oles cence
Ġpro sec
ĠP I
ĠAr gent
Ġpatent ed
Ġovers ee
s cale
Ġtre ating
Is su
ĠDe pending
urric anes
Ġun earned
................................ ................................
Ġel ections
C orp
Ġc ured
Ġmechan ical
Ġscen arios
Ġpred icted
c orporate
Ġoccup ied
Ġtariff s
Ġf inite
ĠRec ord
oun der
ĠOEM s
ĠI M
Ġful f
ĠDef ense
Ġinc orrect
Ġ u
G MP
i ang
Ġp ress
Ġ) ;
writ ten
Ġreclass ifications
Ġprodu ces
w eek
ĠSci entific
Ġnomin ee
F L
Ġcom ments
Di vidend
Ġpolicy holders
Ġadverti se
Ġenhance ment
l abel
Ġnew s
ex vw
Ġcertif ies
ĠĠĠĠĠĠĠĠĠĠĠĠĠĠĠĠ ĠĠĠĠĠĠĠĠĠ
Ġf ault
ific ance
ĠAB OUT
Ġre v
or ge
F iled
ĠPROCEED INGS
ĠDe loitte
Ġv en
ĠEx penditures
vo ke
con sid
Ġcap ture
d el
AF F
ĠY our
tin ent
O ption
Ġconf ig
Ġdeduct ed
se gment
ab s
Addition ally
ĠP E
Ġ er
Ġunpredict able
Ġh ired
P ower
ici ans
Ġmon itored
Ġbrok ered
app ed
ĠWilliam s
Ġnot hing
C oll
Ġresid ents
ret urn
Ġun restricted
Ġemphas is
Ġref usal
ĠC able
Ġscrutin y
Ġmineral s
Ġem ail
Ġread y
ĠM erc
Ġ- ),
Ġse ismic
ĠR ates
and ing
Ġpres um
li ef
ĠP an
A W
refund able
Ġcustom ized
d ens
Ġst ating
ĠSCHED ULES
viron ment
ĠB udget
Ġthe r
Ġto ol
ĠISSU ER
uti liz
In t
Ġac ute
App ro
Ġinfring ing
Ġf ast
Inte grated
In ternational
Ġdepre ci
ĠREL ATIONSHIP
c ers
ĠT ower
ĠAt lantic
ĠM illion
Ġs ulf
low er
ĠW M
ĠExp ansion
Ġnon recurring
V IE
e li
Ġcond ensed
aw n
comp ete
m oney
recogn ition
Ġsum s
pr om
de alers
Ġopp osed
m anufacturing
Ġill ust
ĠRe quest
ĠPor tions
ĠIncre ase
Ġtrig ger
Da vid
Ġmo ving
Ġacc re
pl ans
Ġa im
e ligible
Ġhe irs
Ġmail ed
im ination
ĠSTOCKHOLD ERS
Ġprotect ing
ĠB er
Ġpers u
Ġn utr
el ine
Ġhtt p
Ġmach ines
Ġt ail
Ġaddress ing
Ġg rew
ag ers
Ġal liances
own er
ecuritiz ation
az a
ĠN M
ad emic
Ġlo t
ot o
ĠDepos its
Ġadverti sers
Ġcondition al
a vailability
Ġp ul
Ġde ad
Ġreplace ments
Rec ent
en ger
ĠTr ial
Ġbre ached
end or
Ġoption al
Ġexcess ive
Ġout lined
ĠPled ged
ĠW ill
Ġdiff ers
Ġstruct ural
SU R
Ġh on
Ġnom inal
Ġb io
Ch ina
am ond
ĠBe ach
ĠPROPER TY
ĠMar ine
Ġinstit uted
ĠInter im
ĠD allas
ĠPRO V
Ġres ident
Ġmiti gation
comp etitive
el ected
ĠEx cluded
ĠJap anese
portf olio
ur able
ĠProcess ing
ĠSever al
ak ers
lain t
Ġparam eters
ati lity
Ġsurren dered
Ġs cal
Ġcatast rophic
Ġ$( .)
Ġund ue
ĠCO BRA
Ġsufficient ly
Ġannounce ment
Ġf ederally
pro portion
ĠB N
Ġuncondition ally
oss ible
gre en
Ġtum or
ĠĠĠĠĠĠĠĠĠĠĠĠĠĠĠĠ ĠčĊ
Ġpros ecution
Ġm ess
ĠH V
ĠT echnical
ĠMod el
Ġcall ing
ĠD akota
id ing
ĠIN S
Ġenfor cing
ĠH en
ur s
Ġattract ing
ĠS L
Ass ets
Ġcomprom ise
om s
ĠDe aler
ĠPrice waterhouseCoopers
Ġn avig
tr uction
Ġorig inations
uc tible
ox ide
Ġn ursing
ĠDe ath
Ġdisb ursements
E ar
ligh ts
Ġcondition ed
ĠI F
ĠD etermin
ens ors
tim ate
sum ed
Ġt ied
ag ainst
Ġf ill
ĠLe asing
R ock
ĠR ay
Ġparticip ated
ĠRe imbursement
US TR
Ġentit lement
ĠCl ub
ĠNov artis
Ġundert aking
x x
Ġtarget ing
Ġex emptions
ĠTou che
G e
ĠU tah
ĠD O
Ġcompar isons
l der
Ġholid ay
Ġaccru es
Ġextend s
Ġthe ft
Ġpreced ent
ĠIn ves
Ġprote in
lic it
Ġwr ong
Ġabandon ment
Ġdistr ict
h u
Ġboard s
ĠF U
Ġexper ts
Ġstrengthe n
elect ric
k ins
ĠN ex
cont rolled
M AN
Ġfocus ing
comp ass
ub t
ĠK U
Ġdi visions
ĠL ist
ĠSt ores
Ġcircum stance
ĠACCOUNT ANTS
Ġinquir ies
Ġag ing
p en
ĠPro du
or ig
Ġrep ric
Ġqu antif
ĠAT TOR
ot ors
ĠComp etitive
ĠMonth ly
ĠH AS
b efore
Ġmid dle
ĠP ol
ĠOut side
industr y
Pre ferred
p res
ĠPr ices
ĠB rown
ac o
ĠCon sum
ĠGuarant ees
Ġprevent ing
Ġsign ificance
Ġarr ay
. ()
ĠTrans fers
Ġen ough
IT TED
YS TEM
t able
ĠM otor
Ġfif th
Ġrol es
ĠLe verage
Ġ, .
our s
Ġthere from
pl it
S ignificant
i os
Ġlight ing
ĠT SR
ĠTr avel
US A
Ġe p
le vant
etit ors
Ġden omin
Ġb ills
P s
av y
ĠORE O
Ġun changed
T ech
ĠB en
Ġsupersed es
ĠPr icing
j ection
are t
pr ac
Ġ ________________________________
ul atory
Ġins ignificant
Qu ick
ĠCAL C
Ġprolong ed
Ġaudit ing
EP Co
Ġdisc overed
Acc ounts
ti ll
Ġprint ing
Ġnon current
trib utable
L I
ĠH S
M E
le ts
Ġa partment
Ġobs olescence
Ġt ick
in f
exp ect
Ġexp lan
Ġs outh
ID A
Ġinves ti
Ġch ildren
Ġpost age
ĠLP SC
Ġpro of
ĠBEN EF
Ġ ke
ĠH ouse
M in
Ġindic ating
Ġtr anche
olic itation
ad el
Ġconfirm ing
ĠW yn
Ġhe at
ĠMIS O
o vers
S c
Ġenh ancing
Ġdisch arged
att le
d ication
g a
ĠBro ker
Ġdep th
h an
Ġfall s
ĠBro ok
ĠT reatment
Ġcorro bor
Ġdoub le
ĠRec lass
Ġd ynam
Ġre voke
ĠRELATIONSHIP S
ur sed
ĠL arge
Ġforec losed
main tain
ĠAd opted
b acco
g un
Ġdown grade
LL C
ur a
ĠA vailability
us tice
AGREE MENTS
ĠCon cer
Ġill ness
ĠĠĠĠĠĠĠĠĠĠĠĠĠĠĠĠ ĠĠĠĠĠĠĠĠĠĠĠ
Ġtrack ing
Ġto ler
ĠM oney
ĠS quare
Ġtit led
Ġdown gr
at on
ĠI G
Ġsupport s
eri ally
ĠSh ale
Ġar m
ĠGuid elines
under ing
OUR CES
OR T
ĠGS K
ens uring
cer y
ON G
ĠEquival ent
ĠS S
ĠCALC ULATION
Ġab road
Americ an
W A
ĠAc ceptance
ec k
K ey
Un audited
re ctions
umb ent
arri ott
Ġdeplo y
. ),
dividend s
ĠIN ST
ĠWith holding
Ġrep e
ĠBanc shares
ĠP H
ĠEx elon
v ince
Ġrecommend ation
eal and
U se
Ġj ust
Ġstr ike
ina fter
Ġclear ly
Ġlo yalty
ĠMill er
ĠT ARP
ĠSC HE
Ġentit le
Ġmo ved
ĠYEAR S
ĠU l
T M
ĠRest aur
ĠCond ensed
erv ation
ĠOn tario
ĠIndemn ity
ĠPURCHAS ES
aff ected
ĠSci ences
ĠT yp
Ġprotoc ol
oss il
ĠP AY
Ġ ____
ĠC op
Ġh arbor
Ġrestructuring s
Ġless or
Ġdef enses
Ġst ored
S ign
ĠStat us
ĠS che
Ġsimult aneously
ĠCh arge
Ġplace bo
un it
Ġlo oking
un certain
ĠSt ore
Ġun available
il ly
comp letion
in ted
ĠD own
Ġim age
Ġthreat s
r ich
Ġe lev
ĠAff ordable
Ġre ject
OU S
ĠHI PAA
Ġs tim
Ġdes ires
ĠF ree
l amation
an der
Ġmove ment
Ġro und
me ans
ed e
ĠH ousing
ĠDEFINI TION
ĠS AB
cum bered
st age
Re venues
Ġ,, ,
Ġcon sequently
Ġdeal ing
su pport
Ġflu id
lo s
ĠATTOR NEY
Aud it
Ġfranch ises
ĠEX P
m en
Ġout flows
IT ATIVE
Ġresell ers
Ġcontract ing
ĠEmplo yers
ĠAM ERIC
Orig inator
in dependent
ĠS R
ĠDIS AGREEMENTS
the less
tr on
ĠE Q
Ġelimin ates
C ar
a ut
VE L
ĠN ormal
In ter
ĠASSE TS
pr ime
C ol
here inafter
Ġexchange able
ĠH u
SC HED
Ġdivers ity
Ġroutine ly
eren ti
Ġind entures
N e
k ind
ĠS oci
ĠZ ealand
HEN SIVE
Ġtim ber
Ġsubs criber
Ġtrig gered
TA TIVE
ĠPr ud
C lass
Ġimm une
den ominated
control s
D O
Can ada
Ġsur vey
Ġheadqu artered
Che ck
Ġf resh
ĠThe r
ĠLAB EL
ren ew
Link s
i en
ĠK em
ĠN ET
ANTI TATIVE
En vironmental
Ġco des
N orth
Ġal most
ĠR F
ĠW arranties
or ated
ĠContin uing
ĠS O
id el
SEC UR
Ġenc our
pro perties
Ġconsum ing
ĠCoun try
ĠCF PB
Le gal
Ġact ed
Ġimp l
ĠCONTROL S
T exas
ays ia
ĠSCHE MA
Ġcon clude
ĠR C
RES OLVED
Ġch ronic
ĠINST ANCE
pre m
F ac
ĠT ype
ĠM MB
ĠO x
Ġconsequ ence
Fr om
reason ably
Ġtrigg ering
IS E
Ġph one
ĠBraz ilian
Ġout ages
ache lor
Ġelimin ating
res idential
Ġc GMP
in cludes
Ġ ensuring
ĠG SE
Ġbudg ets
ĠE st
ĠCas ualty
Ġpredominant ly
Ġt ight
a o
aren cy
ul ate
ĠTAX ES
Ġaccredit ed
on ent
Ġqu orum
ĠE qu
Ġ ________
Ġtrans mit
Ġconcess ion
Ġparagraph s
ĠQUAL ITATIVE
Ġdele gate
Ġcare er
Ġf aster
be ing
RE AT
ĠN STAR
own ership
Ġhe art
ĠH ills
Ġac ademic
class ified
forward s
ĠRe alized
ĠIncre mental
N O
acc ompanying
Ġw inter
ĠPay ing
Ġsophistic ated
Ġpharm acy
ĠLO AN
Des cription
Ġto bacco
ĠRepresent ations
a ven
ĠComp letion
ens urate
ĠPRO D
r ations
ĠRe investment
Ġsur gery
ĠImprove ment
is her
h ou
ĠOP Co
ĠPro prietary
ĠDefin ition
ĠGOVERN ANCE
ĠRuss ia
Ġc rop
Over view
ex hibit
ĠR ULE
Ġidentif ies
ĠT ABLE
ĠH igher
ĠT ur
qui res
Ġanalyz ed
Ġcyc lical
Ġred emptions
i ous
Ġdes truction
Ġschool s
l ar
ĠMid west
ĠFarm er
Ġthrough put
Ġen rolled
ĠOn ly
ĠĠĠĠĠĠĠĠĠĠĠĠĠĠĠĠ ĠĠĠĠĠĠĠĠĠĠĠĠĠ
Qual ified
Emplo yees
Ġprot ections
Ġsafe gu
el s
ĠDel ta
Ġappoint s
Ġassoci ations
ĠP eter
Oper ations
report ed
ĠE C
ĠV III
Ġhy brid
pro t
ĠAnn uity
me tic
Ġdivestit ures
ĠVehic le
Ġpharm ac
ĠColl ection
ĠCell ular
t le
O b
g rowth
ĠMon te
ĠB L
ĠT op
Ġdownturn s
ĠRec ently
Ġdec on
. '
f inancing
ubt ful
r ift
Ġn orth
Ġnon vested
Ġsolic itation
ĠTDR s
ĠF F
Ġpay ers
Reg istration
Ġdelin quencies
c all
Ġthe at
Ġ illi
Ġpersu asive
ĠSpr ing
AN A
S ince
ĠSIG N
am ended
Ġa f
ec a
Ġmod ules
RE HENSIVE
ug las
oper ated
ĠN RG
Ġlaw fully
Ġstatis tical
Ġaccommod ate
Ġref ining
m ajor
carr ying
Ġincur s
verti cal
ĠDefin itive
Ġhour ly
Ġrecru iting
M ar
enti ty
Ġdescrib e
ĠF PL
X BRL
ĠCOMP REHENSIVE
ĠEn force
ic tion
Ġcopy rights
Ġfeed stock
ĠR S
ĠSt age
ĠSCHED ULE
he alth
ĠOpport unity
ĠMod ification
ĠA CE
ĠS J
ĠC RA
ĠM GE
ap ol
ĠA lex
u k
G H
ĠF e
in fr
parti cular
h ad
ĠW PL
IC A
ĠOper ation
ess ation
ĠIncre ases
Ġun likely
ĠC lo
Ġprodu cer
op les
Ġsim ple
Ġwe lf
Ġwelf are
F iscal
Ġcollect ing
ĠAl ber
ĠD am
Ġrepl acing
Ġalloc ating
ĠST AFF
A ff
G M
U s
sub sidiary
Ġrep ut
r om
ĠLabor atories
ĠD ES
R obert
ĠCV R
Ġregul ator
ĠAppro ved
Ġnon performance
ĠAp ollo
a per
ĠLeg acy
ĠB C
ĠOper ator
arb ons
comp leted
ĠA V
c overed
Ġadap t
Ġseason ality
ĠD on
Ġg ases
ĠG ar
il ot
ĠInfr astructure
M e
ecti bility
ĠInvest ing
g ates
ĠH C
Ġmod erate
ĠAd d
ĠInte l
ĠMSR s
Ġc ast
Ġv s
Ġh orizon
ĠĠĠĠĠĠĠĠĠĠĠĠĠĠĠĠĠĠĠĠĠĠĠĠĠĠĠĠĠĠĠĠ ĠĠ
ĠVis a
Ġbarr iers
end ants
Ġconsolid ating
ĠC hen
ĠSw iss
di ffic
ded uctible
st s
ĠH ow
Ad ministrative
pr ices
ĠLease hold
R O
g s
Ġinvest ee
Ġcomp ression
ĠHed ge
ĠRe placement
Ġgener ates
top ic
ĠBr and
Ins urance
Ġcir cuit
Ġf rozen
Ġanticip ation
Ġwithdraw n
mat erially
Ġadministr ators
ĠGrant s
st ead
sh aring
ĠPerson nel
e vent
Mich ael
Ġrecapital ization
Ġground water
Ġshortf all
et ter
an ium
g ium
ĠH urricane
ĠAnn ex
Ġs ports
R et
us er
Ġbe gun
Ġent r
Ġconfirm ation
Ġdiscount ing
Quick Links
L im
ĠUn realized
SCHED ULE
ĠPrim ary
Ġob ject
ĠSp ouse
ĠS AL
ĠM y
Ġanaly tics
m ortgage
Ġmach ine
ĠS us
Ġremedi ate
Ġsu fficiency
v ance
Ġcomp osite
Ġbre ad
ren ch
Ġfoot print
ĠR ob
Ġinter val
mall er
ĠRES T
Ġ ****
C ustom
Ġco upon
Ġaccomp lish
Ġcertif ications
ĠD ie
fe es
back s
ĠAs sumptions
S ystem
Ġgeograph ical
Ġmotiv ate
ĠRES OURCES
ĠRed eemable
sub stantially
ĠPl aza
ĠExp osure
rop olitan
Ass et
Ġcentral ized
Ġincorpor ating
ĠPlaintiff s
ĠSW EPCo
ĠGEN ERAL
Ġmet ropolitan
Ġeng ages
Y es
ĠF urn
Ġend orse
ĠC itizens
Ġt urb
un eration
ĠJ ustice
aci fic
Ġ vertical
Ġpro vin
Ġfer tilizer
C LA
Ġcomm ensurate
ĠVari ous
Ġdenomin ator
Ġw ood
ĠD NA
Ġregul ates
ĠK el
ĠRegistr able
Ġconstit uted
ĠMortg aged
ĠS D
ĠM ED
ourn al
ĠS YSTEM
Ġins er
ĠCas ino
Ġdisc laim
W illiam
z yme
st ated
ĠB ill
Ġa z
ĠAc tive
she et
f ort
d ays
ous and
Ġtechniqu e
Ġpass age
tr ad
ĠT E
law ful
ĠGerm an
w estern
Ġ(.% )
Ġadvis er
olog ics
onc iliation
Ġpubl ish
AM E
Ġs amples
Ġo lder
Ġch osen
loc ations
ip t
Ġsumm er
W H
ĠCOM MENTS
Ġcompar ability
Cal ifornia
Wh ile
gu id
ĠRe lief
ĠLim itation
Ġne ur
Ġrepric ing
Ġdis advantage
AC K
ĠForm s
co h
ĠEM EA
alle l
ĠSH ALL
af ts
Ġd omic
Ġb orne
us tif
ul in
err als
ĠA IG
ch o
M ANAGEMENT
Ġun delivered
ĠAnd rew
Ġced ed
Ġdi oxide
ĠAss urance
out s
ph ia
ivid ed
ĠDeuts che
Ġnom ination
Ġinf lows
ĠV ill
t u
ĠS imp
govern ment
on ing
Ġanalyz ing
ah n
F uture
ĠW aste
Ġmul tifamily
id th
ĠVAL UE
ĠAl location
Ġref in
Ġwaste water
ĠPled gor
verse ly
credit or
e goti
ĠReg ister
Ġmet ers
Ġinvalid ity
P urch
per centage
Ġfranch is
Ġcommercial izing
Ġb and
ĠCommod ities
ĠImp act
ĠDOCU MENTS
Ġr ider
Ġnetwork ing
P acific
ĠAd option
ĠApp le
o tions
Ġcheck s
Ġsub mits
ĠWe ighted
Ġa p
Ġcult ure
ĠSt art
- ..
ĠUS D
ĠAmb ac
Ġfabric ation
k en
Ġproduc tive
) /
SO CI
ment ed
Ġac id
ĠBoe ing
ur ities
ĠH arbor
ĠINDEPEND ENCE
Ġpun itive
Ġdisc r
Not withstanding
ĠAr ch
Ġlo ts
Ġn itrogen
at ur
ĠMont ana
OK ING
G as
ĠIND USTR
ĠL ock
X X
Ġtank s
ĠS N
eriv atives
U K
ĠE ARN
Ġauthor izing
ind ividual
vari ous
rem aining
ĠMe asures
ĠS V
oin der
Ġw omen
ĠTh ousands
Ġmat ured
Ġmis cellaneous
E ur
ad ministrative
ili pp
ĠJeff rey
Ġdistrib utes
Ġvir uses
Ġsu ite
S tr
Ġrem it
bu ild
issu ance
Ġpoll ut
ĠStud y
Ġg ame
Ġdeal ership
ab et
par ate
Ġnon compliance
ĠR y
ĠA UM
grant ed
ĠL ot
Ġbi om
s ecurity
ĠEx cise
ES A
Ġmisappropri ation
ĠResp onse
T ermination
o fficers
ĠY ORK
P at
Ġless ees
ĠPL C
)( ),
Ġmost ly
Ġprior itiz
Ġop tical
e valuation
Ġvalid ly
er ver
Ġhistor ic
p ot
per cent
ĠH P
ĠM err
ĠN ON
ĠO S
am i
f ixed
ĠC in
ĠM O
ĠC ategory
Ġstream s
ĠIn nov
ĠDevelop ments
ĠArgent ina
OG IES
HAR MA
Ġun issued
Ġa erospace
Ġstrengthe ning
ĠC riteria
Ġmand ated
ĠW ay
erm an
Ġres olutions
ĠT S
Ġretroactive ly
ĠL ower
ĠCertif ied
anufacture rs
ĠPS NH
Ġaccount ant
Ġtransp arency
ĠAl aska
f avorable
ĠNorth west
Ġch art
G EN
tr ial
Certif icate
ĠKem per
Ġlabor atories
k y
ĠS anta
Ġbur dens
ĠMicro soft
ĠN AV
am b
Ġinc idents
ig er
Ġ |
ĠS ol
oc o
B ack
ĠOcc up
Ġvi able
U TION
Ġprohib ition
Ġsign al
ĠHA VE
ENS ED
Ġallow able
Ġpenet ration
Ġtransfer able
top her
eriz on
ĠB DC
PL IC
ĠY ield
share holders
Artic le
Ġre ward
f ailure
ti veness
Ġadvantage ous
ĠPCA OB
ti er
Ġapproxim ated
Ġres ort
Ġserv iced
ĠA A
etermin ed
Ġa way
Ġm em
Ġmagn itude
Ġcur ves
D istrib
ĠC re
Ġfail ing
ĠĠĠĠĠĠĠĠĠĠĠĠĠĠĠĠĠĠĠĠĠĠĠĠĠĠĠĠĠĠĠĠ ĠĠĠĠĠĠĠĠĠ
Ġoptim ization
for th
Ġtemper ature
ĠS ource
s imilar
and om
Ġhelp s
Ġgr id
Ac celerated
h istor
imp lement
ĠR emed
ĠAt tention
os is
ĠW rit
Ġv ision
ĠM arriott
ty p
ĠL akes
Ġnom inees
ex perience
Ġste am
rec over
Ġun billed
p ost
Ġadjust ing
ĠD un
Ġsubs criptions
ĠM and
Ġvari ance
ĠLA W
P AR
Ġsign s
ĠW at
n eed
Ġ. *
risk s
ĠLA E
Ġun allocated
Serv ices
system s
Ġm ill
P ar
P erson
I t
s c
Ġanaly tical
Addition al
adel phia
W P
Ġcorrobor ated
Ġstandard ized
Ġtal ent
REAT MENT
Ġview s
Ġaggre gating
Ġlife time
ass urance
Ġf ine
a ver
a ul
ĠW ARR
Ġph ases
ĠSem iconductor
ĠS ab
Ġappro ves
Ġdistrib utable
ĠSuper vision
ĠW ES
Ġren egoti
Ġknow ingly
ĠF ron
Ġunith older
ĠREST ATED
c ars
ĠM F
Ġh urricanes
ĠG ene
Ġbread th
ĠM C
Ġdr iver
Ġappeal ed
ard en
dr iven
ext ent
Ġturn over
Ġt ub
d ocu
ĠM V
Ġc essation
Ġbi opharmaceutical
Ġsw it
I VER
St andard
al yst
ĠDi agnos
Ġinj uries
ĠF ull
Ġreti ree
Ġunus ual
IC H
ĠSw ed
Ġweek ly
Reg ulation
Ġdispl ays
Ġfluct uation
ĠH olly
ĠS am
Ġfeas ible
Ġescal ation
tit ute
ĠLyn ch
ĠM ur
ĠG reg
Ġh ands
De bt
Ġas cribed
Ġcon c
ĠEARN INGS
Ġincl usive
Ġextreme ly
Ġintrodu ctions
ok ed
U DC
ĠL ines
imp aired
Ġle ft
Ġretain er
Ġequ ities
ĠIn termedi
Ġce iling
Ġsecuritiz ations
d ale
ĠS ter
ub ic
ient ed
ost er
F urther
Ġparticip ates
ating s
ĠEmerg ing
result ing
assess ment
Des igned
ĠFI LED
Ġcoun ties
w in
ĠLimit ations
ach ute
Ġrecip ients
m ington
ins on
ĠF ed
Ġt ask
amil ies
che mical
ĠP M
Ġrestric ting
Ġimport ance
con sumer
irm ation
ĠSil ver
ĠAS SOCI
ĠP O
ment ation
Ġevent ual
ENT S
sub stantial
Ġrec lamation
ĠTe am
ĠD em
Ex hibits
are st
Ġin active
ach ing
Ġroom s
Ġdr aft
stat utory
ĠR idge
u it
ĠSout heast
provid es
OR R
ĠSouth west
d erivative
c losing
ati ents
du it
Ġassign ments
Ġcomput ers
ĠOp en
ĠLo cation
Ġro b
Sub sidiary
Re tirement
set ting
ĠF utures
Ġcampaign s
ĠForm er
ĠM i
Ġbur den
ĠPrud ential
Ġcounter part
Ġadminister ing
ĠQU ANTITATIVE
Ġdisch arges
tax es
ĠSk y
l on
ĠNor theast
ĠD ated
Ġd rop
no tice
Ġb ed
Ġalleged ly
Ġhe ight
Ġinter change
in sure
m is
ĠDis posal
T T
Ġcaption ed
Ġrecy cling
ĠCh ile
ĠP ot
Ġrepatri ation
c lear
ĠTrans ferred
ĠIssu es
l arge
Ġunf air
Ġc ru
Ġann uities
ĠRec ords
ty pe
et ings
ĠM etro
- )
Ġo ld
ĠBr ad
Invest ments
Ġc orn
Ġcat alog
c li
Ġcont ents
Ġtake over
p ension
ores aid
Ġdesign ee
ĠFR OM
L ic
Ġpack ages
Ġp oor
wh ole
ens ity
ĠPe oples
E V
ON D
ĠH art
th ousands
Ġdeducti bles
ĠG U
Ġprom ises
sec ond
ĠN ATIONAL
es ign
Ġge ological
idel ity
Ġtermin ations
Ġsub ordinate
Ġcommun icate
ĠP HI
Cr itical
f urther
Ġdil ute
he im
ĠG al
en eca
Supp lement
In f
ĠAbb ott
Ġmedic ine
A gent
SUR ANCE
Ġplas tic
ĠT X
ha ust
Ġinter conn
Ġen compass
Ġformul ations
ĠN I
ĠAsso ciated
Ġback ground
Ġprohibit ing
ĠDisc overy
str a
Ġrece pt
ĠA RE
ĠComp uter
Ġj ustif
ĠS EG
as ic
Ġspeed s
Ġmerch ants
ĠR oche
ĠP MA
Ġinte l
ac cept
Ġview ed
Ġvers ions
ĠL ee
ĠFranch ise
ĠNon controlling
ĠN ature
Ġb und
Ġclo s
C ap
ĠHotel s
ĠD ire
G rant
act ual
Ġtit les
Ġun lawful
ĠR ange
ĠGe orge
Ġcon currently
Ġrec alls
r ata
H old
Ġpre cise
Ġl aser
Ġmo tions
d ollar
Ġasser ting
Ġprotoc ols
Ġmultip lying
ĠComp laint
li quid
P urchase
er on
con sideration
ĠRel ating
ĠOff shore
ĠM ach
Ġaccess ible
ul ings
ĠFor fe
li en
ĠS afe
polic ies
ĠPro posed
Ġdr iving
Ġshow ing
ec e
Ġparticip ations
Ġ[ **]
ĠM it
ĠMortgage e
Ġinter ference
Ġreach ing
Ġrede velopment
ĠK KR
Ġam b
app ing
Ġhouse hold
inan ces
ĠDie go
ĠW orth
Ġm ixed
ĠTECHNOL OGIES
D r
Ġvirt ual
Ġp ipe
Ġmacro economic
Ġbelief s
ĠOver all
f il
Ġaff ord
present ed
Ġvot ed
ĠV erizon
um er
Ġre poss
ĠAssign or
atic ally
ĠEN TER
ĠL ow
od es
In cludes
pl ant
Ġm ines
Ġin effectiveness
Ġsecuritiz ed
sett led
Ġlength y
Ġinvest s
ĠLeg islation
ĠREAL TY
ĠEmerg ency
Ġbatter y
ĠUn iform
forfe itable
Ġf ar
ĠM P
Ġp le
o fficer
Ġbu ffer
Ġsk in
Ġrent able
Ġinf l
Americ a
Ġreput ational
Ġan sw
ĠU r
Ġappra ised
Ġl ag
Ġsub p
ĠMan aged
AL TH
d ated
re ferred
ĠIn sp
ĠEL EC
ĠUN RESOLVED
Ġaf oresaid
Ġrem itted
end um
ĠT REATMENT
in vent
Ġnegoti ating
Ġexplo re
ĠA ctions
Ġrestruct ure
ten tions
Ġme zzanine
Ġemerg ence
Ġdepend ence
ĠCiti group
h igher
AS ED
ĠSever ability
Ġvacc ine
W arrant
Ġwithdraw als
Ġachieve ments
C ard
iv or
Ġfound ed
Ġph r
Ġposition ed
ING TON
Acc ount
Ġfinancial ly
ak ed
illi ps
sh ort
ĠN os
k s
ĠINVEST MENT
Ġground s
ĠN i
ĠSm art
W hen
ĠMal aysia
ob tain
Ġimp r
ĠW E
ad or
Ġs oft
s ens
Ġantib ody
Ġne arest
Ġco oling
ĠU sing
inn acle
Ġdet er
ĠCOMMIT MENTS
Ġ( $,,
ĠB ut
ĠNu Star
ĠH D
J ames
Ġgreat est
ĠPrem ier
Ġun limited
Sum mary
erenti al
apol is
ĠI X
month s
ĠWil mington
ĠTr i
ĠĠĠĠĠĠĠĠĠĠĠĠĠĠĠĠĠĠĠĠĠĠĠĠĠĠĠĠĠĠĠĠ ĠĠĠĠĠĠ
acquisition s
Ġresc ind
S w
Ġwilling ness
ĠH orizon
Ġbring ing
v d
ens us
ĠBel gium
restric tions
ĠGr iff
A K
ĠIndemn ifying
edi atric
eric a
m ers
in as
ĠDec re
significant ly
Ġsyn thetic
I O
Ġse gregated
ĠRoy al
L ender
d am
ill ance
ĠConfidential ity
Ġhand le
TI V
Ġmus ic
se ver
Ġst ake
G AN
Ġun insured
ĠCent ury
produ cing
ĠAssess ment
ĠWy oming
Ġapp arent
ĠInstitution al
ĠRegul ated
sour ce
Ġm aker
Ġre lying
re quires
Ġvi ability
Ġr anged
f athered
ĠAssoci ate
Ġf it
Ġse en
Ġclass ifications
s ized
Ġli ved
Ġdescrib es
ĠProsp ectus
Ġuns afe
Ġengage ments
ĠStat utory
Ġdele gated
Ġl iter
Ġref inanced
Ġadvis e
Ġstart ed
ĠUn observable
Ġexpress ing
g ression
Ġvest s
su bs
Ġnumer ator
ĠCounter parts
ĠEnforce ment
RE IT
P H
ed ia
up s
urb an
disc us
et te
f unction
design ated
the n
ĠDisc ount
ij ing
ĠSh ipping
ĠDef errals
Ġw ish
Ġgrow n
ĠSubs cription
ĠS ecuritization
Ġcheck ing
incre ases
T ype
Ġm ission
arrange ments
pr inciples
Ġdebt or
edi ation
ĠO VER
ar c
At lantic
of i
D ENSED
consid ered
ĠMc C
ABIL ITY
Ġr ulings
Ġgu ests
ĠSp ectrum
ĠS et
v age
Ġtreat y
per t
Ġadj ud
Ġmod est
ĠJ UR
Ġnation wide
ĠRes orts
ag en
s ets
ĠWh ich
Ġcon ce
ĠMB IA
ĠP SE
ĠU CC
Ġrespons es
ĠUnivers al
Ġ,, .
' '
ĠAl liant
wh o
Ġpublic ation
Ġde veloper
ĠSe ason
Ġlic ensors
ĠV endor
Ġrec oup
ĠS hip
TE E
deli very
ens ate
Ġat tained
ti de
Ġe uro
Ġfor ty
Ġclass ifies
ĠT y
Ġunderstand ings
oth y
Ġselect ing
ĠComm itted
estim ate
Own ed
R ich
ow ered
Ġr andom
Ġpound s
ĠT ech
FIN ANCIAL
be ginning
ab ular
os oph
Ġindemn ities
ĠE P
v ac
En g
abet es
ĠDis p
fund s
Y N
T L
Ġpr orated
Ġingred ient
im en
Ġpositive ly
en sure
tr ading
ĠĠĠĠĠĠĠĠĠĠĠĠĠĠĠĠĠĠĠĠĠĠĠĠĠĠĠĠĠĠĠĠĠĠĠĠĠĠĠĠĠĠĠĠĠĠĠĠĠĠĠĠĠĠĠĠĠĠĠĠĠĠĠĠĠĠĠĠĠĠĠĠĠĠĠĠĠĠĠĠĠĠĠĠĠĠĠĠĠĠĠĠĠĠĠĠ ĠĠĠĠĠĠĠĠĠĠĠĠĠĠ
us tion
lig ent
des igned
Ġun specified
Ġconvey ance
Ġver ify
Ġla undering
Ġex haust
Ġtermin ating
Ġhydroc arbons
Ġref use
Ġhazard s
r ia
Ġf amilies
Ġcoll ectibility
Ġdelay ing
Ġprom otions
Ġto day
Ġsam ple
li ers
Ġper tinent
ĠComp osite
ĠHe art
ĠTrans lation
d ata
aj e
Ġconsent ed
ĠG round
Ġdefin ite
pre ced
arg ing
ĠSU B
Ġcurtail ment
ĠConsum ers
M et
Ġpost ing
ES E
Ġbenef ited
Ġp ose
ĠProject s
Ġreme asurement
mp t
red uction
Ġinvo iced
ĠCM BS
E l
Ġrem uneration
ĠB LA
ĠBenefici aries
Ġj ury
ref lect
ust ody
AR G
Ġpass enger
ĠDo ubtful
c orporation
Sell ing
Ġd ig
ĠL ED
Ġscreen ing
Ġmodel ing
ĠIP R
. -
ck n
C L
ĠD EP
ĠClaim ant
Ġrefer ral
Ġhost ing
Ġcomm ences
en vironmental
Ġess entially
Invent ories
ĠF rench
ĠW ales
ĠAr r
inc entive
Ġph ased
Ġas ide
Ġsulf ur
will ing
f ocus
p ass
Ġg lass
ĠP PA
ĠJ obs
Ġrest ore
Ġ ____________
bs ite
Ġpay or
ĠV ers
Ġc ity
un its
ĠTru ck
s able
w idth
Acc ord
Ġsub paragraph
ĠLiquid ation
ĠJack son
ĠMemb ership
ing er
e er
Ġther mal
d ers
Ġmunicipal ities
ĠĠĠĠĠĠĠĠĠĠĠĠĠĠĠĠ ĠĠĠĠĠĠĠĠĠĠĠĠ
ĠPack aging
enti t
Ġlead s
ĠRest oration
Ġinter active
ob il
Ear nings
Ġinvo ices
OL L
ĠVenezuel a
Ġoutsour ced
Ġregul ating
ĠCON TING
Ġexp ed
Ġdis proportion
Ġnon financial
ĠFrank lin
soft ware
o il
OR Y
ĠReg ency
y on
Ġcomm erce
lic ate
Ġsustain able
ĠDec ision
ĠMan agers
E lect
rece ive
Ġreb ate
Ġch arters
ĠHarr is
le gal
ci ous
ĠIG CC
Ġw in
Ġpop ular
ĠUncertain ty
ĠM el
ĠCh air
Sec ond
Ġm ental
D M
s ome
Ġm or
gre ed
Exp ense
he aring
ĠPlan ning
Ġsupersed e
CI ES
Ġaccre ted
P UR
echnolo gies
ĠRE PR
ĠWith draw
Ġprescrib e
ĠRed uction
) ),
ex penditures
me asurement
Ġinvesti gate
ĠPe er
H R
Ġconn ectivity
ail and
b inding
ĠĠĠĠĠĠĠĠĠĠĠĠĠĠĠĠ ĠĠčĊ
proceed s
ff ee
CE PT
Ġw aters
Ġintermedi aries
Ġd on
ĠA x
Ġc argo
s ur
ĠCo le
Ġany one
um ab
t own
ĠW ILL
Part nership
ĠP et
ĠB ell
Ġspec ifying
ĠRes olution
Ġj e
ĠU BS
Ġstrong er
Ġunderwrit er
stand ards
Ġkeep ing
ĠQu oted
Ġspe ak
EN SE
Imp airment
ĠĠĠĠĠĠĠĠĠĠĠĠĠĠĠĠ ĠĠĠĠĠĠĠĠĠĠĠĠĠĠĠ
Ġmod ern
me asured
Ġdismiss al
ĠC redits
Ġdisclo sing
M ortgage
Ġlever aging
ĠS hen
tr ation
Ġcontain ers
ĠV ac
Re al
Ġindex ed
Ġt ur
ĠEn bridge
Ġpollut ants
con tained
ĠM E
ĠPart s
ĠF Y
orn ado
Am ortization
Ġro ck
Ġhealth y
ĠNEO s
ĠN V
ĠRating s
Ġlink ed
Ġslow down
ce ler
ĠV erm
ĠEx cludes
disc retion
Ġrule making
P G
Ġdiff ering
ĠP oll
Ġcell ular
ĠUnder lying
ĠMulti ple
Ġr are
LO OKING
Ġin ject
Ġc omes
ent ered
Ġprec ision
st on
Ġc ustodian
Ġex c
ĠEng lish
Ġaccept s
ting ent
in er
ĠOM ITTED
aje ure
Ġiniti ation
wh at
IS T
Ġenc ount
PPL C
Ġclean ing
govern mental
ĠHold co
ĠCon versely
ĠH amp
Ġsatisf ies
ĠF S
Ġnew sp
ĠC OUN
s ix
Ġso il
Ġdocument ed
ĠCD O
ĠApp lied
ĠDa vis
ĠA W
g iven
Ġaz ex
Ġreimbur sable
Ġabandon ed
ĠMerr ill
Ġloan ed
Up on
r un
CE UTIC
ĠCom Ed
Ġconsist ency
mp h
ap sed
Ġfr ag
ver ages
ĠDr illing
ĠP aid
ĠP CI
iti s
ĠSo cial
ĠS n
Ġre wards
ĠSub lease
ri ot
Ġdimin ish
Ġover dr
co a
interest s
EO K
Ġmolec ular
ecu tives
ĠPhil adelphia
ĠC ad
Ġpart ly
Ġimp ossible
ĠP G
decre ased
Ġimp ede
Es tim
g n
Ġat tain
direct ly
ĠF alse
Ġo x
Ġf el
app lication
Ġwa fer
im mediately
ĠPartnership s
ag on
ak ings
re ign
Ġm old
Ġemplo ys
ĠDo uglas
Ġexce ll
ĠSEP AR
ĠClass ification
ĠTrust s
ĠRES TRIC
ay lor
Ġh ur
Ġdefault ed
Ġn d
Ġamortiz ing
r an
rend s
F DA
Ġcon v
us ers
issu es
S outhern
ĠI c
ĠA bs
ĠWM ECO
un ication
Ġcor rection
ys ical
S elected
Ġair line
Ġex tract
ĠN P
EN CIES
ĠPh ilipp
ĠHawaii an
T HER
ET Y
ĠDi amond
ATE RI
R ed
ĠBusiness es
pp ed
" .
HARMA CEUTIC
Ġafter market
F und
o z
Ġf ossil
Ġout door
ĠRet ention
ĠPat riot
Th rough
b b
Ġgeograph ically
ber t
Inc entive
ĠSc ot
Ġpers p
ĠP ubl
Ġattem pted
hib ited
rec overy
ĠSHARE HOLD
Con fidential
oblig ation
T enant
Ġdeplo yed
Ġb ind
ĠPr iv
ĠR SA
act ed
Ġend e
ĠWarrant y
s y
ĠQ ue
Ġver ification
ĠSe a
M er
Ġt ier
ĠRec over
ĠBu ild
am er
Ġpolicy holder
ĠPAR TIES
Ġg ap
ĠHE I
Ġop t
op ard
De velopment
yl ene
ĠCiti bank
cap acity
ĠI TS
Ġexp ir
Ġaff ordable
ĠRe quire
ĠRec onciliation
lic ensed
ĠPre payment
Ġunder go
ĠLic ensing
discus sed
ĠAP B
Ġs che
ĠAnd erson
am inated
Ġref l
off ice
Ġman ual
emb ers
a vi
impro ve
Ġins olvent
ĠL abel
est ate
el f
ĠM ari
Ġautom ation
ĠH omes
Ġsubp oen
ĠP as
Ġvirt ually
ĠE ACH
ĠBr ian
Ġsoon er
Ġas certain
ĠRus sell
Ġadjust s
ĠP atient
res earch
IC S
ĠS CE
ĠĠĠĠĠĠĠĠĠĠĠĠĠĠĠĠĠĠĠĠĠĠĠĠĠĠĠĠĠĠĠĠĠĠĠĠĠĠĠĠĠĠĠĠĠĠĠĠĠĠĠĠĠĠĠĠĠĠĠĠĠĠĠĠ ĠĠĠĠĠĠĠĠĠĠĠĠĠĠĠĠĠĠĠĠĠĠĠĠĠĠĠĠĠĠĠĠĠĠĠĠĠĠĠĠĠĠĠĠĠĠĠĠ
ĠDetermin ing
Ġtend ered
ĠCP UC
ĠConf lic
ĠH il
Ġeas ily
ot es
P eriod
Ġinj unctions
ĠRest atement
ul s
Ġuncondition al
Ġsevere ly
Ġaud io
N C
Reg ulatory
Ġaff orded
ĠEur oc
ĠMc K
ĠPL ANS
d icate
lo yd
ĠJ oinder
iti c
st ell
ĠH ydro
Ġsurch arge
ĠCar l
Ġmail ing
g oodwill
Ġsepar ated
Ġcom ment
pro ved
and a
TR U
Ġcour ier
Ġbe verages
ĠB un
Ġbr idge
ĠDeb enture
ĠN ord
e valuated
Ġex em
Ġsil ver
con f
Ġatt achment
ĠRad io
Ġintention al
ĠRepresent atives
ĠGe ographic
ital s
Ġh um
Ġorigin ating
c ut
Ġinnov ations
Ġrail road
ĠHamp shire
ĠH R
Ġpar allel
Ġrank ing
ag ency
Ġ rolling
sh ould
D erivative
Ġpublic ations
e tic
determin e
there of
ĠS plit
ĠLic ensor
ĠIc ahn
ĠT esting
Ġad he
osoph y
ĠRef erences
ĠB O
e ves
LE AR
gricult ure
al li
eren t
Ġdistribut ing
Ġfor um
Ġcover ages
op portun
pur pose
Ġs end
redu ced
Ġsal vage
Ġst er
Ġord inances
third s
ĠSoci ety
-_ .
ĠPU CO
oen ix
ĠAd dress
Ġout age
M EX
am ortization
Se gment
Ġdet ri
Ġref ine
Ġto o
abl eness
Ġre habilitation
Ġalle ge
L aws
ĠIssu ers
Sign atures
In dustr
Ġir respective
e tiz
ĠPep co
ach o
ĠDi ff
dil ution
Ġassoci ate
Ġinter face
Ġmen u
ath an
contract ual
ain e
Ġexplor atory
Ġsci ence
k ew
Ġearthqu akes
ĠSYSTEM S
er b
Ġch ains
ĠP innacle
L T
Ġcard i
Ġ- --
Ġse iz
Eur ope
Ġreli eve
ig aret
Ġcontinu ance
Ph ase
Ġfoot wear
od el
ĠPro posal
os ph
Ġex act
Ġmem ory
ĠC LA
Ġgene tic
Ġsuccess ive
ĠM ul
ĠVill age
ro om
ĠC opy
D ec
ateg ies
CON S
ĠWar ner
W ork
ĠL IC
ĠW in
ĠB achelor
ĠSter ling
Ġretail er
Ġpass ive
Ġprot ective
Pro perties
Ġcon fer
Ġdiscover ies
ĠAt las
net t
ATE LY
ĠM all
m ulti
Ġpredict able
D ollar
ĠA reas
Ġuns ound
Ġmid stream
BL IG
L S
m aster
ĠS her
f ee
SECUR ITIES
ank ee
ex am
ar p
ĠPROD UC
il der
Ġdimin ished
con vertible
ĠP UCT
receiv able
Ġje opard
AR S
dic ated
Ġimp osing
Ġaver aged
ĠNo ble
res erves
ove reign
ĠSh anghai
Ġdis orders
ef r
ĠComp ound
Ġdef ective
ĠLI FO
ir a
warrant s
Ġcomb ine
ĠAct u
Ind emn
AT URE
ĠĠĠĠĠĠĠĠĠĠĠĠĠĠĠĠĠĠĠĠĠĠĠĠĠĠĠĠĠĠĠĠ ĠĠĠĠĠĠĠĠĠĠ
B s
ĠInclud ing
De pos
Ġw estern
Ġres igned
ch arges
Ġsimplif ied
Ġimpl ant
ĠSubs ection
Ġur anium
ĉ ĠčĊ
N ational
Ġfact ual
ĠGold man
ĠNon qualified
ge l
Ġal liance
re ly
ĠRE POR
ĠAP PLIC
ĠGo als
ĠACCOUN TS
Ġresid ence
ĠConcent ration
me an
Ġconsolid ations
in vol
Ġr d
ĠMe zzanine
r id
Ġinfring ed
ĠWyn n
Ġrev oked
so le
Ġre organ
Ġf ig
Ġconsum ed
is en
Ġcarr ies
ind emn
IS TR
Ġred und
B ase
Ġinc omp
ro se
ĠT ask
B AL
C ent
ĠM us
ĠCh r
Ġen abled
ĠA AA
in quis
cal culated
ĠRestric tion
ĠB U
est y
igh bor
ur ally
ĠAP Co
PL I
ĠE TP
VIE W
EN TIVE
Ġen gineered
Ġproportion al
Ġform ally
E QU
ĠF ire
ne gative
Ġpost p
ĠDebt ors
our t
Ġofficial s
ĠB ig
ĠDel ay
Ġproj ection
tr ade
ecu le
ec o
ĠTim ber
sell ing
We ighted
at o
Ġp ilot
t aking
ĠCl ark
mat erials
ĠCap acity
kew ise
Ġ. :
Ġpro xim
b ound
Ġvac ated
Ġcancell ations
ĠW hether
TE C
Ġprior ities
ĠF itch
t reatment
tax able
ag or
ĠF lex
ĠPI K
STATE MENTS
or a
det ermination
ĠĠĠĠĠĠĠĠĠĠĠĠĠĠĠĠĠĠĠĠĠĠĠĠĠĠĠĠĠĠĠĠ ĠĠĠĠĠĠĠ
Ġport able
am ble
Ġantib odies
Ġinquir y
A ust
D ue
Ġs izes
at r
ĠS tructure
Ġfoot note
Ġperf ect
in os
ĠON EOK
ĠBN PPLC
Ġretire es
G lobal
ert z
Ġrob ust
ĠG ary
ang ers
Ġtele ph
acho via
hip s
ĠC e
ĠRIGH TS
Ġc le
tit utions
ĠReg ions
ĠMineral s
ĠB ru
ĠV O
Ġl ung
Ġbid s
Ġgeneral ity
Ġ% )
ili ations
ĠM ATERI
Ġgall ons
ĠC er
ĠTH ESE
ĠAF UDC
Ġd os
h on
h our
j ections
Ġf light
ĠA stra
Ġrail cars
AR TER
cu red
Ġrun ning
Ġenj oy
ĠF M
Ġdis ting
ĠCONTING ENCIES
Ġfac es
Ġinterval s
l ink
Ġtransfer ring
ili ar
im m
Ġ( .)
g ene
ag ent
For ward
Ġadvance ment
ĠF iling
Ġchar tered
ex ec
ĠY ankee
Ġconven ient
ĠTyp ically
Ġph il
Ġpl acing
Ġsub standard
ĠAl ter
Ġvalu ing
am iliar
ĠUn ith
Ġprofit ably
ĠCan cer
Ġconver ting
ut ers
ives tit
ĠEx amples
Ġdef ect
Ġcor ner
Ġtherapeu tics
AN E
ĠNo va
Ġstand alone
equ al
le ven
ĠIn stall
Ġa part
Ġmon etiz
T ime
Ġrestric ts
Ġscr ap
Ġle aving
Ex cept
comb ination
ĠL KE
ĠCh an
it r
T e
comm ittee
Ġreform s
ĠAust in
ĠEMPLOY EE
ĠF eder
ĠP oly
Ġseri ously
ĠRenew al
Ġrefund ed
Z eneca
In cluded
ĠAc cepted
Ġcomp ati
Ġattend ance
ĠAP I
g i
lim ate
Int angible
ĠI ron
Ġdem ographic
ĠF IS
Ġun exercised
Ġexp ended
ĠOrd ers
en h
ĠFA IR
Ġwarrant ed
i us
depos it
Ġtr anches
deli ver
F act
urren ces
ĠS ports
ĠSAF ETY
Ġexam ine
ĠC ant
AN DS
Ġcircum vent
Ġund r
gre gation
Ġdele ted
Ob lig
ful l
Ġland fill
ĠCar lo
ĠJ ournal
ag az
ĠT aylor
ol n
major ity
ape ake
Ġinc ap
Ġevol ve
Trust ee
air ments
Ġro of
hes apeake
ĠAR O
Ġtim efr
ro te
cons ent
Disc losure
o a
ĠChris topher
entit led
un til
loc ate
f all
Ġsh ifts
ĠAC QU
Ġeconomic s
ag ents
ĠMet als
omin ium
Ġdeposit ors
ched uled
ĠD ivers
Ġship s
emn ation
ides pread
ĠS ach
EP A
Ġfr ont
Ġc ities
h owever
histor ical
n atural
Ġsy mpt
Ġsc ore
ener gy
R ate
M on
ĠMil estone
IC AL
Rich ard
ici an
valu ed
ĠKn owledge
Ġclar ify
ĠWhen ever
ĠP resent
ĠM T
LO W
Ġmerchand ising
IN T
cap e
Ġsurv ival
ĠAR M
ĠR oth
pl ay
c re
ĠR and
ĠV A
F T
Ġun willing
id ity
Ġsur ge
ĠIm m
ĠG A
r or
se y
ar act
Ġdr am
I m
pr a
p resents
er ge
Ġpool ed
ĠEn h
P rem
ĠO BLIG
Ġslow er
Ġpa ren
ĠAND A
ĠRequire ment
ĠP ier
ĠN ext
Ġgener ators
em a
Ġvis ibility
ĠR OE
Ġsurve illance
ĠSum mit
program s
ĠMe etings
br anded
ĠD V
Ġcorrel ation
ĠP HARMACEUTIC
ac on
MA X
ĠC N
aw ards
Ġbre ast
EB Y
un audited
Ġman if
VEL OP
C losing
ĠEd ward
Ġcomp ress
y ield
ĠĠĠĠĠĠĠĠĠĠĠĠĠĠĠĠ ĠĠĠĠĠĠĠĠĠĠĠĠĠĠ
Ġsubstit utes
Ġcounter claim
ĠCOMM UN
ĠSERVIC E
reg ulation
Ġheight ened
Ġreason ableness
ĠAl coa
Ġstr ive
Ġliter ature
K K
Ġdivers ify
Ġeth ical
O V
Ġas h
Ġc igaret
sens itive
ll ing
iber y
form ing
b ox
vol ume
g ar
r ig
x ex
ro yed
ĠE qual
li e
ĠN om
Ġlo d
Ġsatisf ying
ate ver
ĠDeposit ary
L ES
ĠExt ended
sett lement
Ġ$, ;
ĠW he
Ġf ib
TI RE
ĠProvid ed
Ġregistrant s
Ġoverse as
hib ition
e vents
Ġpred etermined
ĠCER CLA
ĠA ckn
ab out
Ġpr inted
ĠGood s
sp eed
IND EX
s old
x ies
In ternal
Ġwhere as
p her
ĠLic enses
ĠOff ered
Th ird
ĠA erospace
ud son
Ġfil ms
comp onents
B asic
z hou
Ġback up
Ġc ars
ition ally
Ġdepend ents
ĠR NA
net h
ĠAir lines
andid ates
ĠCoven ant
ĠC ab
cum ulative
st ation
at tributable
ĠB ax
ĠC PP
ĠA viation
eral d
ĠAsh ford
Al lowance
Ġobj ection
Ġatt ack
cons ult
P ayment
Ġo un
Ġcomp ute
ĠG ate
Ġdepreci able
Ġattempt ing
Ġhome building
Ġdomestic ally
ing ular
business es
accept able
Ġserv ers
Ġdo ct
pre ferred
Ġband width
Ġbroad ly
Ġpersp ective
Ġw ord
ĠMedic ine
Pr ice
ĠINDUSTR IES
ĠE ligibility
ĠTele phone
Ġad mission
Ġclo sures
Ġrefin eries
Ġal coh
Ġam ending
ĠDev ices
ĠZ h
ĠParti ally
c her
ĠM ir
ĠN in
spec ial
ĠL loyd
ĠSurv iving
bank ing
comp rehensive
e as
ĠCol omb
D s
Ġt ort
P ension
lic ensing
Ġearthqu ake
ew el
Ġ- ----------------
Ġcooper ative
W ashington
ĠM L
ĠPROV ISI
ĠH ard
ĠB BB
ĠAdd endum
Ġw arm
FORM ANCE
aw back
Ġin e
Ġcond ensate
ĠN OR
Ġcooper ation
Ġask ed
ĠChemical s
ĠSwed en
Ġinter ven
Ġstrict ly
fl uctuations
Ġexp lain
ĠFOR WARD
Ġtr ib
ĠB ox
ĠPARTNERS HIP
Ġz oning
Ġc ubic
osci ence
ĠCarol inas
inn ati
itor ing
inc innati
Ġsolic iting
Ġa viation
Ad ministr
al ing
ĠSan ofi
Ġb ona
olog ists
ĠEMPLOY MENT
IP MENT
ĠDr aw
ip le
an co
Ġg l
b ecause
Ġasp ect
TE CH
ĠSB IC
ĠINC ENTIVE
Ġbid ding
ĠH M
Ġz one
ĠSEPAR ATELY
comp ar
F G
ĠL OSS
Ġgu est
cance ll
ĠIsra eli
Ġvac ancy
LA D
the y
ĠMc D
th ony
ĠVerm ont
ĠMad ison
ĠInter creditor
Ġfr ame
AS T
ĠMis cellaneous
ĠTrademark s
ik es
ĠInd ones
Ġ. ;
Ġanti trust
inc oln
ĠS ingle
ĠM IC
the w
COM M
ĠF oot
Ġke pt
ther s
ĠAlber ta
IC E
Ġinstru ct
ĠC OP
s ince
Ġdi vested
ĠRef ining
Ġcl ub
Ġa uctions
ĠD onald
Ġbank rupt
ĠPeriod s
ĠSched uled
OR S
m ember
Ġsub ordination
cu its
ĠC rest
ĠAstra Zeneca
Ġf ide
Ġced ing
Ġrecruit ment
rep resentation
Ġdesign ations
g ains
ĠWH ICH
ĠCh oice
Ġun registered
Ġs and
do es
ĠI BM
Ġph ot
Ġreinsure r
ĠC ur
l ington
Ġlat ter
ĠI TC
os c
position s
ĠTER MS
ĠV og
Ġrec re
R EC
Ġcomp liant
om ed
Ġon cology
ĠInstru ment
ĠDis b
SI TION
Ġfor ces
ĠBroad cast
occ up
Ġencount ered
em s
ĠC PA
Tax es
)( ).
un ities
in stall
ex ceed
Ġsec retary
Ġin side
ĠIn n
Ġb one
ĠSuccess ors
am ong
ĠPro cedure
t age
ĠE ll
four th
d eri
Ġrel inquis
L andlord
Ġco inc
Ġput ative
Ġc oming
t ar
ĠCon serv
ĠCor rupt
Ag ency
ĠB V
ign ation
ident al
Ġcash less
oun ced
ĠAm eri
Ġcon current
ĠINS TRU
Fac ility
RS A
ĠGU AR
ĠM as
ĠH undred
ĠD ow
ĠSe attle
Coll ateral
Ġw idespread
ĠAC A
u ate
Ġexp licit
onounce ment
Ġsurve ys
res ources
Ġaccomp l
ĠEx ecution
Ġaud ience
ĠBi ogen
ĠP ERS
Ġassign ing
Ġal lo
P OWER
v ascular
ex cess
ĠIn sider
conduct ed
R em
ĠS AS
ĠSach s
ĠA ES
ac cess
Ġcont ested
ir th
Ġsatell ites
ish ment
Ġ- ----
here under
ĠE MA
ĠD AC
ra is
ĠPro p
H owever
ĠL OC
Ġbe long
ĠS ame
Ġprovin cial
ĠNo tif
ĠS ources
Ġcontain er
ĠEn tire
ins titutions
Comm itments
Ġpharmaceutical s
E ff
ĠEuroc urrency
ĠLA WS
ĠShe lf
ĠM PSC
Ġund ivided
Ġaim ed
ĠNO I
Ġfranchis ee
Ġd osing
n ormal
ĠPor tion
ar ound
est yle
ĠDistrib utor
ĠPRO GR
ĠPl us
Ġspec ifies
ack ing
ret able
ĠMar shall
purch ased
Ġwh atever
Ġ ide
b an
ĠM AN
Ġinvestig ational
Or gan
re cent
ol ve
Ġtransport ed
ĠCom cast
te x
ĠP te
Ġexp oses
Ġc ustody
ĠLtd a
ad vis
ĠL illy
Ġsel ective
ĠRES P
end ers
ĠER P
Ġpref erential
Ġad ult
ĠCons istent
Ġcontain ment
s ame
Ġsound ness
Ġrealiz ability
Ġ- --------------------------------
limit ations
ĠAll en
ĠD ed
ĠY ES
Ġv ast
Product s
Ġproxim ity
ĠT DS
Ġre assess
ĠInf lation
etro chemical
ĠR BC
ĠPh oenix
ut ral
Ġvalid ation
ĠS ens
LO BAL
ĠOn line
ĠTherap y
ĠFC PA
n an
O GY
it ts
AC A
ĠRe levant
ĠEQU IPMENT
ĠPer cent
ĠArrange ment
or iented
Ġasser tion
adjust ments
ĠSimp lif
ĠHOLD ING
ĠH ertz
int angible
per mitted
Ġprohib itions
ub e
beli eves
guid ance
Ġinfl amm
f aces
Ġin vention
Ġchar itable
Ġp apers
MIN ATION
Ġd oses
ĠEn erg
Ġanalog ous
Ġpl ural
At t
ĠC os
ĠC hesapeake
t arget
c les
QU ID
Ġcont aminated
Ġdes cent
ĠG L
arg ins
ĠRespons ible
Ġprote ins
Ġratif ied
Ġencumbr ance
ĠG all
Ġwe alth
s i
aut om
D ata
ĠA chi
j ectives
Ġocc urrences
Th omas
ĠIN SURANCE
Ġnotif ies
Ġdis abled
og le
ĠTh ousand
ĠOrd inary
ĠImp lement
Ġbi ologic
ĠP ut
Ġfoot age
ission s
Ġv aried
ĠAR LP
Ġunivers al
ĠKe vin
su per
ĠE p
Ġintermedi ate
oper ation
Ġextr action
ĠNY MEX
PR C
Ġcap tive
ĠFort ress
Ġs ingular
Ġmet h
Ġsour ced
Ġcomb ustion
Ġ(, )
Ġrespond ing
Ġsh ale
O ptions
pro sp
un s
ac tivity
ĠCommission er
Ġfall ing
t re
ĠA PS
ter y
Ġpar achute
Ġinsp ect
ĠAff airs
lar ation
Ġcont roller
ĠSch w
ĠDeli ver
ĠAd vantage
el ection
Dividend s
Ġtum ors
W IT
Ġwareh ousing
ĠV o
Ġus ual
es ter
Ġlear ning
Pro vid
ĠS ar
Ġh ot
An d
li quidity
Ġ ii
Acc ru
ĠC ast
Ġ.. (
Ġmon ies
Contract ual
un ch
ĠIn stead
Ġdi e
Ġconvey ed
ĠN ation
Ġchem istry
ob ility
ĠMet Life
ĠContin ental
ĠD IF
c ated
ĠO range
ĠPB F
ĠM emorandum
gre ater
anufact urer
r ink
Ġratif ying
Ġst reet
Ġannounce ments
M id
ĠL u
Ġcommercial ized
Ġsubstit uted
c losure
Ġjud ge
ut ch
de preciation
Ġse q
Ġdepart ure
ĠB I
M art
Ġwholes alers
off set
Ġcorrespond ent
z one
Ġrepl aces
ĠInstit utions
ĠAs suming
Ġth ing
ĠFI RST
Supplement al
ĠP AGE
ĠS old
Govern ment
ĠH an
ES SE
ĠAr row
man aged
ĠC ustodian
Ġexam ined
ĠBe ijing
pat ent
ĠRegistr ar
ĠM otors
ĠP ECO
Ġfin ally
Ġreme asured
Ġblock s
Ġmig ration
ex amination
Ġk il
ĠPremium s
ĠPol and
con version
app lications
ĠCompar ison
ĠP CS
st art
ĠB lo
ob iles
DI TED
ĠFl uctuations
ir it
ĠRecogn ized
V ir
Ġalloc ates
ĠOP EB
Ġcorrect ed
ĠApp lications
ĠM agn
Ġradi ation
ĠAuthor ization
Con tin
Ġexplan ation
Ġdi abetes
Ġprom oted
pay er
Ġcour ses
Ġapp liances
ĠCon solid
Ġauthentic ation
ĠRe ti
or ough
qual ifying
Ġven ue
ĠAs ian
c ause
Ġvac ant
U TIONS
Ġbase line
ĠGovern ors
h and
Ġn ominating
Ġdisp uted
Ġsimplif y
ret ail
Ġvari ation
Ġre hearing
enti sts
Ġinhibit or
Qu antitative
ĠRestaur ant
met ric
Ġbal lo
Ġcle ared
Ġreservoir s
tem porarily
Ġcol or
ĠB ORR
ĠW achovia
op inion
ĠDef endants
Ġdiagnos tics
ĠREC E
ĠRe v
Ġclear ances
ile y
ĠC W
tr ies
ĠH ost
ĠE FF
ĠP T
ĠIn ventions
Ġe ye
Ġmol ecule
off er
Ġsal aried
N ET
ĠCommun ities
Ġden y
ĠEn vironment
ĠL am
iv otal
Ġacc idents
Ġunenforce ability
bear ance
renew al
quis ites
ĠGreg ory
ens ated
M ax
ĠF ox
ach i
ĠF lu
ĠPhilipp ines
ist ency
com ing
Ġstorm s
ĠRes ort
Ġwar ning
ĠDiagnos tics
od ity
Ġcontinu ity
ĠG athering
ĠF D
K X
Ġh inder
Ġfound ing
F lorida
Ġw et
Ġdiscr imination
ĠH udson
Ġshow ed
ĠTem porary
l ast
Ġpro xies
Ġprof iles
* .
Ġconcept s
ĠUnder writing
R ule
ĠI RC
Ġo xy
k ex
Ġstrength s
Ġout patient
ĠW a
Ġelect ro
ĠM otion
Ġlead ers
ĠS CI
Ġh om
a R
t ech
ot ype
enti ties
Ġpubl ishing
Ġg ar
Def ault
Control s
f uel
Ġhe ar
Ġend ors
Ġparcel s
lot ment
Ġarchitect ure
Ġintel ligence
ES TED
in i
rodu ction
ĠPHARMACEUTIC ALS
ell er
Ad vis
Ġpro pose
ĠPNM R
Ġstopp ages
Ġ($. )
ĠEff ectiveness
ĠF H
Ġpl ug
ĠTermin al
Ġstay ed
S ale
ĠPro ved
ĠHER EBY
ĠREPR ESENT
k ee
LO SS
burg h
D T
Ġdest royed
Ġscen ario
ĠM ic
Ġg olf
ion eer
eb r
Ġprocess ors
D u
ĠMortg agor
Ġrefl ective
Ġconn ections
li tigation
ĠTr ib
Ġ" )
ph alt
Ġcon ferred
rel ationships
________ __
Ġfound ation
B io
ĠT IM
F s
Ġs out
ph y
L AND
MB ER
CONS ENT
b able
o ining
en a
Ġfac ing
oper ate
Ġplas ma
ĠW are
Ġp ediatric
pl ing
Ġstatis tics
R P
ĠAs sumed
Ġsign atures
form ed
Ġcomb ining
Ġfranch ised
K S
Ġsubcontract or
su it
Ġvolati lities
ti p
lo cal
ĠCON DENSED
ĠPRODUC TS
ĠV ote
Ġcustom s
ĠM ake
def in
Ġmedi an
ĠTrans feree
y o
Ġrig or
ĠT urn
ĠF idelity
M ED
ĠVog tle
Ġcompr ises
ĠR ub
ĠA BS
inge ment
g ain
ov a
ĠDen ver
ĠP SO
ĠWil son
ĠDisp ute
ĠINTER EST
Val ue
ĠR og
ĠD B
level and
vid ence
ast ate
ĠSIGN ATURES
ĠE mp
Ġgr ades
accru ed
Ġcomput ations
Ġfac ed
g ross
I RE
Ġsh if
ĠJ on
ĠCr ude
ĠClo ud
lease back
Am ount
ers e
ĠĠĠĠĠĠĠĠĠĠĠĠĠĠĠĠ ĠĠĠčĊ
Ġentit les
Ġpresent ing
invent ory
Ġwind ow
ĠFI LE
Ġholid ays
Ġlow ered
int end
ĠF ar
co ven
establis h
Ġmiti gated
man n
ĠB ou
ĠC RE
X M
ĠR os
ĠM INE
Ġgr aded
C D
ĠRe qu
Ġquot ation
ĠDO J
ĠOPER ATING
F uel
ĠWork ers
ic ers
ĠA X
bal ances
ĠM ol
aked a
ĠP AT
ĠH em
N ER
Ġconn ect
or ption
ĠO TS
prem ium
Ġdes k
Ġne ighbor
A verage
eng ine
M ex
ĠH is
ult y
Ġinvestig ators
ĠJud gment
ĠInc umbent
depos its
el d
Ġattrib ute
ot ech
ĠH IV
ĠReturn s
ĠRM R
ĠALL L
typ ically
att an
ĠSe ars
Y ou
Cost s
Ġc ounty
Ġdispos able
Ġdos age
ĠDE VELOP
ĠPh antom
s atisf
Ġw ant
Spec ial
io vascular
o gy
Ġvari ances
Ġreti ring
Ġl ab
an im
Ġfact ory
ĠK ir
a ties
lic enses
ĠF TC
dec ision
ĠGo ogle
ĠA WARD
ĠS OL
ĠB H
Ġsc an
ro vers
ĠD CP
Ġimport ed
main tenance
ĠRef inancing
B P
COM P
Ġphil osophy
ĠM AR
ĠMor ris
Ġconf erence
m argin
ĠL ew
Ġleg end
ĠAl low
Ġexp ans
Ġw est
Ġdis hon
CON FIDENTIAL
P ER
ĠTRANS FER
Ġconc rete
ĠE vers
Ġflood s
ĠC uts
Ġdifferent ly
E qui
Ġdis regard
ĠD EL
Ġconversion s
Ġpursu ed
Ġw ors
Ġpres ervation
Ġfrag mented
gr a
vol untary
Ġc apped
and em
Ġtable ts
Ġpr onouncement
ĠRem aining
Ġh app
Ġenh ances
ĠHER E
Ġhum ans
Ġexec utors
me asure
Ġn ull
Ġp es
a uty
ĠMand atory
ĠCF TC
eri on
ĠHospital ity
Ġresol ving
ĠOb servable
ĠTer ad
ap se
ĠE ESA
Ġflo ors
Ġup ward
ol as
Ġco ffee
st ud
ĠT D
Ġlod ging
ti le
port ing
ol ations
Comp rehensive
tern ally
Ġpack aged
P en
IS ES
u ished
Ġdispos als
Ġfoot notes
ĠL incoln
ur ations
c hen
Ġsh op
Ġloc ate
d rug
t ree
C omb
Ġres orts
th r
Ġnecess ity
ĠU SC
Ġrandom ized
ĠImp aired
Ġad mitted
Lim ited
ĠVol ume
Ġover l
Ġorder ing
distrib utions
ĠV ict
AD E
it age
Ġconfirm s
ĠDire ctive
ĠNe gative
ĠForm ation
direct or
ĠFU ND
ĠFed Ex
Ġconstru ctive
amil ton
ĠFIN RA
val ues
W y
ĠAn aly
ĠInstru ction
ĠR ata
call ed
deri ved
k ers
m ust
Ġundert akes
jud gment
evalu ate
rec ord
al ach
ĠE v
Docu ments
ĠOper ational
Ġimport s
Ġad here
HAR ES
ĠAm gen
Ġse ed
al m
aution ary
ĠG ra
________________ ____
ins titution
in ternational
ĠV an
ĠPro vince
W R
ĠU NITED
ĠF ES
eri pher
ĠAS B
Ġeas y
Ġilli quid
cess ion
ĠBlue green
Ġass isted
ans sen
ak s
Ġint ensive
work ing
ĠConf irmation
ch aract
de emed
s ign
em ia
ĠE T
w C
Ġdecon solidation
polic y
Ġr ational
Ġexp edi
atell ite
Ġon shore
ASH INGTON
Ġsubmit ting
ĠC AD
comm itted
ĠTh ailand
Ġdi vest
S mart
m embers
TIRE MENT
reg ular
borrow ings
P articip
quarter ly
sing le
h y
ĠUS P
Ġmand ates
ĠE UR
ĠREG ARD
Ġflu ids
Ġf amiliar
aa S
Ġe ast
en cumbered
R ules
h attan
aw ay
Ġ ly
h is
con verted
urch ases
oint ment
ĠBar cl
TER M
IP TION
con cer
odies el
v ard
Ġreserv ation
ĠAff ected
ĠPP As
Ġinstit ute
Ġinf ection
ĠC orn
Ġrol lo
ĠAr ab
Ġan im
Ġadvertise ments
Ġprivile ge
ĠK NOW
K T
ĠN S
pre paration
Ġfel ony
Ġb ore
lect s
Ġout lets
ĠHen ry
D erivatives
$, .
Ġs ession
Ġform ations
Hold ings
Ġcalcul ates
Ġa ges
ĠS ublic
Ġplace ments
Ġproportion ately
m ax
Ġspl its
om ics
- /
Ġw rote
ĠBlack Rock
Year s
omm unication
es is
reas urer
Ġsurch arges
Ġhon or
ĠSt one
Ġindemn ifications
str ategic
ill ar
L ess
Ġair lines
H ow
Ġincre ments
ĠAltern ate
Ġmand ate
ĠS i
ad opted
ĠInter state
Ġclin ics
ĠC ould
oc a
ĠO C
Ġwithhold ings
ĠRemed ies
a gree
Ġst y
Ġrem odel
Ġpre em
ĠTe va
at us
con tingent
is l
ced ural
S maller
ecess ors
Ġlower ing
Ġvis ual
ag s
IN ED
ĠS atur
ĠFurn iture
ĠC BS
Ġbi os
ĠINVEST MENTS
ati o
Ġth in
w ire
Ġprioritiz es
Ġderi ves
ĠCounter party
ĠG AS
Ġdist ressed
ĠIB NR
ĠSun Trust
Ġrecept or
Med ic
P ublic
Ġtrans mitted
Ġprom oting
ru ptions
Ġd ual
ĠPre paid
CE LL
F ollowing
ĠAF F
Ġtail ored
Ġf ounder
Ġs erver
Ġdi alysis
Ġalter ation
atis factory
Ġcan cers
Ġe leven
ĠP OR
identif ied
ĠGener ating
Ġc old
ĠS PA
Ġj oin
v ir
ĠT akeda
ĠFil er
IB LE
ĠGold en
Ġli br
Ġrenov ation
iz able
ompt ly
et he
Ġweaken ing
Ġpop ulations
ĠREPOR TING
comp etitors
Ġm ile
qu arters
ĠMi ami
o val
ĠC ed
S m
c orp
Ġs overeign
bers ecurity
iel sen
Ġg ro
ĠElect rical
ĠM edi
Ġstip ulation
S ci
level s
ĠOBLIG ATIONS
ĠRuss ian
Ġ &
ir atory
ĠBENEF IT
ĠPoll ution
ĠA mp
be an
ha ul
ly le
ĠUn consolidated
ĠD ATE
im es
yst al
Ġinvest ees
Med ia
otion al
Ġearn s
redu ce
Ġnavig ate
ĠPl as
ator ium
o ul
ĠContin uation
ĠCERTIFIC ATIONS
ĠSh ared
ĠOP TION
Ġf illed
Ġhorizon tal
i per
A vailable
om o
ĠL ex
Ġapplic ability
prim ary
ĠWe bsite
ĠR onald
ĠINSTRU MENTS
ĠPerm ian
ac cepted
TR IB
Ġun to
en za
Ġopp osition
ĠFact or
Ġgreat ly
. ]
f ile
Ġshut down
ĠD aily
Ġ. .,
ĠT B
Ġdest ination
ĠThere after
Ġdead line
Ġrail car
ĠLE ASE
Ġtre aties
ĠPeriod ic
IG N
ĠH ay
Ġcustom arily
Ġcontem por
Ġinvalid ated
Ġ. -(
Ġpre val
F inancing
ĠW end
ĠJ ac
ĠStat ute
V ie
L og
Ġopen ings
Ġgeograph ies
d ivers
Z ip
is se
RE G
ĠCo ok
MIN ISTR
ĠCommercial ization
ĠACQU ISI
ograph y
ĠC incinnati
Ġobs erve
report s
ch annel
Ġsympt oms
lot te
ĠD ivestit
ĠNE E
Y Z
it ment
Ġpro poses
ĠEx ecutives
S CI
A uthor
ĠSem pra
Ġstip ulated
Ġeigh teen
ĠLe on
ĠD ER
plan ned
P or
Ġout let
ĠPriv acy
uti lity
ĠVol untary
Ġmarket ers
ĠF N
ĠMar sh
Accord ingly
ĠNew s
ĠE ric
S he
port ant
Ġgr ace
Ġr uled
ĠComp utation
ĠL iving
Ġundert akings
ĠHE ALTH
Ġperm ission
ĠS EO
Ġdeb enture
Ġrender ing
ĠC limate
Ġtrad itionally
bec ome
al ed
ustod ial
ad dress
min imum
Ind enture
er k
ĠW es
Benef it
u ition
Ġreli ably
ist ory
ĠC a
Ġaccompl ished
Ġex h
ĠB GC
ĠSHAREHOLD ERS
ĠGriff in
g A
ĠO s
Ġshort age
Ġoversee ing
ĠCont ent
h ome
ĠV ideo
ĠMark s
Ġstr ain
Ġ($, )
Ġcru ise
ĠAP SC
ĠEvers ource
ĠDisc retion
arma cies
ĠL ab
( .
ĠSpr int
ĠS und
c a
ĠL in
ĠFore st
TR OL
Ġsc ores
ĠM SA
Ġdomic iled
ĠC IT
ĠO cean
ebr aska
Ġint ens
ĠS K
LE ASE
Ġaffirm ed
SC O
Ġcre w
Ġforfe it
ĠDES CR
Ġfree ly
Ġin tentions
ren e
uc le
Ġfulf illed
h are
or ti
Ġar gu
ĠH am
ĠAc ad
Ġindemn ifying
og ene
Ġstrateg ically
QUID ITY
C Y
u ance
FI RST
ĠS ole
act ing
Ġencumbr ances
J ECT
Ġsome what
ĠSix th
Ġoccup y
lev ard
mar ized
K NOW
Ġbroadcast ing
Ġcompound ed
ĠSpr ings
Ġforec losures
Ġch air
ewel ry
ĠH ug
Ġ() .
ARTER LY
P arent
EX ECUTIVE
ĠPER FORMANCE
coun try
ĠIndones ia
ist ers
Ġoutsour ce
GC L
Ġinhibit ors
Ġun clear
ĠPRESENT S
ĠCO UR
Ġar t
ĠCon sider
person nel
ĠN av
IZ ATION
ĠAMERIC A
ĠPrac tice
Ġsens ors
Ġun adjusted
ot s
Ġspecial ists
Ġalter ations
ĠMarket able
Distrib ution
Aust ral
av ors
ac erb
ĠAss igned
Ġinter vention
eff ectively
ĠFlo ating
ĠDev ice
ĠP ul
ĠEur os
ĠColomb ia
Ġve ter
ĠM R
d em
Ġaggressive ly
ĠAF S
l ength
ĠPer u
Ġcont rovers
Ġdynam ic
Ġspec ies
pr iced
Ġamortiz able
k et
ent ech
Ġconcent rate
N N
o o
ph a
Ġintr a
Ġdup lication
Ġbreak down
s ection
ic ts
Ġintrodu cing
M ARK
ĠCR Os
C LEAR
ĠAtt achment
rit z
A ward
Ġshortf alls
Ġinstall ations
ĠRep ayment
ĠR oll
Ġag o
market able
om y
C om
Ġunivers ities
imb ursed
ite es
incre asing
ĠWe alth
Ġoptim al
ĠK CP
ĠAddition s
ĠSimplif ying
vi e
int ended
ĠMan hattan
ad vert
ĠT arg
ever theless
ĠAuthor ities
Inf o
Ġrigor ous
ĠCor ning
interest ed
ĠIntermedi ate
Ġsil icon
Ġelect ing
Ġcompeti tiveness
Ġdowngr ades
Ġdifferenti ated
li a
ĠSP EC
Ġe astern
Un ivers
net work
ĠPROVISI ONS
O p
Ġf ires
ĠCar lyle
ĠE STATE
ĠH amilton
Z A
ĠRe ad
Ġjeopard ize
Ġun rest
as tal
ĠGo ing
Ġb urn
b illion
s ch
ro gation
ĠH all
Ġro unded
id ian
ip ts
Ġprom ised
AR DS
ĠD M
C or
here by
ĠRenew able
ĠM es
Ġoverr ide
Ġb an
the s
l isted
I d
e ved
Ġgall on
Ġa ug
Bl ack
N AS
b m
Ġli ver
ĠDE BT
Ġre aches
ĠST R
take over
ĠC CR
trans mission
ĠA uction
Issu er
) -(
Ġdiagnos is
Ġman ip
U tility
ĠChe v
ĠGr ace
pr incip
v r
ĠX L
D EC
ĠWh it
Ġadministrative ly
Ġdilig ently
Ġsubpoen a
Ġsupplement ary
ĠC AM
as il
ĠDec laration
Ġ.% ;
om an
SE L
ĠV AT
I OR
main taining
Ġhospital ity
ĠSP E
Ġdi rective
ĠBarcl ays
ĠS ul
Ġatt ach
Accru ed
Comp liance
ne goti
e ven
ĠInter bank
Ġcontact s
Ġcontr ast
ĠF ul
Ġsuccess ion
Ġgr and
ĠBro thers
Ġdatab ases
ĠRE O
represent ing
rest ruct
ĠPat rick
Ġsyn dicate
Ġw ishes
Ġhome owners
ĠSatur day
ecti ous
Ġ ec
Ġemplo ying
Ġnecess it
ĠL od
TI CIP
Ġnor thern
ĠC SP
D OCU
Ġmat ched
Ġrem itt
ĠUn registered
F P
ĠCo hen
NA U
ĠE mb
th ur
A CC
ĠFre ight
ur gical
Ġm agaz
Ġdescrib ing
Ġsp aces
ĠKn ow
ĠH ol
ĠWork s
ĠEar th
ĠMac au
ĉĉĉĉ ĉĉ
enn is
ĠD D
Ġp ivotal
Ġrefund able
c arry
n ame
ĠJ anssen
ĠRESTRIC TED
Ġdis allow
Ġpresum ed
ograph ics
Ġint ents
ĠHed ges
ĠG D
ĠK im
Ġpump s
Ġc ame
ĠS IP
ĠBou levard
ĠEx clusive
ĠRel ationship
ĠNon interest
Y Q
Ġprescrib es
Custom er
ĠH ub
ĠM H
Ġa rose
gener ating
ĠGSE s
invest ors
Ġbl ack
Ġpath way
Val uation
Ġoccasion ally
Ġelev ated
l ining
ĠHead ings
ĠTER MINATION
cul ate
Ġp etrochemical
ĠK il
ĠBax ter
ĠT ex
Ret ail
ĠHeart land
. ).
se ek
ĠIntegr ation
SU BS
Ġnon cash
itts burgh
Ġcounter claims
gener ated
Ġph ones
ess ed
ĠIF RS
Ġbi ologics
ĠA DA
r ating
ĠAPPLIC ABLE
Ġoverdr aft
re quent
Ġmor atorium
W O
c ard
s enior
Ġsign als
ĠPharm acy
ĠMat thew
G l
Ġs l
ĠR aw
ici ency
Ġperf ected
Ad vertising
provid ing
ĠO UT
ATE R
ib b
Ġanti dilutive
Ġgr ain
ĠC AA
Ġinstru ction
ly n
te enth
ap ture
S al
Ġenc umber
ret t
Ġp ict
ĠR anch
Ġrespons ive
ĠDisposition s
S ome
Ġ" ),
ĠK ap
Ġs outhern
Ġlease back
ĠH H
ĠCERTIFIC ATE
ĠUN IT
P ay
d ates
oli v
ĠS TE
mon ia
ĠW R
Ġdifferenti als
ĠSil icon
Ġdeducti bility
k ickback
AS S
Ġvis it
initi al
adjust ment
comm itments
fund ing
ĠTax ation
ĠLabor atory
f oot
Ġh os
Ġaccess ed
En d
ĠConcer n
on to
Ġdifferenti ate
ĠW P
ĠPh illips
Ġtrans it
ĠSab ine
Sub ject
ĠTh reshold
re fer
ĠB ak
O hio
ĠAm er
ĠSub tenant
respons ible
ĠL ive
we ight
ĠC leveland
Ġn ominated
celer ation
Ġc ents
Ġco ordination
Ġmet ab
Ġamount ing
ĠSublic ense
Ġph armacies
ĠGr an
disc losures
J A
ond s
Ġred esign
oph ysical
Ġprot est
Ġex acerb
NY SE
Ġun anim
contin uing
C y
trad itional
ĠC ET
ĠC lick
) ).
here of
n ational
de z
Ġ ********
ĠE t
ĠAmeric ans
M aster
Ġre ve
ĠN BC
ad v
Ġloc ally
Ġsw itch
Ġendpoint s
u ff
ĠMain e
Ġt enth
ym metric
Ġround ing
Ġsam pling
Ġarr ive
ĠAlex ander
[ *]
Ġ __
Ġrefer ring
Con n
ĠAM C
Ġvir us
Ġcircumvent ed
Ġ($ )
ab bi
Ġautom obiles
e ased
TH IS
ĠACCOUNT ANT
ol ated
ĠRes erved
Ġcredit ing
Ġpro cedural
can not
ĠEM C
TI T
qu ef
T her
Ġoff sets
off ering
ra ud
r ise
ĠContin uous
Ġansw er
ĠR am
Ġel apsed
app eal
Ġvacc ines
ĠUncertain ties
ĠF ast
Ġsp ring
h man
ind icated
Ġalig ned
ĠSub less
Ġdimin ution
Ġin advert
Ġtow ers
Ġcamp us
-. (
m z
Ġsel ectively
c overage
Ġintr astate
ĠDEFINI TIONS
Mex ico
Ġg et
Ġease ments
ĠEar ned
Ġfluctu ated
ĠN ebraska
Ġadhe rence
air y
I MS
Ġdealership s
ĠL ast
contrib utory
fr aud
Ch ar
Ġstr ikes
ĠAl t
Re presents
Ġweight ing
ĠAlternative ly
Ġp i
Ġcompati ble
T X
Market ing
ĠRECE IV
Ġconfig uration
ompan ion
Rec e
Li ability
ffici encies
b ell
F E
Ġch ips
Ġbr ings
Ġb irth
por tions
Ġs olvency
Ġorigin ates
c ol
ĠBe low
B ASED
ĠTh rift
ari a
u a
Ġundr awn
TI M
BAN K
ĠConcent rations
Ġprincipal s
ĠTr ig
focus ed
ĠOut look
M c
Ġs inking
Oblig ations
ĠL ONG
br and
st orage
Con sumer
Ġgrant ee
EM PLOY
Ġwe ar
Ġdeclar atory
ĠChan cery
ĠInter company
Ġlif estyle
ac cum
Du ke
ĠF ICO
ĠConserv ation
ĉĉĉĉ ĉĠčĊ
ĠT ian
R est
U ATION
ĠE G
ĠAward ee
Ġconstruct ing
ĠTim othy
Ġmanif est
G ain
Ġw all
Al so
ĠLew is
ĠR V
ĠPr int
ĠMod ern
Ġinstru mental
aw ard
Ġinvestig ating
C B
enti le
ĠWrit ten
ĠE ither
inan cings
ĠPURCH ASE
ĠAl leg
ĠSub sequently
ĠW olf
Ġreserv ing
ĠBack log
ici ous
il ateral
reg istration
ch or
ĠRet ained
Ġsyn dicated
me eting
i end
TI CE
ĠT A
rep urchase
Ġco h
ĠInves tig
____________ ___
Ġreclass ify
Ġevent ually
ĠP owers
Ġrate making
ĠAdvis ers
Ġforecast ing
Ġsugg est
lock s
ĠMc f
ĠB ern
Ġrem arket
ĠForfe iture
ĠREQU ESTED
Ġsche me
ĠS on
ĠGR ANT
ĠRed u
ĠN ich
avor ably
fere es
Ġcons ensus
ĠMajor ity
ĠC OL
ĠCal endar
Ġdi etary
IGH T
Ġsubject ed
UM UL
Q g
is hers
de v
ĠP op
umer ous
b orne
EN TER
perform ed
ET O
ĠApp alach
ell ate
j l
ise ase
under lying
Le ased
f ound
ĠMount ains
N os
ĠT al
Ġz inc
Ġtrail ing
ĠEst ablis
ĠNote holders
ĠMaster Card
m Z
ĠC ru
ch artered
ad option
let t
ĠFund amental
Ġbudget ed
ĠO G
A ir
R w
str ong
exp osure
Ġch ild
estim ony
g Y
regard less
AN IES
Ġb act
Ġin sider
te le
al o
ass ign
B z
ĠRIGH T
ĠUn like
Ġdep ress
ĠAG ENT
ĠAn thony
Ġbios imilar
Ġprom ise
contrib utions
Ġrevers als
ĠWeb ster
Ġinduce ment
Emplo yer
ĠW PD
ĠJ u
um es
Ġabs orption
ĠP ound
w en
ĠK ar
im ension
r ies
Ġdifferenti al
ĠAbb Vie
ĠSEG MENT
aff irm
Ġwh y
AN SITION
Ġo we
Ġtr ained
Ġhereto fore
ĠMin istry
ĠTelec om
acc ounted
k ing
ro ck
osp ice
ĠH oll
ari ally
Ġset off
Ġg ate
Ġsched uling
L aw
ĠS ant
Ġy en
ĠIn g
Ġtrad en
Ġbatter ies
s N
lic ated
Ġexclus ions
Ġsubsid ies
ĠT es
peri enced
WS M
ĠCli ff
DOCU MENTS
M any
ĠR ollo
we et
utiliz ed
ĠSp onsors
DI TIONS
ĠCapital ization
itic ally
W ILL
ĠHistor ical
Ġinf ections
ĠUSP TO
a ion
part nership
ra ig
Ġem erge
Ġconce ived
ĠSt and
af ers
t echnologies
ENS ES
ANE OUS
Ġreal izing
Ġanim als
IN TER
gor ith
Exp ected
Pro c
Ġres ume
eff orts
ĠCons ists
OT HER
Ġaccumul ation
ear ing
ĠR un
ĠKen neth
igh th
Ġweb master
pro prietary
ĠCONS TR
K ickback
Ġcir cuits
Ġarr anged
ĠY OU
Ġh ab
is ure
ĠAC TION
Ġballo on
ter ior
Ġam en
che ll
Ġpre cious
Ġpred ecessors
Comp ar
ĠB id
Ġdraw ings
ĠN CM
Ġch ip
m ra
Ġvis its
ĠDe er
C AR
T AL
Ġch arging
C ayman
ci a
J AW
em in
D WP
particular ly
BA Q
Ġrecre ational
Ġrefer rals
ĠPubl ishing
D ER
ĠF X
error ism
# #
ĠN evertheless
Q AB
Ġhydroc arbon
M ain
N ING
AV t
ĠSu isse
ĠChe ck
G jl
w gs
w Rw
Ġremo ving
Out standing
Ġpayout s
ĠOpport unities
mz T
f DS
Ġ. -
Ġtermin ology
vr z
g wC
As ymmetric
MD t
ĠT WSM
TIN en
tw IDA
ICA fDS
ĠMF gwC
EV Qg
vd TINen
oa MDt
KK AVt
LAD bm
KX mZ
XM mzT
Wy KXmZ
YZ mra
gA wRw
YQ aion
dez XMmzT
gY EVQg
Bz YZmra
sN KKAVt
JAW sNKKAVt
DWP oaMDt
BAQ ICAfDS
Gjl WyKXmZ
wgs DWPoaMDt
vrz LADbm
ĠTWSM vrzLADbm
twIDA QAB
ĠMFgwC gYEVQg
gAwRw JAWsNKKAVt
YQaion wgsDWPoaMDt
BzYZmra GjlWyKXmZ
BAQICAfDS gAwRwJAWsNKKAVt
ĠTWSMvrzLADbm YQaionwgsDWPoaMDt
ĠMFgwCgYEVQg BAQICAfDSgAwRwJAWsNKKAVt
BzYZmraGjlWyKXmZ vdTINen
ĠTWSMvrzLADbmYQaionwgsDWPoaMDt dezXMmzT
ĠMFgwCgYEVQgBAQICAfDSgAwRwJAWsNKKAVt BzYZmraGjlWyKXmZvdTINen
Ġjurisdiction al
ĠF G
ĠHow ard
Ġforth with
Ġhelp ing
iss ance
ĠDEVELOP MENT
ĠSub stantial
at eness
ĠD PL
Ġtick et
Ġc ab
Ġconv iction
pr ivate
ĠT i
Ġcontrib utes
ĠMat tel
g ood
limit ation
ĠS av
Ġimpro ves
Ġreject ed
ĠMerch and
ĠTECHNOL OGY
H P
Ġr ural
Ġmis use
ren gth
echan ical
atin um
m outh
Ġbi odiesel
ĠEar n
guarant eed
Ġforec lose
Ġoblig ate
ol en
R o
Ġfurnish ing
Ġdisru pted
re vised
if ur
bor o
re ens
exerc isable
Ġreconc iles
TR A
ĠMar c
c over
am endment
ĠĠĠĠĠĠĠĠĠĠĠĠĠĠĠĠĠĠĠĠĠĠĠĠĠĠĠĠĠĠĠĠ ĠĠĠĠĠĠĠčĊ
eti tions
ĠGuid ance
m ile
et ric
Ġg ave
ĠEx perience
ĠCon c
Ġre position
poss ible
ti a
ĠS ET
the m
Ġrep r
S an
P e
R x
Ġcardi ac
I AM
ĠColumb us
termin ated
NAU DITED
Ġc red
Ġpl ate
Ġlegal ity
ĠL ac
Ġm ic
ad os
ĠF leet
Ġdeposit ary
ĠBu y
ĠD yn
Ġdem ographics
cy cle
Ġh ouses
Ġass isting
ĠIN T
Ġassemb led
Ġpl ays
ĠGu ide
ĠBu ck
Ġw itness
tic a
I RS
Ġ-) ).
ĠQU ARTERLY
S ever
Ġro ute
Ġp eripher
PR ESS
ici ary
S ER
As so
Ġclos ings
Ġprosec ute
ind irect
ĠP ritz
ĠChris ti
ĠAR C
Ġhost ed
ĠTh an
Ġengine er
tr ia
H olders
Ġco ordinate
ĠConflic ts
ĠV M
Ġexplor ing
ĠConsolid ating
ĠM erg
ethe less
M anufacturing
ĠU s
Ġtransact ed
ĠChe m
ĠImp airments
toc ol
Ġd ining
Ġanalyz es
ĠP ioneer
ĠEl ective
Ġsupp lying
C ity
ĠI DA
Ġsp ill
Ġor ally
con tain
ĠB bl
Ġmo dule
ĠU GI
Ġmedic ines
Ġ% ;
ĠCost a
ie re
ĠBe h
ĠLaw rence
Ġsal t
Ġdecid ing
ĠT ob
Ġt i
ĠNA IC
ĠOrig inator
con sum
H igh
e lement
ĠM t
Ġrat able
Ġa lien
Ġtw ice
Ġchem otherapy
ter ran
author ity
Ġrepe at
Ġden ying
c ision
Ġmolec ules
ĠAR R
ĠCOMP ANIES
Sh ort
ĠFeder ated
Ġnutr itional
d ig
ĠT a
ĠS truct
Ġcond ominium
E BIT
ĠUnder writ
ĠHolly wood
ĠGen entech
Pro gram
ac quire
Ġsyn dication
Ġap portion
mat ters
Ġillust rates
Ġturb ine
th reat
ied mont
se x
he m
w orld
Ġc ounts
ĠR apid
con fidential
disc ussion
ĠHar vard
Ġdr ives
ĠBr un
there to
Ġpul p
Con struction
respons ibility
Ġp ari
rit erion
Ġdisb ursement
ABIL ITIES
ĠR ow
cr imination
ĠL ig
ĠRe vised
ĠProvid ers
AP E
Ġsub missions
ĠV it
Ġfluctu ating
Ġcaution ary
ĠHil ton
ĠDIS TRIB
Ġun proved
Ġexplo sion
Ġlands cape
F M
NAS DAQ
inte llectual
ad s
ĠL if
coven ants
Ġinc idence
ĠV in
Ġm ills
x k
ĠWend y
Ġinflation ary
Ġf o
We ll
Ġconsolid ates
Ġassemb lies
ĠUnith olders
end ant
ĠIn land
ystem s
ain er
Ġendors ed
ĠCel gene
Ġd er
ogen ic
f ication
Ġco s
Ġst amp
ĠBru ce
Ġcl ubs
Ġc ul
Ġthereto fore
ĠLi kewise
Ġcom fort
Ġdecl aring
Ġon es
Ġrefr ain
s al
ĠLe v
UC TION
anufact ured
ounce ments
ĠNA I
ĠMerch ant
fr ame
Ġco d
Ġun necessary
Ġstruct uring
cons isting
Ġdraw ing
ĠT L
opportun ities
Ġmulti employer
ĠB etween
ĠPur pose
ac tical
Ġmis representation
ĠTele vision
) -
Ġnon cancelable
r idge
aho o
Ġs now
Ġt er
Ġfig ures
Ġup per
ĠIn stance
dec line
ĠTelec ommunications
Ġdiscip lined
ub le
insure r
C ell
exp ressed
Con trib
Ġnet ted
Ġtelec ommunication
Ġrepe ated
ĠOff ices
z ed
ov us
Ġd ict
ĠBay er
ĠAl b
vol atility
f ar
ĠPerm it
med ical
Estim ated
sub sequent
ĠH ECO
Ġtow er
A ut
id ual
IT TE
ĠD ynam
Ġinc on
ic ker
rich ment
roll ment
Ġrest ored
cons istent
ent ry
h o
ĠL IB
Ġtrans form
equival ents
w a
ĠVo IP
B asis
person s
Ġbl ended
coll abor
Con cent
Ġt estimony
Ġl ux
diff erent
al lotment
ĠV ista
B O
ĠFund ed
ĠBENEF ITS
Ġbund led
ĠP UC
represent ed
ĠPritz ker
d n
Ġlay er
c fe
Ġplay ers
osph ate
Ġquantif y
Ġstabil ization
z ech
ĠM ason
disc losed
V ol
Ġdisproportion ate
ĠJO BS
ĠC I
serv icing
Ġbre w
Ġmaterial ity
ĠSche ma
EC TIVE
uncertain ties
Ġpostp one
Ġmod ifying
Ġrepatri ate
heim er
Ġconstit u
Off ice
ĠJ un
ys is
Ġd ensity
F ailure
ĠProvid e
TIC AL
Ex t
G erm
S M
Ġactu aries
AM END
Ġcy bersecurity
Ġdemonstr ating
Ġopp osite
Ġver ified
IC ATIONS
g le
ĠAn ton
Pro vision
ĠCon duit
ĠArm y
Ġpursu it
or ity
ĠLe hman
Ġexpans ions
Ġc itizens
att acks
Ġp ig
Ġannivers aries
Ġn iche
ĠAD MINISTR
Invent ory
Ġnever theless
m erger
p ared
ĠM IN
ist ol
appro ve
ĠWare house
ĠC rown
ust er
Ġcond emnation
tim ore
Trans actions
ĠFH FA
Ġcon cludes
Ġcomb ines
ĠV ision
ĠN ielsen
ĠPer petual
hod e
Re volving
AR s
ĠEngine ers
ult in
Ġradio active
Ġis olation
vent ure
ro st
IN A
ĠEx port
IS ON
ount ain
Ġrecord keeping
de p
Ġende avor
Ġwork place
ĠC EC
ĠAD V
ĠHV AC
supp ly
fore going
c at
Li abilities
ĠRollo ver
ĠOr th
Exp enses
ĠA IR
Ġj et
AP P
anticip ate
istr ict
ĠB inding
s olicitation
ĠAc quiring
pat ented
F N
ĠM I
m erg
in ves
ĠB a
Ġpre fer
Ġtransaction al
ĠImplement ation
Ġclin ically
Ġro t
ĠPhil ip
Ġsett ling
ĠB A
Ġfulf illing
Germ any
yst one
Ġopportun istic
ĠGO OD
ĠCredit ors
AN TIES
Ġne utral
Ġeffect ing
Ġoverse es
accum ulated
ĠTur key
profit ability
qu a
Ġmarg inal
Ġclar ity
ĠIm aging
re quest
ilit ary
Ġ( ,,
ĠE EA
ĠVi ew
Ġm el
Ste p
ecur ring
Ġk its
ĠINTERN AL
ĠT itan
ĠOcc idental
p ack
Ġsw ing
N P
ĠW i
ĠBuild ings
ĠSUPPLEMENT AL
ĠCan yon
ultin ational
ĠG LOBAL
Sub sequent
Ġformul as
Ġbeh ind
Ġgain ed
ĠCar ib
r ules
ey ond
erc ury
Un less
Ġbank ers
it ech
c andidates
Ġsci ences
k o
Ġform ats
me ga
ĠJeff erson
ĠCom erica
M s
ĠMet al
ĠSub stances
ĠStr ategies
ĠRep urchases
BER T
cell us
ĠSh ire
land o
Ġt uition
p o
ion al
Ġfood s
ĠA E
Ġcaution ed
Ġor th
ĠSel f
ĠB MS
Sm ith
ĠVenezuel an
Ġse venth
j urisdiction
Ġcont amin
SUBS IDIAR
ĠL ane
M obile
ĠRef lects
ĠMur phy
T echnology
diffic ulties
orig inal
el and
ĠSe ab
Austral ia
ĠTown ship
ĠHigh ly
ĠASSOCI ATION
def icit
e fficient
ĠRes ignation
Ġsub prime
P olic
ass emb
Ġref urb
Ġhard ship
Ġtask s
ce ptions
ĠNor way
inte gr
Ġtrans formation
ag ue
ĠB cf
Ġab ilities
Ġdetri mental
ID E
Ġpe ers
os a
Ġunder going
In iti
Ġfurther ance
Ġpresum ption
ĠV P
invest ed
ĠApproval s
parti ally
L itigation
ĠActu arial
Ġs od
M ont
or ia
ĠM anufacturers
ĠComp onent
Ġguid eline
CELL ANEOUS
a grees
ĠAn other
Ġbox es
Ġb ifur
Ġwareh ouses
as suming
ĠH ung
Stock holders
al tern
ĠJ o
Ġc ounted
ĠV essel
ĠK WH
Ġtrail ers
ĠAd ams
ĠOption al
ab y
IR D
ting ton
ĠP EN
ĠCredit or
ĠEn cumbr
K D
Ġpro active
ten ess
F DIC
ĠS en
ad min
iv o
pay ers
a utions
ad ian
led e
ĠSeason ality
ĠEn do
ĠK le
le ep
Por tions
ĠM GP
Ġmed ically
ĠE ver
Ġclar ification
Ġpass es
ed ic
f lo
Ġattr ition
ĠL isting
ogene ous
s igned
ĠN ash
C ore
Ġsystem ic
ĠA BR
Ġimproper ly
Ġdist urb
qu es
ĠBlo om
Ġdi rec
a vis
contract ors
ĠH and
ĠRES ER
Ġtransfer or
Ġmeth ane
M W
ĠB AS
Ġfr inge
ĠK G
Ġdis till
LO ITTE
se ason
Ġunf avorably
ĠM ission
ĠN el
ĠSuper fund
Ġse vent
Ġf ax
sid ers
ier ra
ĠL ind
x on
f oreseeable
Ġal tered
Y ING
act s
o ch
Ġm emorandum
Ġm akers
ĠOF AC
ĠF OL
Ġcut ting
ĠP atients
ĠQu est
Ġarbitr ators
ĠU T
Ġ-- ,
V ari
Ġappropri ateness
Ġconserv ative
ow der
UR N
an alysis
Ġmat rix
ĠCON SOL
ĠR ober
G reen
Ġcorrespond ence
emor ial
ĠF AA
ĠJ am
ĠC RI
ĠQUAL IF
ĠBer k
ĠF isher
Ġtop ic
L oc
AN K
Ġresc ission
ing led
h ire
en z
ĠS MS
month ly
r us
Ġair port
Ġw afers
Ġg ather
ĠCoun ties
Ġimp lications
Ġins ight
ĠVal ues
c losed
Ġoxy gen
e re
op ening
ĠP iedmont
rep resents
ĠS co
Report ing
S ON
ĠACC ORD
ĠU P
Ġatt ended
Qu arter
Ġr amp
ĠB DO
Ġal gorith
ĠE cho
ĠFIS CAL
Ġins ulin
ĠApp eal
ĠX I
ĠBr asil
Ġdeal ings
T reasury
Ġlo ading
Ġab atement
L etter
ĠMotor ola
ĠS aaS
other s
eu tic
Ġrespond ed
princip ally
ĠB arb
Ġ ========
Ġun met
ind ebtedness
Ġk it
J eff
ĠDen mark
p d
IS ING
Pen nsylvania
EC TION
c in
rec overed
Ġweak er
rant s
ol ed
part ments
Ġdesk top
ĠVol atility
che ck
Ġcr ime
Ġ) )
inc ur
ĠAS SIGN
Ġmet er
ĠR ose
ĠForm a
Ġcard iovascular
Con vertible
Ġs ave
ĠA k
Ġco atings
Disc losed
ĠForm ula
Ġdispos ing
UC HE
Ad justed
ĠREGARD ING
Ġregard s
B E
P osition
a greed
T N
sub ordinated
V ry
st orm
Ġsubsid y
Ġdirec tives
ĠPerm its
determin ing
Ġde vi
exp ress
Ġ$ ()
Ġbook ings
ĠPl ay
ĠON E
mon etary
Ġaccident al
con solidation
ĠSHAR ES
Un resolved
ĠProf its
us hing
o oth
resp ects
b ur
S et
H D
H istor
h azardous
ĠChar lotte
Ġent ail
B Y
ĠV ER
IP O
ĠRestric tive
Ġconstant ly
V C
ĠCON DITIONS
Ġp et
ĠEx terran
Ġpresent ations
Ġcoup ons
yl am
ĠREQU EST
Ġlux ury
ĠBroad band
Ġstabil ize
ĠC isco
us ions
C enter
es at
Ġposition ing
un eral
Ġbreak age
ĠR oss
ĠN R
en vironment
ENT URE
OU LD
Ġdep ressed
ĠPP ACA
ĠOr phan
mean ing
Ġeffect uate
Ġtotal s
z hen
ĠM N
ĠHart ford
Ġperson alized
Ġquot a
Ġin patient
ĠD TE
Ġscal able
j urisdic
Ġconclusive ly
ĠT re
sp ace
Sell er
ĠMMB tu
ĠL y
ĠB ow
Ġprac ti
ĠAir port
ĠD utch
ĠSub mission
ĠDe ll
Ġtoler ance
min bi
ick en
Ġrelinquis h
Ġam monia
ĠT rends
Ġoverr uns
str ategy
con sider
ĠD eep
ĠRoy alties
ĠSp irit
Ġmaterial ize
Ġmedic inal
Ġres istance
ĠPre ference
Ġpanel s
ĠMus ic
ass er
Ġharm ful
ĠCy cle
ĠR od
Ġapp re
Ġaggre gation
x ii
ĠUn recognized
un able
s ize
ĠRe leased
Ġnon forfeitable
Ġinst ant
ĠB arr
AN C
ĠO li
disc ount
Ġintention ally
Ġmat ches
ĠUr ban
M ary
Ġre valuation
ĠB NY
D el
Bl ue
ch arged
ĠPar is
atr ina
wh olly
E valuated
ĠĠĠĠĠĠĠĠĠĠĠĠĠĠĠĠ ĠĠĠĠĠčĊ
ci ble
ĠV en
comp lete
restruct uring
ĠRC RA
R ights
Ġrun s
instru ment
ĠReclass ifications
ĠHigh way
ĠF HN
Ġrec itals
Loss es
Ġupgr aded
Y ER
ĠW EST
ĠInd irect
Ġj ewelry
ĠRail road
Ġendorse ment
Lic ense
ĠStart ing
ĠSyn ovus
li van
Ġover time
Ġhy per
Ġsm el
ĠJ AM
PLI ANCE
ĠS onic
Ġp ick
L ou
P ayments
Ġpool ing
ĠT EN
Ġwrong ful
ric s
Ġsponsors hip
Ġcomprom ised
L UD
Ġturn around
ĠSund ay
Ġper c
occup ied
tre ated
Ġbal anced
________________________________ ________________________________
Ġcoll usion
g aw
Ġinser ted
Ġas phalt
Ġdowngr aded
Ġtemper atures
inc orporation
ĠDe le
, )
ĠCy ber
ĠMit chell
ĠELEC TRIC
S G
a ves
st op
ĠS AP
Ġseiz ure
Ġexhaust ed
re imbursement
ĠOx ford
vail ing
eric k
ĠDel ph
Ġneg ligent
Ġactu arially
get t
Ġrecomm ending
Ġw ound
proceed ings
Ġox ide
ĠM EAS
ĠUn restricted
ĠCONTR ACT
ĠMar cellus
ĠB D
B ay
Ġcoll ectible
ed om
Ġphr ase
ĠL END
Ġm ultinational
che ster
et r
ĠSw aps
recover able
Ġinf usion
um a
ĠH a
Ġsurv ivor
ĠHer itage
ams ung
Ne vada
ĠH ours
ark o
Ġspecial izing
imin atory
ĠHug hes
AL LY
Eff ect
ĠT ok
w ind
EBIT DA
ĠWARR ANTIES
if iable
rell a
Ġn an
S alle
V i
ard ian
ĠGUAR ANT
Ġsp are
Ġs lot
Appro val
ial ysis
Ġm alf
ĠVi olations
em erg
other mal
ĠTim es
ther ap
) >
Ġreal ignment
ard less
ĠEx erc
Ġdesign ates
Ġless ors
ĠB HC
Ġbarg ain
Ġhydro electric
Ġra ises
Ġsupersed ed
ĠSV B
ĠPROGR ESS
Ġon to
i ation
emplo yed
ok ine
NE W
re qu
Ġse am
o ti
ĠIm mediately
or o
ĠP ittsburgh
ĠTN MP
ĠProsp ect
Ġ" ).
ĠA z
Ġt am
ĠN ic
ĠRem ediation
Ġster ling
S uch
Ġrein stated
ĠDo D
rel ative
ĠRock y
ĠB aker
Ġswit ching
ĠRE TIREMENT
ĠIr ish
Ġtimefr ame
r ised
rem ain
ĠD TC
E ES
ĠD ar
ĠP anel
Ge orgia
ĠTr ack
ĠDocument ation
Ġaccredit ation
arrange ment
ED ERAL
Ġam plif
ĠA Z
Ġserv icers
Ġcat he
ĠT echn
Ġgener ator
Ġsubs ections
min ent
Ġel ective
C AP
Ġmed ications
Ġlev ied
Ġvac ancies
ĠTO UCHE
par ately
ĠAn ad
at ts
Ġop io
it ations
ĠCON SOLID
CER TIFIC
ĠH arm
Ġ( -
ail ed
Ġminim izing
ck er
ĠC BI
ĠM em
red e
IS DIC
st ores
Ġfr uit
Ġoil s
Ġstatis tically
serv ed
recogn ize
ch anging
ĠTax able
ĠBank ers
ĠComp etitors
Ġc er
ĠAn cillary
EP S
author ization
Acquisition s
ĠTr aining
Ġdishon esty
Ġbr ain
ath on
ĠLO ANS
Ġinc umbent
Ġcas inos
Ġbenchmark s
om er
ĠB ah
Incre ase
Ġperce ptions
ĠM unicipal
ĠTw enty
re cy
ĠP ending
ĠNotif ication
Ġread ers
enn ial
Ġmaxim izing
Ġmarket ability
ĠGrand fathered
ĠLI ABILITIES
c riteria
Ġpredic tive
ĠL ittle
ON Y
Ġclaim ants
tention ally
Ġc riterion
Ġadvis ers
lo ading
Sub topic
ĠDisb ursement
Ġsh rink
Ġsk ill
Ġco ordin
Ġz ones
ĠĠĠĠĠĠĠĠĠĠĠĠĠĠĠĠĠĠĠĠĠĠĠĠĠĠĠĠĠĠĠĠ ĠĠĠĠĠĠĠĠĠĠĠ
ĠShe ll
Ġconsum ables
ĠApp ointment
Ġoverr iding
d y
Ġsu d
B V
ph ones
ĠPar ity
PUR SUANT
ĠC ro
Ġim ages
ĠNote holder
ĠM ajeure
Ġmet ast
stell ation
ĠTor onto
y ou
Ġaff iliation
re r
ĠPort land
Ġsud den
A fter
o ing
voc able
ĠHV F
W ISE
V ES
he astern
AN N
Ġcomple teness
Ġeigh ty
E valuation
Ġc ompanion
ARG ES
se a
D an
ĠN TIC
ist ar
t esting
Ġsuit ability
ĠComp ensated
C ORPOR
Ġper quisites
ĠVir t
ast rop
l ake
ĠB on
ug al
ĠD uties
her ing
Ġto ll
con taining
or ial
ĠSt atis
ĠAff ecting
vari able
Ġvalid ate
ĠAchi eve
Ġtruck ing
In stru
Ġfluctu ates
Lou is
H ome
ad ministr
li able
ĠOff setting
ĠN a
ĠBr istol
O il
achi eve
Ġen richment
ref lected
Ġver tically
h i
eas ance
Ġtransport ing
Trans fer
Ġnom inations
isl ative
ĠDESCR IPTION
ad vertising
r aine
ĠAct s
ĠPerm an
Ġst olen
ĠEX PRESS
ĠB arry
ĠY ahoo
Ġreceiv ership
En ti
purch ases
L IBOR
in ib
Ġstabil ized
Ġmiti gating
Ġen cumbered
ĠR al
Ġs aw
ĠMo ore
Ġsafegu ard
T el
ĠDam ages
Ġgro cery
Ġdirect s
ĠK atrina
ĠFI X
Ġover due
ĠCh ain
ĠOn cology
work s
ES P
OM A
ĠG em
ĠApp rais
Ġth r
ĠAl tria
ĠAG RE
Ġsusp ected
L a
P ost
Ġce ment
Ġadj ourn
( .)
A ge
Ġviol ates
ĠRen a
ĠF ace
Ġlic ensure
ĠB an
de pend
ĠAllow ances
Ġrescind ed
ĠL anguage
Ġin appropriate
Ġpro state
f urn
Ġplas tics
ĠEd ge
c led
Ġass ort
Su per
ĠF en
Ġpoly mer
Ġincomp lete
Ġtr iple
A EP
ĠCamp us
Ġpredic tions
Ġmet all
ĠC SC
Ġfeed back
Ġs n
ĠCant or
Ġth orough
Ġresp iratory
ĠCOM B
ain t
Ġdev oted
ĠZ one
Ġcl awback
Ġaccommod ations
Ġcr itically
st ations
ĠRober ts
Dec re
ĠMarket place
cr y
Ġreturn ing
ĠAM D
N or
ed ing
ĠINT ANG
ob e
Ġunreason able
Ġp etitions
ĠSUB JECT
ĠAust ria
Ġnew er
IF E
ĠSHE ET
Ġwa iting
S ett
Ġmod ular
Ġsecond s
og a
N M
Elect ric
w art
ĠL earning
ĠUti liz
Ġve get
ĠCommun ication
Ref erence
Ġjustif y
ĠInnov ation
prot ection
ĠH or
clus ion
Ġcas ual
Med ical
I llinois
ĠAlter ations
ĠVac ation
ĠConsider ations
m es
l s
p les
Ġc lick
Ġoption ee
____________ __
EN CES
n ylam
ĠR ice
Ġinter connection
ell a
Sh anghai
at al
Ġsurge ons
ĠSur gical
Ġwill fully
ĠS OP
Ġunder funded
ĠKel ly
ĠO mega
Ġto oling
ĠDevelop ed
Ġcontempl ates
ĠT roubled
Ġrec apture
Ġbed s
Ġad ults
Inte llectual
ENT R
ĠWay ne
f erences
od ak
cancell able
d omestic
ange red
Ġmed ication
DA C
LA TING
ĠIND EM
ĠOr acle
man ner
ĠN G
Ġtrans ferees
eriz ed
Ġcall able
ĠA gr
Ġdram atically
ĠBack ground
Ġgovern s
ĠParti al
B G
b ody
ĠD ates
f ills
ĠSe venth
ĠA IC
Ġ qui
arr ative
Ġamb ig
Ġhand led
particip ation
Ġm ist
ĠRespons ibility
Ġdisregard ed
Ġalcoh ol
ĠT PE
ĠC ot
ĠH andling
ĠPark way
ĠJud ge
od ily
Ġcre ative
b el
ĠX M
H ong
ĠH MO
ĠD ol
ĠJUR Y
ĠCD Os
ĠHER ETO
Guarant or
ĠAMERIC AN
Net herlands
l andlord
Ġdes criptions
OL I
Ġdis agreements
wh ile
ĠĠĠĠĠĠĠĠĠĠĠĠĠĠĠĠ ĠĠĠĠčĊ
Ġul tra
ĠOr lando
ĠFil ings
Ġdirect ing
t roller
Ġpro gression
ĠThrough out
Pro ject
iend ly
ĠAnad arko
pos als
Ġ/ %
Ġpubl ishers
process ing
ors hip
Ġm m
ĠGrant ed
ĠCON TINUED
ĠTR IAL
ĠCLO s
old s
ĠLa Salle
Ġentr ies
ĠB all
ĠWind stream
compar able
R idge
Ġamortiz es
ĠP ast
Ġfacilit ating
Ġdup licate
Ġinsured s
Ġdefer ring
Ġass ay
ĠColl ections
b ed
ĠAM B
Ġencour aged
ĠOther wise
Ġsci entists
ĠB end
ĠV aR
Ġnewsp aper
Ġauthentic ated
OU TH
Ġsu e
ĠIn voluntary
ĠKr aft
ĠMulti employer
ĠPar cel
ĠS ig
ĠEn gineered
oper ative
ĠPAR TICIP
Ġun resolved
ĠCh ildren
ĠWA IV
termin ate
ĠW right
j oint
Standard s
ĠS ir
rece ipt
hen g
ĠS in
ĠAr c
C ond
project s
U B
De li
Ġgl uc
L ine
ro us
comp onent
Ġreposs essed
APE UTIC
ĠM KT
re lease
ĠG arden
ĠSul livan
ĠThe ir
UT URE
h ill
ĠA ero
M od
ĠEXP ENSES
x vw
Rec ogn
ĠC zech
ĠC TI
le b
Ġassist s
ĠS lo
Ġexplicit ly
ĠCH ARGES
Ġexpedi ent
ĠB aa
ĠTC JA
ĠH EL
Vir gin
Ġrep rodu
ĠAR ISING
o Gen
ĠDistrib utors
cast le
ĠOTHER WISE
mod ified
ĠBun ge
Ġrepr ice
ĠF ib
ot yp
im ens
Ġreg ime
B anc
d ict
Ġany where
Ġsp ills
Comm unications
p resentation
ĠAp ache
ĠDeposit ory
ĠG olf
Ġstart s
ĠCl erk
Ġbl end
Rec lass
comp ly
Ġ( /
ĠCarib bean
Ġconcer ned
Gener ally
ĠBal ances
Ġre locate
ĠWe ek
Pr inciples
ĠCon tr
ar o
ĠM anufacturer
Con dition
tract ed
ĠAl ly
ĠP MI
ĠRestaur ants
ĠMat urities
Ġcondition ing
un k
ĠDev on
Ġexec utes
ĠComp troller
Ġexcell ent
ol k
represent ations
row ave
P ark
c as
] ,
ak ness
C ola
ĠMS CI
Ġcompe lling
dr ome
ĠAnton io
APEUTIC S
J ose
Ġover come
An n
ĠGen zyme
Ġeas ier
ĠCAR OL
ĠWat son
l inary
ĠOp tim
Ġsc reens
ĠSurv ival
ĠP SU
ĠRe verse
Ġdefin ing
Ġresell er
og ul
ĠSub topic
ĠS amsung
os ion
Ġconstrain ed
ST OCK
ĠWA IVER
ĠPro tocol
ĠHun tington
ĠPerman ent
ĠS atellite
j in
ĠRegul ar
ĠSc ope
ĠBre ak
ĠGS WC
ĠGHG s
ĠEff ects
ir ty
Ġinter actions
r ad
id ney
ĠImp ro
cr itical
ĠPrim arily
Ġagree ing
Ġb ul
S un
Ġmod ifies
Ġinter bank
ĠLT V
ĠR ivers
ĠEx tra
pre vent
ĠM ON
bank s
IS O
et ermination
ĠAl an
AP H
es e
Ġdown load
ĠSP V
author ities
m anufacturers
Ġsan ction
e limin
Ġrollo ver
Ġw ider
Ġbroad en
ĠL ang
ĠJud icial
sever al
ĠDEF ER
cons titute
Ġun acceptable
ĠReg ardless
Ġop tic
Ġoccup ational
F ixed
ĠInter locks
occ urred
ĠF ocus
U NAUDITED
ĠIn tr
ĠCertif ications
amp a
ĠB T
ĠM EN
Ġ________________ ____
ĠAn g
ĠM AC
ĠDIS H
ivid ually
ĠGl en
f in
ĠChev ron
V IR
n am
ĠRE LATING
Ġinf ectious
ĠAtt n
Prem ises
Docu ment
ĠIncre asing
op olitical
LED G
ĠACCORD ANCE
Ġdisru ptive
Ġtend s
ĠN EP
res erve
ĠL au
Ġcomple tes
UL T
Ġg ender
Ġintermedi ary
ĠBroker age
Ġhim self
EQU ENT
ĠLac lede
ĠRy der
PR O
ISDIC TION
Ġcir culation
ĠGre ene
Ġo zone
Su ccess
ĠTRS s
ĠOak tree
Equi pment
U NE
Ġ urban
Ġlist ings
ĠF GL
du ly
Ġaccess ing
Ġdemonstr ation
R M
ĠRESP ECT
Ġbuild ers
. **
ĠF itz
ĠB ear
ĠBal timore
Ġc ustodial
ĠH ave
Ġm ercury
Ġcor rid
ĠN L
ĠEt c
Ġco ordinated
Ġw atch
ĠC AS
Quarter ly
ĠN avy
Ġextensive ly
ĠH ew
ĠSco tia
th alm
ĠEX ECU
ĠChr ist
ac tiv
Ġdown stream
Ġadopt s
f irm
Ġsh arp
Ġfe at
ĠL S
ĠSe parate
t est
Ġincap acity
ass igned
pl aces
D igital
US E
ĠTrust mark
ĠDisc over
H K
Ġhistor ies
ill er
ĠAR Os
w all
Ġcon du
f a
fe as
Ġconserv ator
exec uted
Ġdead lines
Ġre action
Ġartic le
W eb
Ġinvestig ative
ĠDesign ations
ĠOccup ancy
mit ting
exp ired
ĠTer ra
Ġmess aging
ĠCarr ier
p olitan
ap an
CE O
ĠCooper ative
ĠSAL ES
Ġhelp ed
ĠModern ization
ĠREG UL
receiv ables
Ġperc entile
ĠM aid
Ġm ortg
Ġar tif
Appro ximately
Ġst yle
Trans action
Ġ _
ĠE very
ince ption
ĠB rew
OR GAN
Ġyield ing
Ġad missions
function al
Ġdef ers
ĠEx it
ĠInd efinite
Ġbal ancing
Ġex ert
m id
val on
Ġrecoup ment
ator ily
li fer
ĠTr ue
ĠN NN
du ced
ĠDel ays
ĠG ames
Ġdec ides
ĠU NI
Ġw ent
ĠR P
Ġrein sured
Ġremitt ance
ĠW ASHINGTON
Ġform ing
se gments
Ġliquid ating
un al
D IS
ĠPal m
m osp
Ġrecover ing
mo il
cal endar
UR R
Ġprosp ect
Ġcor rections
AT T
ĠE ss
ĠB RE
Aff iliate
Ġh ospice
success fully
Loc ation
ĠC arry
Ġdisting uish
ĠĠĠĠĠĠĠĠĠĠĠĠĠĠĠĠ ĠĠĠĠĠĠĠčĊ
ĠE OG
Ġcap t
Ġactiv ation
M ogul
dig it
ĠM ills
Ġass ays
Ġdiss olved
est anding
cul es
ĠGreat er
evalu ating
Ġinter ior
kn owledge
Ġpropos ing
ĠNO TICE
ĠF alls
ĠPROCEED ING
ĠRe b
ĠN D
Ġ() (
Ste ven
RI OT
Ġinter action
Ġinter rupt
pat ents
link ed
ĠNe ur
time ly
arr ied
ĠMM cf
Ġmedi ation
L and
Ġp as
ĠS pread
ĠS ierra
ĠW u
Ġpre vents
ĠVal uations
b road
ĠAr thur
un ion
Ġim per
Ġlabel s
Ġilli quidity
ĠCenter Point
Ġshipp ers
at tel
ĠB AR
Pro ceed
engine ering
Ġent rants
Ġco ke
stru ctive
Ġattrib ution
Ġded icate
ĠR J
ĠPre cision
Ġge ophysical
ĠBAN CS
Share holders
diff erences
preced ing
aud i
Ġenj o
Ġden om
Ġun committed
ĠSAF E
verse as
M ac
or i
Ġexpect ancy
is ation
Ġlo go
Ġretire ments
ĠDec ommissioning
ĠHe re
ĠS qu
Ġrein statement
Ġphr ases
ĠT angible
Ġcomm ingled
Ġpre cluded
c aus
Ġf itness
Ġcapital izes
ĠExp edia
Ġdynam ics
ĠDet ails
ĠCop ies
prac tice
I TE
ĠTrans port
Ġsimplif ies
ĠTarg a
un te
il s
ĠSub ordination
ĠG C
ĠOn co
ĠAl lied
main tained
pen alties
ITAL S
Te le
SUBSIDIAR IES
em ble
Ġwork er
ĠWar ren
ĠP OS
Ġine fficiencies
ĠE limin
ĠLi ke
ĠM IP
ĠH EP
LUD ING
F SP
ear ly
F l
over all
Ġdr af
ĠDiscretion ary
ĠJ P
ĠLIC ENSE
l abor
ĠEd wards
Ġsu ed
ĠLIB O
Ġthere upon
out side
Ġdemand ing
ro e
IM CO
exp iration
Ġcat ch
Ġnomin ate
s il
ĠN utr
Ġpled ges
Ġstream line
J ack
is p
ĠAGREE MENTS
ĠPipel ines
Ġp ep
ĠRecover ability
ĠIDA CORP
Ġvulner ability
Ġprosec uting
Ġsh ock
ag encies
Ġphys ically
elect ronic
* )
Ġer osion
on ics
Ġnon payment
ĠAff ect
F H
ĠSC S
C umulative
Res truct
ĠSAL E
AM ERIC
al g
Ġhe ard
ĠClear ing
ar anties
ĠJ an
Ġro d
ass isted
Rec ently
me et
result ed
Ġdisb ursed
ĠRe habilitation
] .
ĠEV ENTS
ĠCF R
z er
ĠPhys ician
Advis or
Ġt issues
OR IDA
ĠSp eed
ĠIR B
ĠB ody
Ġrenov ations
Ġ ye
Ġpar ity
Ġrecy cled
Ġresign s
Ġdele ting
f iling
Compar ison
Ġinvalid ate
so far
ĠAl nylam
ĠCl in
Ġland fills
ĠCompar able
ĠD ennis
ĠNin th
P ort
Ġexplo it
Ġcollabor ator
Ġvalid ated
m and
Ġs ew
person al
ĠPep si
-.. >
ĠL ip
ĠR io
Ġsub rogation
ĠBank shares
Ġun cured
ĠRay mond
ĠRati fication
ĠMon itoring
ĠINV ES
ĠC raig
omp son
ĠEx xon
Ġ umb
bre vi
Ġjob s
docu ments
ĠK ron
ĠD ub
ĠO c
W EST
ĠComp lex
________ _
ast ro
orti um
UST OM
ĠAR I
Ġamen ities
Ġaggre gates
Ġachie ves
ĠH O
ĠP olar
ĠM argins
T en
Ġ ice
ati tis
Ġw id
success or
urren cies
ĠDe Vry
ĠCON SU
ĠConsult ants
Ġprom ising
ĠWal ter
ĠBC BS
M erger
ĠEX CEPT
mod el
ĠCast le
Ġgu ide
Pr im
p ine
ĠAr chitect
Ġtheat re
Ġhigh lights
ĠSal t
Ġstim ulate
Ġlic ensor
Ġdown s
ĠSh ore
N OL
Ġre volver
ĠTh orn
Ġfor given
ting encies
ĠWind ows
ĠJ CP
Ġleg i
ĠWill is
Warrant s
Ġb odily
ep tive
fact or
Ġval ves
F i
ĠH ov
Ġadd s
b all
Ġun patented
Ġch lor
ann ounced
Ġdiscontin uance
Ġly mph
er gan
eff ects
Ġre state
man y
Ġsubdivision s
ex perienced
ĠW el
ĠMATERI AL
Fact ors
ĠVehic les
AP R
ĠCar n
Ġh urricane
Pl us
Ġgr ading
ĠH CP
F inance
ĠTerad ata
LL ER
ĠSupp lies
ĠRem oval
Ġtight ening
ĠD oral
. +
ĠAEP SC
ĠBroadcast ing
are a
us s
ĠCLA IMS
an ish
Ġpossess es
Ġirre par
ĠRA TI
ĠIn sure
R ent
ĠAL CO
Ġtheat res
G O
t aken
ĠV ornado
sour ces
ul ating
Ġsafegu ards
Further more
atic s
Ġpatent able
ar on
ĠA st
ith ium
ĠD OT
ĠBak ken
L each
ĠS tip
Ġph oto
ĠINTANG IBLE
Ġm otors
ĠPier ce
Ġgeograph y
ub ric
ĠOut door
ĠM en
Ġescal ations
Ġadv ancing
Ġiniti ating
Ġex terior
ĠG ib
Ġdisclaim s
pre pared
U sed
ĠAg encies
ĠRE MS
ĠRE LEASE
Ġsustain ability
Ġcontrovers y
ĠF UTURE
ĠT EP
coll ection
un realized
Ġoil field
it ems
y cle
ag her
Benef its
ay ette
ĠC EL
ĠS r
Ġli tig
ĠComp lete
ĠG MP
ĠV F
f inal
Ġequi pped
ĠQUALIF YING
l arg
Ġasser ts
ĠTob acco
ĠDelph i
s maller
Ġth rift
ĠC oca
in et
Q S
ĠJ e
I ts
ĠB ET
ink s
ĠBANCS HARES
ĠG CP
ĠL uc
ĠSign atory
Ġ: -
ĠMerg ers
ators hip
Ġcontingent ly
ĠA res
Ġres um
Ġcollabor ate
T em
max imum
In dependent
A greements
att orn
Ġexpir ations
at ches
ĠL ad
Ġprogress ive
o ke
ĠR TO
Ġdi agn
del ay
do ing
disc ounted
ĠRich mond
ann a
TH OR
ĠSubs criber
ti lities
li x
arb ors
iz za
Ġup held
ĠCON N
ap es
ore m
Jose ph
ĠG ru
Ġcatastrop hes
P aul
Ġyear ly
Ġge oscience
ĠLevel s
Ġconsequ ential
D IREC
Ġo cean
op ath
Ġcoh ort
ay er
in ch
Ġrem anded
Ġm as
ĠApp lic
ĠRad ian
Ġprocess or
ĠHer cules
act ory
ĠSun oco
ĠT rop
Ġlev y
ĠOccup ational
ĠD ana
ĠFIX ED
tim ately
ĠCont rolling
R NA
Ġun encumbered
ĠEngine er
AT H
cure ment
y our
ĠOblig ors
Ġconcer t
Ġide as
Ġre jection
Ġh air
Ġ________ __
ĠAssign s
ĠProp ane
ĠCam bridge
Ġhear ings
ĠM AA
respond ing
Restruct uring
on der
rel ationship
itiz en
et on
Ġassign able
ĠGo al
ĠBr id
ax is
Ġdemonstr ates
ĠAM I
Ġwhere in
ĠLead ership
part ner
Ġdist ress
Ġgrant or
ĠRece ipts
CE L
Ġsugg ested
d on
ĠAr ts
ĠTr inity
Ġsett ings
ĠSUBS EQUENT
erv ing
ĠArr anger
Ġbelong ing
p atients
end ors
olic ited
Ġvol tage
Ġb arge
ĠCOM PLIANCE
Ġat taining
be half
Ġin applicable
ĠF iber
u pp
Ġrepl en
ĠCooper ation
Ġsh ops
Ġstake holders
S arbanes
ĠL ib
ĠHung ary
x iii
Ġ iii
Ġ- %
UR ING
le as
ĠMEAS URE
Ġexem pted
Ġfor bearance
ĠRati os
ĠF ollow
Ġtable t
ĠNi Source
ĠD ig
Ġwh ite
ĠChen iere
p illar
ĠMIS CELLANEOUS
ĠOR GAN
ĠOb ama
Ph arma
coun tries
ĠC ases
Ġdec ade
Ġdi rections
Ġstrengthe ned
ĠK E
ĠTel esat
specific ally
li p
ĠI AC
ĠRep air
ĠT om
Res erve
ĠBORR OWER
Ġexam ples
ĠEff orts
Cl inical
Ġelimin ations
ĠE le
ĠSe arch
Ġven ues
pl aced
ĠRISK S
ĠRena issance
ĠM CO
Ed ison
R ISK
Ġa griculture
Ġs ol
con ventional
ĠPP G
ĠF EDERAL
ĠC DS
Acc umulated
c hers
Ġe v
ĠD IV
ĠMe ad
Ġadmin isters
Mer ton
Ġfacilit ates
Ġappear ance
Ġoun ces
ĠGate way
Ġgradu ally
ĠSp ire
Ġapprais ers
em y
ĠHS BC
ing ham
ĠCon vention
our ned
ack n
ĠBut ler
ĠAckn owled
Id entif
ĠAnaly tics
of uel
ĠS CO
ĠIns olvency
ĠS ound
EL P
ĠPhys ical
ĠCent re
gor ge
Ġnot ably
Comm odity
Ġlibr ary
ĠT ree
F our
Ġhere unto
improve ments
ist on
Ġreact or
ĠV eter
R Y
as co
ĠSuper vis
( "
Ġantib io
ĠVAL UATION
ic ter
Ġmon eys
ĠSyn dication
ĠY en
Ġcigaret te
atisf action
Ġp ip
ĠD AV
in ability
ched ules
ici ally
tract ing
Ġtransl ate
che m
c amp
ĠMar athon
ĠD P
ĠCo ach
Ġtick ets
Ġbiom ass
pl ated
N atural
Ġan ten
ult ing
ĠSh a
ĠDE LOITTE
Ġimp uted
ne apolis
ĠCon vey
ĠN an
is a
lo gy
ĠT ank
I ED
Ġstead y
Ġl asers
Ġdo ors
ĠWe ather
Ġreli eved
Ġparen ts
ĠLeon ard
ĠT reat
Ġdr aws
in puts
ĠH HS
ĠDe pot
Ġlaun ches
ubs titution
ĠP ath
ĠSur vey
Ġaver ages
bro ok
Ġh oles
Ġacc retable
mon ary
ĠPay out
Virgin ia
port ed
Ġd ock
em et
Ġinvol untarily
Ġro se
are r
tit le
Ġperf ection
il ty
Ġge ologic
ack ers
ur acy
Ġupgr ading
Ġinform al
eri oration
Eng land
ĠDe alers
Ġaff ixed
ch lor
ĠComm encing
ĠMer idian
ĠTER M
O O
ĠApp arel
Ġvir al
Ġhar vest
No tice
the astern
Ġexting uished
igh ter
r atio
Ġalign ment
Rece iv
E ast
ĠSn ap
Ġrepatri ated
ĠF HA
ĠDis abilities
i ant
ĠC NA
ĠIm per
ĠCOMMUN ICATIONS
ĠD IP
Un its
Ġunder way
ĠGr amm
ĠWh olly
ĠFL ORIDA
ĠTH ENCE
ĠOper ative
Ġfraction ation
ĠCons ents
dil uted
cor ruption
Ġv ascular
sw ick
Ġgroup ed
Ġse x
ther net
ĠNew co
ĠSal aries
ĠPre liminary
app lied
Ġatt ending
ĠR hode
ĠSt ated
ĠR oman
Ġconform ing
om al
Ġe ur
ĠFact ory
ec ular
Ġaccumul ate
ĠF resh
T ec
ĠF ix
Ġdis par
Ġm ined
Ġexpir y
le asing
Ġmus cle
ĠG rove
ĠEx pert
ex d
ĠTR ANSITION
Ġl es
ĠEl ections
ad vance
te k
z o
ĠC ow
ĠAb ility
ĠTh ompson
ĠRe insurer
ĠN SP
Ġtur moil
ĠN eed
B i
ĠBi otechnology
ĠJUR ISDICTION
g ian
ĠSpec ifications
Ġinflu enza
in j
Ġj u
Ġassist ant
S olicitation
Ġout l
Bu ilding
ĠPROV ID
Ġemphas ize
TE L
Ġout lines
s us
Ġ. ................................................................
ĠH on
ĠMe asured
Ġinstrument ation
ĠKil roy
ĠS a
ĠL AND
App licable
ĠENTER PR
ĠCopy right
ĠIN G
C T
Ġassort ment
Ġcon duit
w ick
W ORK
em an
h aps
bro ker
ĠV ent
ĠTo ols
ol er
ĠFl ag
******** ********
ĠContin ue
supp lement
ĠSens itivity
ĠCommission s
Ġcompetitive ly
Ġnewsp apers
Ġvol unte
ĠO H
ĠCl ar
ivers ary
TR ON
re levant
ĠBr y
Ġd ress
ĠCH ANGE
os h
Ġconsider ably
Ġdeed s
othe by
Ġsub str
Ġgen es
Mat ters
ĠTher mo
Ġinv asive
ĠCed ar
Ġ. ).
commercial ization
Ġli ft
Ġprom in
L IN
Ġlegi timate
Ġhe m
ĠCos metic
B EN
ĠP IP
ĠRef inery
ĠReal ogy
Bl iley
con tem
Ġb us
Ġinterru pted
bo at
ĠL ak
ĠPr omptly
there fore
AL E
ĠImm un
quir or
Ġrep utable
ĠSc reen
Sec retary
T arget
ĠC row
preced ented
........ ....
Ġcarry back
Ġdistribut ee
() (
AT ORY
ĠG il
ater pillar
ĠCamp bell
Ġprot otype
ance ll
t echnical
Ġto uch
ĠAt tributable
Ġ(% ),
ĠOc wen
ĠElectric ity
Mary land
le ad
r ine
prof essional
Ġprem arket
Ġcontamin ants
Ġthe ater
ĠG H
ĠWITH OUT
Ġenvironment ally
N AME
ĠWithdraw al
n or
aw a
ĠCor ner
Ġr acing
pt on
le ast
ĠP etition
ĠL RC
Ġworth iness
ĠR ecurring
Ġprec autions
C s
ĠM G
Ġdiss em
Ġtrans plant
ig ration
Ġ ___
ic kn
ur t
ĠA ur
trans portation
Ġm ention
Ad v
om ent
ĠGr ade
ĠMc G
Ġpas su
Ġver dict
pro posed
Ġup coming
implement ation
Ġhome bu
ĠIT T
ĠRob inson
A b
Ġsub let
Ġsubscrib e
ĠSt ark
P erm
ĠTR A
Ġexcell ence
Ġmanip ulation
p olitical
is ability
rex on
ĠW ild
lo ugh
IL I
Ġvis itors
ul sion
Ġgradu ate
TI S
ĠT oll
Ġun availability
Ġle isure
ĠAC TIV
ESSE E
ĠItal ian
tron ics
$,, ,
val id
ĠOb jectives
Ġge opolitical
ĠTy co
Ġmineral ization
======== ========
ĠTok yo
ĠES TIM
ĠConn ection
ĠNU MBER
ĠAR B
del ays
Ġcamp uses
tr onic
Ġr iver
ĠPR OP
Ġhom ogeneous
re volving
ĠPer ry
Ġcent r
Ġstopp age
TIC S
Ġtr y
prac tices
ĠCarn ival
v able
ĠF u
ĠF iduciary
ĠCam eron
ĠBrad ley
Ġexport s
occ urrence
ĠASSOCI ATES
ĠR ents
ĠB ad
Ġapp ellate
ĠP FIC
x v
ĠR ather
art z
nan ian
h ol
om ial
ĠAsh land
Ġgradu ated
K e
ĠS audi
ĠO IL
ĠR T
ĠG EC
organ ized
ĠLI ABILITY
cent er
develop ing
Ġcat alyst
ĠP etro
d uty
Ġdiscontin uation
B ALANCE
iconduct ors
occ ur
Ġs ending
Ġviol ating
ĠCP I
ĠSeab oard
ĠNex star
Ġres ubstitution
Ġsens or
ickn ess
ĠO HI
ĠL um
form a
ĠReclass ified
u um
Ġsign atory
ĠAll ergan
ĠG ord
thr itis
System s
ĠT og
j o
Ġex ternally
ros is
ĠIn term
ĠMaid en
appeal able
Ġind etermin
ĠX cel
Ġin eligible
Ġdisclo ses
Ġpain t
ĠMonth s
D en
ĠWal ker
ĠRent als
-------- ----
a ment
ith metic
ĠF MC
Ġdis gorge
ĠTr ip
Ġcor related
ĠD ur
ven ience
particip ants
T im
ĠM OB
jurisdic tions
Ġm oral
ĠP ipe
and ong
ORT G
Fr ance
ĠRen minbi
AW ARE
ĠO pt
ĠK in
Ġgu ilty
Sc ott
X P
Ġstr icter
Cl aim
Ġlay ers
C V
ig m
ĠH istory
Ġimport ation
et her
M ulti
oper ational
ĠBu ff
Ġso ci
crip ts
Ġfe ll
Ġb it
ess or
S D
Ġintegr ators
super vision
IL ITY
distrib uted
Administr ator
am ma
TI G
Ġexplain ed
ĠP LA
ĠD isease
ĠPark ing
ĠKore an
supp liers
ĠPosition s
ĠC ry
pay ing
A IS
Ġp ol
m ans
ĠD al
Ġstr ati
Ġnavig ation
ĠHov nanian
ĠNOR TH
ch ron
con cent
C F
ĠS otheby
ĠMcD onald
Ġo mn
ĠH al
ĠK a
Ġ% -
ic ana
hu a
str aight
ĠNash ville
Ġp orts
ue led
M ember
b us
sour cing
Ġsu gar
Ġimp licit
Ġoptim izing
ĠF oster
C ourt
prior ity
ĠInsp ection
O f
e ared
ĠEnh ance
RE V
ateg ories
Str ategy
P otential
Ġbo il
m anufacture
ĠAppalach ian
ĠCOMM ER
osci ences
ph armaceutical
Ġwhere ver
Ġport al
ĠN SC
Ġreposs ession
ĠS ure
Ġinf requent
ĠBre ach
ACC OUN
ĠIn sured
Ġpay ee
ĠCOUR T
Histor ically
Ġro utes
yp ress
Ġrenew ing
Ġsub leases
Ġapprais er
Ġsign age
ĠCM E
ĠLouis ville
Ġprud ently
fr anch
Ġgrow s
Ġintense ly
ĠK u
ĠDam age
ĠScot land
ĠJO HN
ĠO mitted
K O
T G
ĠBur lington
op es
ĠMan ual
prof itable
Ġdig it
ĠAF G
Ġat mosp
Ġse at
oin te
ĠL at
un adjusted
worth y
un a
Ġfe el
i tives
Ġadj ourned
ant e
E W
S yn
Ġin h
ĠPar ish
ĠT EX
Ġge othermal
cons ist
Ġrele asing
T ier
Ġc ord
Ġh orse
ĠS CH
ĠD DR
ON MENT
ber ry
etro it
ĠRNA i
qual ification
Ġcontact ing
Ġcompress or
ĠCONSOLID ATING
ĠPas o
Ġv ital
Ġdec ades
Ġex ited
As ia
contrib ution
Ġrank s
Cond ensed
Ġwa iving
ĠU ser
ĠTHER APEUTICS
ĠAss istance
Ġequal ed
ad vant
Ġsequ es
Min nesota
d erivatives
Ġsp an
ĠB et
ĠHC V
ĠEnerg en
Ġpharmac okine
Ġshif ting
ĠAD P
admin istered
ar ising
ĠEx ternal
Ġbehavior al
p ly
Ġout flow
Ġfind s
ĠM ilitary
ĠL D
ĠSign atures
V ision
Ġreconc ile
ĠNel son
Ġmarket er
opp ers
Ġre ading
Ġv itro
Ġ--------- ----
elf are
ĠM aker
Part ners
gression al
ĠRe liability
ĠInc entives
ĠAfric an
ĠC IC
op en
Ġfinal ize
Ġlandlord s
Ġcont end
FOR D
Ġpenet rate
M ass
re imb
tim ing
SI P
Ġcarry overs
ĠTH IRD
in omial
j et
Ġp ure
M o
Ġdep ict
Ġab ide
in ally
ĠE is
invest or
n ature
ĠAutom atic
He art
Ġpump ing
Ġis olated
% )
J urisdiction
Q B
ĠP AA
lim its
Char les
ĠNich olas
n age
ĠInt rexon
ISI ON
ĠKap lan
ist ence
Ġpartner ing
ĠT W
ĠF AT
ĠSp anish
high ly
trial s
Ġp sy
su itable
anti le
if th
ĠThorn ton
share holder
part ners
ĠVM ware
ĠRal ph
am endments
omb in
ĠRet ainer
ĠExchange able
** ***]
contract or
Custom ers
Ġres in
Se ason
U X
Ġs a
ĠPSE G
g one
ĠAr t
vis o
ĠSecond ary
Ġf le
ĠN CR
ĠAcc enture
Ġar ithmetic
ĠRef und
I reland
Ġcho ices
ĠReg istry
Ġfl avor
is er
ĠQue bec
Ġdo or
M aterial
Ġtim elines
Ġpot ash
ĠPres idents
infr ingement
Ġgluc ose
y ard
Ġdis agree
of ten
ĠPre vention
Ġminim is
ĠM ER
Ġdebt ors
w ens
re a
Ġcomp lications
ĠG od
ĠH AR
Ġfeedstock s
Ġdeposit or
al location
Ġun planned
Ġph osphate
S ing
ĠCSP Co
ĠCM Os
ĠF ab
ro yalty
Ġdec eptive
ĠSurv ivor
Pr om
ĠCR M
ĠUP ON
Ġup stream
se parate
l ated
Ġactu ary
Ġflood ing
ĠCOP Y
Instru ments
MS A
ĠRe liance
Ġtoler ability
ĠP ear
Par ties
Ġdeterior ating
Ġde als
De velop
ĠOVER VIEW
R s
ĠCO VEN
ĠDe an
B anco
ĠB ail
ĠCH S
Man ager
h ard
Ġs ick
c ourt
ĠEncumbr ances
M ore
Ġsupervis e
I OD
a gr
ĠMED ICAL
Ġexplo itation
ĠG LP
co upon
Ġm ir
ĠEcho Star
Ġwind ows
Ġbond ing
ĠL EAS
________ ___
ĠJ ay
Ġhur t
n amed
i ro
ĠAccount ability
alth ough
comp uted
Ġ- (
ĠFron t
E UM
dep th
Y EAR
d les
ĠB enchmark
ĠAL J
m ation
ĠAn imal
Ġten ure
) *
ĠR osen
ĠM GM
ĠPAT RIOT
Ġre agents
Ġd erm
ĠAR P
ĠE PC
Ġdec eased
ĠE E
od al
Ġlink s
Ġat h
ĠA valon
ĠWhe el
y a
ĠS olution
ĠMc Gr
Ġun just
Ġfr ames
ĠAud itor
p ast
ĠH ur
Ġacqui ree
Ġgain ing
ĠRedu ced
y w
an i
Ġfunction ing
Industr y
ĠPERS ON
ĠG inn
app ly
ett a
Ġexception al
aw k
ĠRes idual
review ed
Ġperipher al
ĠH ans
B raz
on ed
Ġremed ied
ĠW GL
Ġrefr iger
ĠE thernet
v ine
ĠAppro pri
Ġn ight
red emption
ĠAC S
Ġoptim ized
Ġclos est
Ġseam less
ĠFac simile
Ġhe mat
ĠAT K
b ar
VA IL
Ġfil ter
Ġsty les
form ity
Ġid le
ĠG ent
ĠCl ara
ĠCOUN TY
Ġsevent y
Ġaw a
it us
____________ _
ĠIs is
en abled
FER RED
decre ases
ĠNI H
ĠD ee
ĠSim on
transfer able
assess able
Ġdis allowance
Own ership
ĠCliff s
ĠComp ass
Ġentit lements
Ġdis ag
Ġinflamm atory
alli on
ĠEmp ire
p etition
Ġr ub
ĠIN TE
ĠArr angers
Ġval orem
Step hen
ĠH oney
require ment
Can adian
Ġint ending
Ġep is
M ost
Ġren amed
.% ,
st aining
Ġbe er
ĠM PC
Ġnon public
Ġnat urally
ĠC USTOM
Ġr ace
Ġsupervis or
ĠH at
ĠCop per
I RED
h r
s mall
indemn ification
ic ating
ĠL abs
Per centage
ĠE IP
ĠDis putes
p age
pos itive
ER ISA
TROL EUM
ĠU PS
Ġ.% )
Ġun precedented
g om
ĠTR US
ĠSh op
al i
me asures
B ro
Ġencompass es
Ġpr on
av our
Disc ussion
Le ases
bor der
return s
Ġs er
ens ible
ĠFI FO
IN V
OR IES
Ġsh ape
a e
ĠCon current
ĠIC s
fil er
Ġcharacteriz ation
cry ption
Depos it
ĠW ang
own s
Ġneighbor hood
Ġorth op
N J
Ġtoxic ity
c v
n ext
ĠH op
av it
tig uous
Initi al
er ts
ĠSU PPL
Un ion
ĠCO S
Ġinter faces
Ġnam ing
AMERIC AN
Ġto wn
f re
D istrict
R en
ac om
Ġtax payer
Ġappre ci
valu ations
ĠMod ifications
ĠT I
am eter
ĠR L
ĠK y
ĠRec orded
ĠB cfe
ĠCard inal
ĠLI QUIDITY
ĠStud ies
ov ir
ĠH our
Ġ$,, ;
END IX
re quiring
Ġar ms
ĠW V
umb ing
il a
ĠEn rollment
Ġapp eared
ĠB OE
R SUs
c opy
ĠM LP
ĠK odak
ĠSte wart
Ġfactor ing
ĠLe ave
ĠOr al
Ġstr ip
ĠHun ter
A I
S oftware
stock holder
ec es
adequ ately
ĠT EM
ĠEv ans
ĠJ R
Ġshort ly
Tr ad
ĠI MAX
ol ate
ĠSPEC IAL
Ġdiss olve
U P
ater ally
Ġbo ats
Ġearn out
Ġcho oses
Comm erce
ĠOmn i
ĠIntel ligence
ĠSub landlord
id ium
ĠCh ap
develop ments
w alk
Sing apore
ĠPres cription
ĠB us
Ind ia
ĠNex tel
ĠT odd
gom ery
ST RE
ĠM EM
Ġdown time
long er
Ġadd itives
ĠKey Bank
C oun
Ġlap sed
imm une
ĠOffer ings
second ary
ĠGall agher
ĠKle in
ĠO E
ĠBar nes
Ġinstrumental ity
pl atform
erse gment
H O
am ic
Ġg ifts
gr ad
ĠIniti atives
Ġple a
astrop he
ob tained
ĠPB GC
l ist
ĠO B
Ġregard ed
Ġunderwrit e
Ġcharge backs
Ġreconc iling
ĠPort ugal
ĠO verseas
all ing
am ber
ĠSur gery
comb ined
ĠQ EP
Ġdeli ber
Ġle ak
Ġmetast atic
ĠR ig
ĠTr ail
ĠT ys
ĠM ag
ĠĠĠĠĠĠĠĠĠĠĠĠĠĠĠĠĠĠĠĠĠĠĠĠĠĠĠĠĠĠĠĠ ĠĠĠĠĠĠĠĠĠĠĠĠĠ
ĠT ampa
ĠIndemn itor
elect ronics
N ATIONAL
ĠC autionary
Ġpur ity
ĠA griculture
p ubl
Ġd airy
ab e
g lobal
ĠF CA
ĠG PS
Ġcomposition s
ĠPAY MENT
eri or
Ġw ild
Ġcatalog s
ap t
ĠKe ith
Ġalgorith ms
a ugh
board s
Ġrecon sideration
ind ex
uls a
ĠCOMB INED
ĠG lass
ĠUn vested
[ **]
Ġrec al
emark s
Ġobserv ations
inte grated
ĠR I
C ARE
distrib utors
Res idential
ĠT ender
ĠB urn
ĠMat rix
Ġstream ing
ĠDecre ase
ĠORGAN IZATION
ĠH atch
ĠStr ong
Des ign
un recognized
Ġconserv atorship
ĠG N
Ġag ed
Pl ans
Ġweaken ed
ĠPro jections
Ġopio id
Pr ivate
B ermuda
HER N
Ġst oring
ĠSh ield
if er
Ġaddition ally
ĠAs p
con c
ĠO ch
Ġ() -
WE EN
ĠAut hentic
ĠNon performing
ĠPro te
Ġcontin ual
ĠBoard s
M G
Ġre located
Ġprint ers
OU ND
od ore
Ġmark downs
ĠInves tigation
Ġhigh way
ĠGOOD WILL
ĠI H
ĠN AME
ĠP EP
ĠC Y
Ġe gg
man age
ĠM ortgages
Incre ased
an ol
Ġbrand ing
Ġaccount ability
Ġcollateral ize
F ees
ĠS IR
ges tion
bre ak
Ġtransition al
ĠDepos itor
Ġbo at
indirect ly
Ġco ating
Ġno ise
ĠAD S
c ate
T abular
Ġpay off
St reet
Ġde recognition
ĠScot ts
Ġbr ack
Ġcrop s
as able
Ġtrigg ers
l ared
ĠO V
altern ative
Ġs s
le ges
Health care
ax o
ĠMW s
F HLB
RES ULTS
Ġtop ics
ĠPark er
Ġmagn etic
ĠAd equ
arg aining
Ġreconc iliations
art on
por ter
establis hing
IND ER
bu ilt
ĠTim ing
Ġbas ket
SIGN ATURE
Ġintens ify
ĠM Y
Ġdisplay ed
ĠCA IR
ĠON LY
ĠD GCL
ay ne
ĠOrgan ic
Ġdisp atch
ĠC BL
ĠA CH
ĠBr ight
ĠM HC
Europe an
quef action
Ġirrepar able
ĠInstall ment
VIR ONMENT
ass ignment
Ġtop ical
Ġmess ages
ĠR out
Ġ$, )
Ġexplan atory
Ġlo sing
ĠK ings
Dan iel
E ligible
j iang
in ers
ĠREPRESENT ATIONS
threat ening
ĠM ail
ĠS F
Mon th
proceed ing
Ġdisgorge ment
B LE
certif icate
DI A
ĠWa ivers
ĠP ent
ĠL isted
V s
ĠBCBS A
Ġb ig
Ġm ajeure
Ġpro portions
ĠP SA
ĠM ORTG
cl ause
Ġl umber
b onus
LE G
at tainment
enti v
Ġencour aging
ĠShen zhen
ĠUN L
ĠCab ot
ve hic
Ġstation ary
ĠS ust
Ġdisc our
Enti ty
ĠSig ma
aff iliate
ĠCO DE
ĠFAT CA
ĠD ick
Ġun incorporated
ĠSe ven
ĠTO TAL
W orld
ĠQu ick
omm end
stand ings
Y ork
Ġh ole
ĠM BA
Ġce asing
enn y
Ġinterconn ect
ĠRog ers
Cent ral
Ġremodel ing
Ġcorrect ly
ID END
ĠX i
Ġobserv ance
Ġdis order
ind ividually
as sumed
ĠLig gett
ĠO l
Ġinject able
ĠThe at
Ġin sofar
Ġpay er
ĠV E
s afety
Ġadjud ication
Ind iana
Ġregistr ar
S W
ĠAm ex
ĠKron os
point s
e vidence
r anging
Ġcod ified
K Y
Ġdistr icts
Ġair ports
er istics
ĠK P
AM P
Ġno vo
Ġtr acks
ĠRe ed
ĠGrant ors
st able
ĠL ands
ist leb
CI L
L ist
Ġwar nings
Ġst ag
Ġdecon solidated
Ġme al
ĠP o
pot entially
an xi
Ġqu e
Ġdeple ted
Ġcustom ization
ĠJeff eries
Purch aser
ĠF is
ĠM aj
el ective
Ġthir teen
ĠB h
Ġw ine
Ġline ar
ĠLex ington
A CE
Pr int
ro id
expect ations
uel ing
ĠU DR
Ġar ti
roll ers
Be acon
od ay
ĠTransfer or
Ġlev ies
iv a
ĠSupp liers
ab ine
Ġpro lifer
id ers
oh l
x iv
ĠMon etary
ĠUnderwrit ers
ic ators
An alysis
ĠCrest wood
ĠF TE
ĠTrad itional
ic its
Ġbankrupt cies
Ġwe ld
ĠR ica
% ,
ĠIm portant
ĠBrun swick
ĠM ack
Ġcoll ars
de pendence
P lease
ed ge
Ġint ersegment
Ġarr anging
Ġname ly
Ġbar ges
Ġcigaret tes
Ġc uts
ĠMED IA
um s
clus ivity
ĠRy an
Ex cluding
ARE IT
Jeff rey
Ġsem ian
Ġconcentr ates
Ġreserv ations
Ġfre estanding
dam ages
ĠRE T
ĠStud ent
an et
ĠBi ologics
r in
ĠA partments
C ounter
E ven
ism s
Ġtransition ed
Ġwire line
ĠMEASURE MENTS
Ġreg ener
Ġaug ment
ĠCli ents
ch allen
ĠMetro politan
Ġc ables
ext ension
ĠO pp
there after
ĠDec lines
ĠOffic ial
Ġpracti tion
Be ginning
ĠCon go
row ing
pl ate
Ġtechn icians
r ial
ĠDivestit ures
f inance
ĠA K
million s
Ġti ered
we ather
ĠStand by
ĠG er
Ġtract ors
ned y
Ġre affirm
Ġr ain
ack er
ĠESTIM ATES
z umab
ĠAr ray
oc lon
ough t
Ġm ild
ĠE ve
Ġunre imbursed
ĠHealth Care
me tics
ĠPension s
CORPOR ATION
oclon al
CE P
Ġdispos itive
ĠSU BM
Ġprecise ly
ĠR oc
ĠPro hibited
yw ine
Ġfl ag
Ġdisallow ed
particip ating
Ġredund ant
ĠAd am
ĠST AR
ĠA on
ĠUS E
br ibery
ĠPl atinum
Ġins ights
uc or
J O
Ġ. ()
Ġpro vince
Ġbreak downs
Ġrese arc
Wh ole
Pat rick
s avings
ĠWARR ANT
ĠFil m
Ġtransition ing
Ġf ish
ĠM PT
ĠC ypress
Ġadvertise ment
Ġop h
industr ial
v ens
ment o
ĠPepsi Co
here to
ĠVol cker
Ġbudg etary
ĠTEX AS
i ences
Ġg athered
i ors
qu or
Ġ[***] .
P al
Ġtre ble
Ġnotif ying
Ġnon deductible
ĠPR SUs
ĠK CS
ĠS EN
yl an
Medic are
s cheduled
Ġdeb ar
ĠLo oking
# )
Ġt m
Ġn ucle
-.. -
az on
LE TE
M ississippi
Ġsix th
T W
ac re
orb idity
ĠH K
liquid ation
Ġ($,, )
ĠTravel ers
ĠAckn owledge
m ons
Ġadvis ing
s olutions
multi ple
ĠY u
ĠEQ R
ĠDelay ed
ĠC U
Ġcomplex ities
ĠCarr ying
ur face
C N
dis continued
B U
ĠSt abil
ĠImper ial
Ġfundamental s
Ġ. ),
emin ine
ĠSt rength
Tr ade
graph ic
ĠT urb
ick el
ĠSOL UTIONS
ĠK V
iven ess
Ġunanim ous
ĠL on
ĠN Q
ĠAir ways
Ġs leep
ĠSt ream
Ġre actions
ĠPR Ps
Ġseason s
ĠDis charge
oul try
ĠB ed
Ġ- ;
st ates
l ers
Se paration
Ġse a
ĠAr g
ĠInd icates
Ġep id
ĠDo es
omin ee
mo ving
V oting
ĠVi olation
ir acy
Ġimp lements
ĠFort une
U ARY
ĠPercent ages
ĠCour se
Ġbl ue
ĠN SR
ĠĠĠĠĠĠĠĠĠĠĠĠĠĠĠĠĠĠĠĠĠĠĠĠĠĠĠĠĠĠĠĠĠĠĠĠĠĠĠĠĠĠĠĠĠĠĠĠĠĠĠĠĠĠĠĠĠĠĠĠĠĠĠĠĠĠĠĠĠĠĠĠĠĠĠĠĠĠĠĠĠĠĠĠĠĠĠĠĠĠĠĠĠĠĠĠ ĠĠĠĠĠĠĠĠĠĠĠĠĠ
um ina
Ġprescrib ing
Ġendorse ments
Ġlot tery
trans ferred
oled o
ĠC atch
ĠF NB
ĠU R
ib ration
Ġprodu cible
particip ate
Ġ____ _
Ġin term
ĠUS DA
xim ate
el iness
it as
LL S
ESS OR
Ġcurtail ed
ĠC losed
ven tive
ĠTes oro
ĠS PP
Ġaut h
] [
ĠN itrogen
h n
ĠMan it
ĠGran ite
ĠL an
Ġfore go
ĠAss emb
f unctions
ĠRail car
H o
Ġdis interested
ĠMid land
g ically
ts man
ĠHard ware
D U
ĠMerc ury
ll an
cli ent
ĠP ly
Ġmo vie
ĠInf inity
TI Z
Ġremo ves
ĠPay ee
Ġdele gation
Ġexped ited
ĠDecre ases
ĠTurn er
Ġres ide
Ġ ion
b den
Ġbl ending
Ġfour teen
ĠAc celeration
yne gy
Ġf uneral
ĠC ut
ĠE CA
ĠR etro
ĠLo c
ĠGinn ie
ĠC old
ĠC arter
Ġtal ented
Ġs aving
Ġpark s
Ġrec ur
Ġv enti
ĠCol umn
ĠC arbon
s quare
s it
Ġrank ed
ĠM EX
hest er
Ġme rely
ĠBe verage
c ade
ĠH off
Ġund isc
ĠD etroit
Ġsp inal
ĠProt ected
p led
ĠWes Banco
Ġrepeal ed
Ġconf erences
Ġs ands
ill a
ĠMor ning
it ter
Ġadv oc
ĠC CO
ĠN umerous
ĠDe veloper
Ġm alls
Ġto lerated
Ġh orm
ĠM ond
In ternet
ĠH ot
B el
De partment
Ġnutr ition
exp ansion
Ġoph thalm
ĠX X
ĠBar n
Comm unity
Ġstruct urally
ĠCD s
And rew
Ġtr uly
d ose
s k
ĠL ESSEE
vol ution
s em
ĠOS HA
m ix
AB LY
Ġacknowled ging
ĠE aton
Ġsystem atic
en ers
Ġre acquired
ĠM ET
ĠT errorism
ĠAU THOR
ĠA SP
Ġmand atorily
ĠA EG
Ġcon vention
( $
ĠAssess ments
Ġrailroad s
Ġdis qualified
Ġco ast
Depos its
ĠM obility
ul us
ĠJ uan
Ġfood service
Ġinformation al
G U
Ġdecre es
ish i
ĠMont gomery
Ġdisp ensing
Ġemp owered
rig ation
ey er
ĠPER IOD
Ġpres criptions
ĠDEFER RED
ĠM aur
ĠJon athan
'' ''
ĠHoll and
am ine
Ġcontr a
Pro duction
AG ES
sub mitted
Ġblank et
Ġpes o
Ġpreem ptive
Ther ap
A IN
need s
orm an
Ġt icker
Ġpict ure
t ec
ĠE li
itor ious
Ġd anger
Ġse gregation
ĠTermin ated
Ph illips
Ġreposition ing
ĠFC X
Ġroad s
ĠReport ed
ĠDR B
Ġcoll ects
UR C
OW N
Ġnotif ications
limit ing
ĠSand Ridge
ĠSEC OND
ĠISO s
C ompanies
Ġlabel ed
aj o
rep rene
Ġaccommod ation
od i
ĠH end
ĠGr id
ĠGuarantee ing
tr active
un i
ĠRece iving
ĠD over
Ġdi v
Ġfree ze
ĠWal mart
ux ili
mat urities
administr ation
Ġinvestig ator
Ġdiscus ses
no tif
Ġredund ancy
ĠT CC
Ġord inance
R MB
Ġwork flow
ĠCon stellation
lu ent
sequ ences
health care
ĠDE A
ĠEnh anced
Ġen sures
Act ual
ren tal
ĠA gricultural
ĠAM OUN
B ern
collateral ized
Current ly
ĠH ierarchy
ĠVal ero
Ġburdens ome
Ġentit ling
At tention
ĠSh andong
Ġdef icits
il aterally
Ġretro fit
M T
M obil
h aving
ĠM RI
Ġbas ins
o cy
t echn
i ology
Ġbiom ark
Ġsp ine
ĠBl vd
re tain
ĠUn favorable
de pending
ĠDivers ified
ur ious
Ġumb rella
HA EL
ĠAU TO
C urrency
Ġtraden ames
ĠGe o
as tic
ĠDef icit
T AR
W ater
ĠS part
ĠS ie
") ;
Ġreorgan ized
per mit
Ġun approved
ĠAccru als
th ings
Ġacc ompanies
ĠBrook s
ĠBU YER
ĠAs pen
ĠF abric
ĠA the
a por
Ġcoll ar
o ved
ru pted
echnolo gical
ombin ant
Ġa head
ĠFr ied
ĠEMPLOY EES
ĠSch oles
Ġdisproportion ately
cr iminatory
Ġspecial izes
gr ass
ĠW elfare
ĠAS R
ĠM emorial
ĠNe o
medi ate
guarant ee
Ġrespect ing
organ izations
ĠAppro ach
Ġarchitect ural
Ġinflamm ation
Ġcontempor aneous
ĠDis abled
borrow er
Ġexh aus
Ġcomm its
G AR
om eters
ĠW ol
rest aur
ĠKen nedy
ĠAmeri Gas
amp s
ĠDER IV
ast es
ĠReg al
Ġinstall ing
E ITF
ĠN ursing
Comb ined
Ġinter act
S ite
Ġpro c
ĠEn able
m el
le en
G old
ĠMon roe
Ġconflic ting
Spec ific
ĠSubless ee
asser ted
Ġen zyme
Ġclin icians
Ġadjourn ment
ĠE MS
ĠMillion s
ann ouncements
iti ci
vi an
RE L
ĠSand y
Ġprovin ces
d id
ĠK it
prom otion
W B
as uring
Purch ases
ĠW ave
An ti
Ġbe auty
Ġdr afts
ĠDisc ounted
M yers
ĠJac obs
bden um
Administr ation
ĠSur plus
Ġh a
ĠREGISTR ATION
ĠArbit r
ĠV oy
Ġb all
certif ied
ĠGord on
ĠAC P
str om
Ġspec ification
ĠCir cular
ĠX II
Un it
ĠOrgan izational
id ad
Ġquot as
ĠIndian apolis
ĠC IP
Ġt ear
ĠD ix
ĠPay roll
Ġp el
as ions
ĠH ad
U F
Ġuns olicited
f lex
GEN ERAL
ĠAC KNOW
Ġle aves
aster ly
Ġdiscip line
W ar
F ERC
c od
Ġfarm s
Ġund es
bl ind
Ġpreval ent
F urn
ber ly
Fr amework
ĠInter connection
ĠRece ipt
ĠDeer field
W estern
ĠE th
Ġmess age
P ack
ĠIniti ative
im a
Ġcli ff
T B
ĠPOR TIONS
c ourse
Ġd ro
Ġstud ied
Ġcon tiguous
Ġconsum able
b es
ĠSqu ibb
Ġliquid ator
Ġnear by
v ity
ĠOp Co
ĠT erry
ĠPat t
ĠCr ystal
ĠSchw ab
Ġmod er
ĠHigh lights
Ġmetall urgical
i age
m os
Ġco astal
ĠNDA s
Ġunre mitted
ĠPen elec
ĠR ain
Ġlap ses
res olution
Ch ris
g ence
ĠM SC
comp rised
ĠX V
ĠSch l
ĠDem ised
Ġ rough
AGREE MENT
e a
Ġed ge
ĠA id
AN CES
class ification
ĠBH CA
ĠKir k
Ġoccup ation
ĠPal o
Ex ercise
ĠDynam ics
IC K
ĠEs sex
Ġc in
Ġcontr action
ati le
Part ner
ĠMerc antile
hed ging
Ġremarket ing
Ġc itizen
exp ire
ĠMW h
H ill
Ġpresent ment
ĠS ands
Ġseiz ures
Ġs on
Che m
provid ers
ĠDEP OS
ĠC ure
ll a
Ġdis agreement
Ġw alk
ĠD SP
n uclear
ĠT owers
Ġmineral ized
Ġt s
Ġin siders
ĠC OR
ĠCM O
Ġhands ets
ĠLi u
Ġpension s
ex ecution
ĠN AT
ĠEQ T
TE X
resp onse
Ġorigin ators
ĠREQU IRE
p articipant
Ġl ubric
ati de
itor ial
iqu es
f ail
int on
mat ter
L ux
ĠV eri
ĠEn er
hed ged
ĠM AS
Dis continued
Ġsmart phones
hed ge
ĠGM AC
Ġdeep water
Ġstag gered
c op
ur ability
ĠComp eting
sole ly
W AY
Ġmanu ally
opp el
Ġsyn drome
omin ately
Ġow es
n ce
ĠRS As
with draw
Ġcomb at
ĠMEX ICO
M is
ĠN ap
ĠN SA
ĠP ine
ĠE fficiency
ĠA im
App endix
P eter
Ġobserv ation
ĠRel ative
Ġwell ness
ĠHe avy
ĠV AR
Artic les
Ġwith stand
ĠF raud
ur ses
ĠF ax
Invest ing
Ġknow ing
Ġincons istency
B USINESS
ĠP TC
ĠBroad way
Ġgen u
e o
ĠC aterpillar
O fficers
ac tiveness
Ġaud iences
ĠDiff erences
Ġass emble
ĠPlas tics
ĠCOVEN ANTS
Ġhundred s
in arily
Ag gregate
ĠPatt erson
Ġobj ections
pret ations
First Energy
Ġsu ited
ĠIndemn itees
ĠMin neapolis
ĠPRE FERRED
ĠNew castle
ĠMe an
Ġmal icious
ĠStip ulation
Ġtermin able
ĠF an
ĠSec rets
Ġbook keeping
can cer
ĠRATI O
ĠMed tronic
bank ruptcy
Organ ization
ĠEFF ECTIVE
Ġpopular ity
ĠOHI O
ĠAl k
\ .
i ans
Ġdepreci ate
mer ch
Ġfle ets
Ġm all
Ġde valuation
Ġbott om
l ending
ĠSu ites
ĠGen co
na ire
M L
ĠPE TROLEUM
ĠPer f
ĠPe ak
Ġv an
Ġdifferenti ation
Ġresearc hers
W I
ĠRail way
ĠSh aw
Aff iliates
im posed
benef icial
Ġoun ce
Ġsimult aneous
G ood
ĠPhys icians
Ġallo ys
Ġ(,, )
Ġme gaw
c redits
ĠD EN
ĠE NG
Ġcor ruption
ĠP os
Ġst ain
ĠCont em
Ġlif ec
Ġhur dle
assemb lies
M H
ĠD AM
Ġfinan ces
ĠOx ley
ĠRequ ested
ĠCH AR
ĠTi O
Ġimp rec
in herent
EN CY
Ġwell head
Ġinterpre tive
ĠD I
ĠDe ad
ĠPERS ONS
Ġwhe el
ĠSec ret
dis criminatory
Ġd urable
Ġm obility
ĠPre paration
ĠPR ICE
ĠACQUISI TION
ĠAP P
Ġco ding
ĠLOSS ES
Con tinent
ĠArm strong
ĠMerc er
stell as
Ġb order
ĠPAY ABLE
Ind ebtedness
ĠD L
Ġdiscip linary
ĠAs bestos
ĠF al
CER TAIN
ort on
ĠG a
ĠB S
Well s
Ġspecial ist
Invest or
Ġconsum e
Ġl en
Ġexplosion s
ĠM ah
Ġover view
Ġkind s
ĠIdentif iable
est inal
ĠTIM E
ĠACTIV ITIES
ies el
p arent
ĠN AREIT
Ġint ake
ĠFace book
ĠT all
h ospital
Ġsub j
ĠINC LUDING
Ġcompet encies
Ġflo at
Ġcorrid or
ĠBET WEEN
Mass achusetts
ĠAll state
ĠAudit ors
n ut
Ġb ps
Ġreconc iled
ti eth
on ia
Ġconfig urations
ĠRead ers
age llan
ĠFin land
claim ed
Ġcooper atives
Ġun regulated
TIG ATION
Ġt ornado
Ġcult ural
G F
Ġdel isting
ĠCo ff
EL D
ĠI CE
R ad
Ġapplic ants
ĠCS G
ĠPack age
Ġf eminine
ĠCOS TS
ĠV ale
ĠWAIV ES
ĠCorner stone
Ġt reasurer
p itude
ĠRec on
Cont ents
Ġbook ed
ĠFN MA
accru ing
IN AS
rep ayment
ĠLIM IT
ĠT ake
Pre viously
Ġrefr actory
E con
Ġpre amble
defin ition
Ġmetab ol
ll er
$,, .
ĠSen ate
Ġn ut
Pro f
Ġm orbidity
TI TION
Ġavoid ing
ĠFF ELP
andid ate
certif icated
Ġre ader
ĠT an
ĠSh opping
Gu ard
ĠDAV ID
F lo
stat us
comm unications
ĠRE V
h arm
FOR WARD
Ġh ub
p an
Ġun ified
Ġdiff ered
Ġ[***] ,
ĠI ll
Ad just
bre ach
Ġshort en
Ġt ape
Sub stantially
Ġveter inary
ĠD T
Ġres titution
J apan
ĠM ID
Ġa es
Ph il
Rest ated
ĠD orado
es ity
Ġalle vi
Ġmortg aged
Ġdetail ing
Ġupd ating
Ġt andem
ĠT IL
Ġs weet
d uration
ĠIND ENTURE
Ġinadvert ent
uis ance
g ers
DITION AL
Ġt el
ĠJ SC
ĠH UD
ĠReport able
Ġfr agr
Ġwrong doing
ĠBro kers
ĠAFF ILI
ĠI dec
ĠSun Edison
Ġminim izes
ste o
ĠT ulsa
Ġunder performing
Sever ance
CERTIFIC ATIONS
Ġoriginal s
ph is
Ġby pass
ĠPurch asing
Ġstrong ly
ĠPR OM
project ed
Ġt ex
ĠO U
Ġtim eliness
book s
Ġh ackers
Ġhydro gen
ĠAcad emy
C OL
ĠT am
Ġar isen
Ġmod e
Ġv ic
Ġsuff ering
E merg
ment ary
Recogn ition
F ree
Ġun settled
ob taining
CO T
ĠAdverse ly
allow ances
ĠMat ch
ĠHOLD ERS
concer ning
Ġapp liance
Ġawa iting
V esting
ĠAct avis
ĠGl axo
I ON
ish ay
Ġtub ing
ĠCad ence
re conc
on al
WIT H
Z iff
Ġend angered
ĠConcer ning
Ġn erve
ĠPro gressive
Ġul tr
Ġs lo
ĠIND I
r am
V AL
ĠPan ama
Ġd u
ĠHoney well
Ġref ueling
Ġrecover ables
ĠSal aried
Ġclar ified
D ay
ĠCl ay
urg ery
Louis iana
ĠU ses
ĠT CI
Ġbi ofuel
Bu ild
ĠMORTG AGE
Ġrenegoti ated
Ġan chor
ĠS AC
Ġsubs cribed
ĠKn ight
UT ATION
Ġtr illion
h ole
in clusive
ĠS l
ĠPr incip
Ġattain s
pre vailing
ĠUS OF
aud itors
Ġassign ees
ĠDES IGN
ax el
OU GH
Con version
amer as
ĠBu yers
ĠNAS CAR
ĠN W
ison ment
ĠWILL IAM
ĠCAROL INAS
cl er
Ġplug ging
Concent ration
Ġinfring es
Ġmon oclonal
ar ches
MARK ET
Ġsession s
Ġmer itorious
( ,
Ph armaceutical
infr astructure
ĠT P
ph al
ĠSt orm
Ġen cryption
ĠUn foreseeable
ĠV ia
ĠAm azon
caus ed
Ġmortgage e
round ed
are as
Ġappoint ing
ĠTRUS TEE
P redecessor
ĠC ancell
ĠRE VEN
Ġimpl ants
F amily
enh ance
ph ys
rem ed
ĠH as
ĠA ER
Comp onents
Ġrenegoti ate
UMUL ATED
ĠQ SR
ĠPop ular
apital ization
u lo
REV OC
Ġan t
ĠPre payments
ĠPR P
ĠInstru ctions
Ġweight ings
Ġbetter ments
Ġdomic ile
c ross
ĠP eters
est a
Ġstud ios
C ounty
ĠSe al
ĠSub standard
ĠAl pha
ĠAM T
ĠR x
DR s
ĠMic ron
ĠDC F
Ġpres erving
w au
Im m
ĠD ental
ĠCon cept
cul ine
ĠL arry
sel ected
ĠUse ful
Ġab brevi
ĠDefault s
negative ly
Ġemerg ed
ro d
ĠD ynegy
ĠOTC QB
s yn
ĠQ ues
im il
writ e
Ġdi ver
Ġrec overs
under writing
Ġattr activeness
ĠGOVERN ED
Ġteleph ony
U NDER
ĠP GE
Ġmonetiz e
ind a
e ye
ĠExtension s
ĠARR ANGE
Ġg astro
ĠFr action
IR C
Ġunion ized
um en
qual ify
ĠIr idium
ĠTreat y
Ġconn ecting
certif ication
x in
Ġord inarily
ĠG ame
Ġred acted
TEM BER
ĠCon currently
Ġdeplo ying
ĠAW ARDS
ro oms
cor responding
Ġcho osing
Ġintr aven
contem plated
ET ARY
Ġthreat en
Al abama
hen y
ĠLP G
Ġtur pitude
Ġresult ant
Ġstr anded
mod ification
ĠTrig ger
process es
ĠPC s
Ġr ich
k es
ig ure
COMP ANY
Decre ase
ĠR G
G reat
A wards
E TEC
qu oted
Provid e
M ON
ĠG OLD
Ġd ys
Ġcomp el
ĠB ever
Ġresid ences
SECUR ITY
Ġr abbi
Ġco operating
ĠĠĠĠĠĠĠĠĠĠĠĠĠĠĠĠĠĠĠĠĠĠĠĠĠĠĠĠĠĠĠĠ ĠĠĠĠĠĠĠĠĠĠĠĠ
ĠSher man
ĠB erg
ĠContract ors
Pat ent
ĠHH SC
ĠOne Beacon
Ġli p
ĠTher mal
leg islation
AS CO
Ġgu aranties
Ġundes irable
Ġinterpre ting
ĠPROVID ED
z ym
Univers ity
Ac tivities
VIRONMENT AL
ĠU LC
ĠST A
o ge
Ġocc asions
Ġcarry over
Pro visions
EF F
ĠLIN E
ĠFuel s
ĠSD G
y te
ĠM PL
Ġdel isted
ĠMari time
as i
ĠG lob
Ġfabric s
Ġinf low
ĠID T
ac ceptance
Ġton nage
ĠB ESP
sub sequently
Ġir regular
ĠUn paid
e ties
o cr
Ġpred ominately
Ġsubs ystems
ret ro
Def ined
su its
Ġadverti ser
Ġindetermin ate
C li
Ġre tr
Ġt ires
ong oing
T reasurer
ĠArab ia
ĠG EO
ĠAR RA
FOR CE
Ġdiagn osed
ĠS ut
Ġtr uth
ĠCre ation
T D
through out
um ns
Ġbill able
ĠAl locations
ness y
SC R
Ġease ment
ĠS I
ĠF B
ĠE b
Ġobtain able
Ġab normal
UL AR
Ġsupervis ed
ĠVers ion
ĠACQUISI TIONS
ĠENTERPR ISES
ĠCar roll
Ġfeat uring
Ġcance lable
p atitis
ĠĠĠĠĠĠĠĠĠĠĠĠĠĠĠĠ ĠĠĠĠĠĠĠĠčĊ
ĠH ond
ĠL ion
Ġcons ignment
Ġre valued
ĠC um
cal culation
ĠR ider
int ensive
Ġcon ve
determin es
measure ments
ession als
Ġs porting
ĠRes olute
M ER
Ġfore ver
diffic ult
D EP
r ane
Ġinterconn ected
individual s
Ġwrit es
ĠIP C
ĠHe at
ind ers
az z
Ġt iers
Ġ iv
ĠJ et
Ġpropos ition
Ġf lights
ĠConc ord
end a
Ġcur ric
Ġent ails
Ġ[ *
Imp act
ĠR BS
Ġrecip ro
Ġswit ches
ĠStaff ing
Report s
h ana
Ġfurnish ings
ĠL IST
ĠFIN ANCE
ĠS OUTH
Ġli ti
Ġdis k
on ary
ĠOther s
cons tit
Ġpi ece
ĠE SA
Ġmonetiz ation
Ġmic rowave
ĠTur k
Ġt ire
Un associated
F U
Success or
ĠMes a
ĠCredit ed
ĠAr n
jud gments
ĠI CP
Ġper haps
OUN CE
pr iv
ĠPl ants
ĠEll is
Res ources
Ġ**** **
ĠSE VER
ĠRO IC
ĠAcknowledge ment
ĠEx ceptions
ĠInterest ed
ĠSal on
ĠA stellas
am ous
ĠMATERI ALS
wau kee
m or
Ġindex es
d d
enti re
ĠCS APR
Ġf at
Ġr up
ist an
Ġrestr aining
Ġ$( ,)
diff erence
D eb
ĠH yd
ĠE IT
vant a
Ġexce pted
Ġc am
Ġmagaz ine
Ġguarantee ing
ĠColl ins
ĠTog ether
Ġl ithium
Ġsem iconductors
poss ession
Ġvolunte ers
ru b
oco Phillips
ĠF rost
put ation
uncertain ty
ext ended
inc eton
ne um
ĠLEND ER
ĠAutom obile
Enter prise
s chedule
ĠS CC
Ġse ats
Ġnon contributory
ĠINDI ANA
Ġun ilaterally
Ġn ations
ĠTys on
gener ate
ĠSan ctions
Ġturb ines
f ood
Ġc ameras
ĠEqual ization
ax man
P ath
Ġ] ,
Pro t
Col umb
ĠC orporations
ĠL es
impro ved
ĠPh ot
Ġmodel ed
ĠO IG
Ġevol ution
id ges
ĠFarm ers
N ature
oli tion
Ġimpr isonment
vol ta
B ar
Ġpro viso
ĠN ames
ĠSubs titute
ĠCONTR AC
Ġsmel ter
rede emed
L enders
he on
rec ords
ĠB ott
ind s
G reg
struct ure
ĠForfe itures
u art
Ġstem ming
Ġsub limit
ĠSte in
ĠAir bus
ĠParagraph s
ab ot
ĠQu anta
Ġbarr ier
ĠE lements
ĠM CC
ĠM ylan
aign e
ĠSec ure
ch apter
V er
et nam
Ġacceler ating
Ġaccre tive
Ġcertif icated
Ref er
if ax
Ġm ari
Ġins urable
sum mary
ĠNom inees
ĠMerchand ise
Ġemphas izes
iti us
Ġch icken
ĠRe imb
Def icit
ĠH L
ĠDis crimination
ĠDis play
au x
ĠDec ree
Ġperce ive
M al
th ousand
Ġ- ):
ĠRed uctions
ĠBrand ywine
Ġm arried
Ġbeh avi
ĠRe yn
invol ve
m il
ĠSal v
ĠGen worth
illi p
OM AS
Ġ** ***
UTION ARY
Ġd urations
ĠSc hering
ĠPro ct
ĠPen ny
Mont aigne
ĠG amble
Ġpul monary
ach ie
be zz
ĠACC UMULATED
ĠP BM
Ġ). *
ĠREG ULATION
Ġdevelopment al
Ġren al
reg ional
premium s
Ġb le
ĠLeg g
ĠDV D
D il
us eful
ĠZh ong
p ool
ĠM ILL
ra ising
discretion ary
Ġexp ensing
Ġcathe ter
ĠV est
ackn owled
ren gthe
Ġann ex
oper ators
sub ishi
ĠMS HA
____ _
qu in
I ATION
Ġtransfer ability
PO SE
ĠBe auty
Ġpossess ing
impact ed
ĠP FS
ĠCL IA
s ki
omm y
ĠG ard
Ġformat ted
J oint
ĠZ e
D onald
ĠU k
Ġdetri ment
exam ple
ĠP il
PR OPER
Ġpertain s
Borrow ings
infr ing
tim edia
an other
cli ents
Ġgraph ics
Ġcons p
Govern mental
Ġrepurch asing
TEN TION
s plit
Ġdeterior ated
Ġt abular
Ġbet a
and o
Ġdemand ed
AN NUAL
c os
ĠL V
ĠFred erick
Ġcentr ally
istleb lower
Ġme als
ĠAl lo
ear lier
Ġstain less
X i
Ġun de
Ġinvesti gated
ens on
ĠMIC HAEL
sc reen
h ydro
ĠS PL
ĠCol on
Ġres istant
trans ition
Ġview ing
N uclear
v asive
Ġpreval ence
ĠEx ting
ĠNot ary
g ering
Ġfil ters
Industr ial
ĠF AR
ĠE vidence
Ġfil tration
ĠQu ad
ĠJAM ES
g iving
ĠL aud
Ġp oultry
ĠProject ed
ĠRO BERT
o es
ĠUtiliz ation
Ġcomp licated
Ġtrib unal
enn ium
UR AL
OUNCE MENTS
P resent
Ġpro pri
Ġout placement
Ġc exvw
ĠM iche
ĠG I
Ġyour s
Def in
itici zed
Pro xy
Tem porary
en gage
ĠLight ing
ĠCon tain
av ored
Ġdest inations
Ġbifur cated
ĠW TI
cul ating
Col orado
ĠRelease es
ĠCorp s
an oma
Ġtechn ically
itan ium
ĠAbs ent
Ġres ins
Ġ(/ )
ĠExtra ordinary
ro ke
ĠĠĠĠĠĠĠĠĠĠĠĠĠĠĠĠ ĠĠĠĠĠĠčĊ
ad y
ĠOr ient
ĠT BA
ĠIR REVOC
ĠE DC
ub b
Braz il
h ouses
Ġp it
ĠC EN
Ġvers a
int rodu
Ġclo ser
Govern ance
tiv a
Ġem bezz
Ġmas culine
est ones
ĠVal id
ĠPat heon
EC s
Ġresum ed
Net work
in sp
Ġfinal ization
ĠF ounder
ulf ur
he l
ĠR D
emet ery
ĠC HE
ĠNP AC
eng ers
de ath
ĠReti red
Ġcontempor aneously
S ecured
res istant
approval s
E r
Ġrec omp
Ġreact ing
S L
Ġn il
Ġmagaz ines
ĠAT C
urs able
Ġint ers
Ġknow s
enforce ment
Ġreg imen
NIFIC ATION
Ġanti gen
ĠP ossible
Ġjud ged
ĠRe wards
RI ETARY
Ġhos tilities
Ġatmosp here
* (
ĠT oday
ĠH unt
ĠConf erence
ĠFD CA
tele phone
K SB
ĠO wens
anc ock
ps y
Ġb ought
ĠJ iang
ul um
ON OUNCEMENTS
Ġdistr action
ĠC TC
ĠF o
Ġr iders
ĠG CI
Ġrevis es
sh ine
ĠCustom s
Ġargu ment
Ġhab its
ĠCF C
TOR Y
r if
Ġattach ments
ĠCONSTR UED
Ġam alg
Ġfarm ers
Ġload s
d eb
TI L
M ajor
OR TH
Ġeconom ical
ĠEQ M
m i
ĠCar p
avior al
Ġch ose
Ġmeas urable
Ġoverl ap
K ent
ĠG K
Ġre tal
ĠU L
Ġen rolling
Ġpl umbing
Ġwhere upon
Ġfound ries
ĠN avig
Ġpass ing
Ġbehavi ors
ĠN H
direct ed
ĠAutom ation
ĠBANK S
Ġint ensity
ĠCO DM
atter y
Ġpro ves
ĠN ut
ĠAssemb ly
Bu yer
Ġtimefr ames
ĠDele k
ĠCBI Z
Ġout we
Log ic
Ġreg istry
cons ists
ĠMach inery
erm es
[...]
